#pragma once
#include <cstddef>
#include <cstdint>

alignas(16) const unsigned char espcn_micro_int8_tflite[] = {
  0x20, 0x00, 0x00, 0x00, 0x54, 0x46, 0x4c, 0x33, 0x00, 0x00, 0x00, 0x00, 0x14, 0x00, 0x20, 0x00,
  0x1c, 0x00, 0x18, 0x00, 0x14, 0x00, 0x10, 0x00, 0x0c, 0x00, 0x00, 0x00, 0x08, 0x00, 0x04, 0x00,
  0x14, 0x00, 0x00, 0x00, 0x1c, 0x00, 0x00, 0x00, 0x8c, 0x00, 0x00, 0x00, 0xe4, 0x00, 0x00, 0x00,
  0xa8, 0x08, 0x00, 0x00, 0xb8, 0x08, 0x00, 0x00, 0x58, 0x14, 0x00, 0x00, 0x03, 0x00, 0x00, 0x00,
  0x01, 0x00, 0x00, 0x00, 0x10, 0x00, 0x00, 0x00, 0x00, 0x00, 0x0a, 0x00, 0x10, 0x00, 0x0c, 0x00,
  0x08, 0x00, 0x04, 0x00, 0x0a, 0x00, 0x00, 0x00, 0x0c, 0x00, 0x00, 0x00, 0x1c, 0x00, 0x00, 0x00,
  0x3c, 0x00, 0x00, 0x00, 0x0f, 0x00, 0x00, 0x00, 0x73, 0x65, 0x72, 0x76, 0x69, 0x6e, 0x67, 0x5f,
  0x64, 0x65, 0x66, 0x61, 0x75, 0x6c, 0x74, 0x00, 0x01, 0x00, 0x00, 0x00, 0x04, 0x00, 0x00, 0x00,
  0x9c, 0xff, 0xff, 0xff, 0x0a, 0x00, 0x00, 0x00, 0x04, 0x00, 0x00, 0x00, 0x08, 0x00, 0x00, 0x00,
  0x6f, 0x75, 0x74, 0x70, 0x75, 0x74, 0x5f, 0x30, 0x00, 0x00, 0x00, 0x00, 0x01, 0x00, 0x00, 0x00,
  0x04, 0x00, 0x00, 0x00, 0x3e, 0xf7, 0xff, 0xff, 0x04, 0x00, 0x00, 0x00, 0x02, 0x00, 0x00, 0x00,
  0x6c, 0x72, 0x00, 0x00, 0x02, 0x00, 0x00, 0x00, 0x34, 0x00, 0x00, 0x00, 0x04, 0x00, 0x00, 0x00,
  0xdc, 0xff, 0xff, 0xff, 0x0d, 0x00, 0x00, 0x00, 0x04, 0x00, 0x00, 0x00, 0x13, 0x00, 0x00, 0x00,
  0x43, 0x4f, 0x4e, 0x56, 0x45, 0x52, 0x53, 0x49, 0x4f, 0x4e, 0x5f, 0x4d, 0x45, 0x54, 0x41, 0x44,
  0x41, 0x54, 0x41, 0x00, 0x08, 0x00, 0x0c, 0x00, 0x08, 0x00, 0x04, 0x00, 0x08, 0x00, 0x00, 0x00,
  0x0c, 0x00, 0x00, 0x00, 0x04, 0x00, 0x00, 0x00, 0x13, 0x00, 0x00, 0x00, 0x6d, 0x69, 0x6e, 0x5f,
  0x72, 0x75, 0x6e, 0x74, 0x69, 0x6d, 0x65, 0x5f, 0x76, 0x65, 0x72, 0x73, 0x69, 0x6f, 0x6e, 0x00,
  0x0e, 0x00, 0x00, 0x00, 0xc0, 0x07, 0x00, 0x00, 0xb4, 0x07, 0x00, 0x00, 0x94, 0x07, 0x00, 0x00,
  0x64, 0x06, 0x00, 0x00, 0x34, 0x06, 0x00, 0x00, 0xa4, 0x01, 0x00, 0x00, 0x54, 0x01, 0x00, 0x00,
  0xb4, 0x00, 0x00, 0x00, 0xac, 0x00, 0x00, 0x00, 0xa4, 0x00, 0x00, 0x00, 0x9c, 0x00, 0x00, 0x00,
  0x94, 0x00, 0x00, 0x00, 0x74, 0x00, 0x00, 0x00, 0x04, 0x00, 0x00, 0x00, 0xe6, 0xf7, 0xff, 0xff,
  0x04, 0x00, 0x00, 0x00, 0x60, 0x00, 0x00, 0x00, 0x0c, 0x00, 0x00, 0x00, 0x08, 0x00, 0x0e, 0x00,
  0x08, 0x00, 0x04, 0x00, 0x08, 0x00, 0x00, 0x00, 0x10, 0x00, 0x00, 0x00, 0x28, 0x00, 0x00, 0x00,
  0x00, 0x00, 0x06, 0x00, 0x08, 0x00, 0x04, 0x00, 0x06, 0x00, 0x00, 0x00, 0x04, 0x00, 0x00, 0x00,
  0x01, 0x00, 0x00, 0x00, 0xeb, 0x03, 0x00, 0x00, 0x0c, 0x00, 0x18, 0x00, 0x14, 0x00, 0x10, 0x00,
  0x0c, 0x00, 0x04, 0x00, 0x0c, 0x00, 0x00, 0x00, 0xcc, 0x75, 0x17, 0x39, 0x61, 0x4f, 0xaf, 0x55,
  0x02, 0x00, 0x00, 0x00, 0x02, 0x00, 0x00, 0x00, 0x04, 0x00, 0x00, 0x00, 0x06, 0x00, 0x00, 0x00,
  0x32, 0x2e, 0x32, 0x31, 0x2e, 0x30, 0x00, 0x00, 0x52, 0xf8, 0xff, 0xff, 0x04, 0x00, 0x00, 0x00,
  0x10, 0x00, 0x00, 0x00, 0x32, 0x2e, 0x35, 0x2e, 0x30, 0x00, 0x00, 0x00, 0x00, 0x00, 0x00, 0x00,
  0x00, 0x00, 0x00, 0x00, 0x04, 0xf9, 0xff, 0xff, 0x08, 0xf9, 0xff, 0xff, 0x0c, 0xf9, 0xff, 0xff,
  0x10, 0xf9, 0xff, 0xff, 0x7e, 0xf8, 0xff, 0xff, 0x04, 0x00, 0x00, 0x00, 0x90, 0x00, 0x00, 0x00,
  0x7f, 0xb2, 0xdd, 0xa4, 0xeb, 0x03, 0x56, 0x06, 0x37, 0x1f, 0xac, 0xf0, 0x33, 0x49, 0x7f, 0x5a,
  0x5c, 0xa1, 0xda, 0x25, 0xf8, 0x48, 0x34, 0x9f, 0x1d, 0xd5, 0x7f, 0x7f, 0xdf, 0xf7, 0x27, 0x22,
  0xf9, 0xbb, 0x15, 0xe5, 0x04, 0x81, 0x0b, 0xe6, 0x32, 0x0f, 0x01, 0x12, 0x16, 0x34, 0x73, 0xbe,
  0x8b, 0x7f, 0xcd, 0x73, 0x8c, 0x43, 0x7f, 0x5d, 0x42, 0x33, 0x63, 0x62, 0x1f, 0xa5, 0xcb, 0xc5,
  0xe2, 0x1d, 0x6b, 0x7f, 0x53, 0xe1, 0xfa, 0xd1, 0x06, 0x5e, 0x93, 0xfe, 0x7f, 0x31, 0xc9, 0x1c,
  0x13, 0x76, 0xc9, 0x32, 0xe0, 0xc7, 0x34, 0x7f, 0xa7, 0x52, 0xc6, 0x39, 0x06, 0xc4, 0x77, 0x3d,
  0xcd, 0xf2, 0x7f, 0xdb, 0x00, 0x0a, 0x81, 0xf5, 0x05, 0x0b, 0x49, 0x1c, 0x65, 0xf6, 0x65, 0x37,
  0x7f, 0x24, 0x4d, 0x3a, 0x9c, 0x1e, 0xf1, 0x08, 0x7f, 0x74, 0xcb, 0x28, 0x07, 0xda, 0x15, 0xc2,
  0x15, 0xfc, 0x25, 0x7f, 0xad, 0x74, 0x13, 0x0c, 0x16, 0xbe, 0x19, 0x30, 0x81, 0x07, 0xf2, 0x15,
  0x1a, 0xf9, 0xff, 0xff, 0x04, 0x00, 0x00, 0x00, 0x40, 0x00, 0x00, 0x00, 0x81, 0x2d, 0x00, 0x00,
  0x59, 0x03, 0x00, 0x00, 0x72, 0x0b, 0x00, 0x00, 0x1d, 0x0d, 0x00, 0x00, 0xb4, 0xfd, 0xff, 0xff,
  0xa2, 0x0a, 0x00, 0x00, 0x39, 0x03, 0x00, 0x00, 0xd0, 0x09, 0x00, 0x00, 0x38, 0x0d, 0x00, 0x00,
  0xc1, 0x13, 0x00, 0x00, 0x71, 0x02, 0x00, 0x00, 0x4c, 0xfd, 0xff, 0xff, 0x3b, 0xfd, 0xff, 0xff,
  0x33, 0x0b, 0x00, 0x00, 0xee, 0x01, 0x00, 0x00, 0x11, 0x01, 0x00, 0x00, 0x66, 0xf9, 0xff, 0xff,
  0x04, 0x00, 0x00, 0x00, 0x80, 0x04, 0x00, 0x00, 0x0a, 0xbd, 0x2f, 0x23, 0x02, 0xfd, 0xf7, 0xf6,
  0x09, 0xf5, 0x16, 0xf9, 0x00, 0x0b, 0xec, 0xf8, 0xcc, 0xe2, 0xdb, 0x10, 0xef, 0xf2, 0xed, 0xf8,
  0xe2, 0xd1, 0xeb, 0xab, 0xe3, 0x0d, 0x52, 0xff, 0xf5, 0xef, 0xd9, 0x44, 0x02, 0xe8, 0x04, 0x13,
  0x07, 0xfe, 0x24, 0x01, 0xf4, 0x14, 0x0f, 0x0a, 0x09, 0x18, 0x06, 0xf1, 0x16, 0x0f, 0x0a, 0x2e,
  0x05, 0x0a, 0x01, 0x0c, 0x04, 0x0c, 0x23, 0xd9, 0xf6, 0x2f, 0x2a, 0xff, 0x7f, 0x3d, 0x23, 0x3a,
  0x56, 0xc3, 0x1a, 0x3a, 0x10, 0x1f, 0xfd, 0x32, 0x4c, 0xfa, 0xc3, 0xd8, 0xfe, 0x48, 0xfe, 0xae,
  0xe7, 0xd8, 0x11, 0x06, 0xf4, 0xb8, 0x26, 0xf1, 0x10, 0x09, 0xf7, 0x18, 0xdf, 0xff, 0xd7, 0xe5,
  0xe3, 0xf1, 0xfb, 0x0c, 0xe4, 0x0e, 0xe2, 0x06, 0xec, 0xe1, 0x26, 0xfa, 0xb6, 0xf7, 0xe5, 0xf0,
  0x12, 0x00, 0xe5, 0x2d, 0x08, 0x1e, 0x05, 0x23, 0xf6, 0x01, 0xef, 0x05, 0xf6, 0x12, 0x03, 0xdc,
  0xfd, 0xd8, 0x1b, 0x17, 0xed, 0x3e, 0xd3, 0xf9, 0x18, 0xed, 0x47, 0xfe, 0x16, 0x3a, 0xeb, 0x29,
  0x10, 0x19, 0x0b, 0xd7, 0xf3, 0xca, 0x46, 0xeb, 0xe9, 0xf2, 0xd4, 0x3b, 0x13, 0x0c, 0x36, 0x02,
  0x28, 0xc5, 0x02, 0x64, 0xf3, 0x58, 0x26, 0xcc, 0xe9, 0x38, 0xf8, 0x98, 0xf1, 0xe8, 0x07, 0xf9,
  0xde, 0x3d, 0xb2, 0x0c, 0x02, 0x35, 0x09, 0x11, 0x09, 0x4e, 0xac, 0xef, 0xc8, 0x10, 0xf1, 0x29,
  0xf9, 0xd0, 0x25, 0x08, 0x06, 0x04, 0x0e, 0xe9, 0xf3, 0x05, 0x3d, 0x1c, 0x33, 0x11, 0x22, 0x7f,
  0x6c, 0xe3, 0x4a, 0xc6, 0x24, 0x5a, 0xf4, 0xbc, 0xb1, 0x2b, 0x68, 0x42, 0xab, 0xae, 0xf5, 0x64,
  0xeb, 0xe9, 0x05, 0xd1, 0xfc, 0x5a, 0x3d, 0x28, 0xef, 0x25, 0xcc, 0xe5, 0x13, 0xd7, 0x2e, 0xe3,
  0xeb, 0xfc, 0xf6, 0x18, 0xdf, 0x35, 0xf2, 0x2d, 0xcf, 0xe2, 0xf2, 0x1d, 0xca, 0x53, 0xfa, 0x0f,
  0xf6, 0xc7, 0x27, 0xf6, 0xee, 0x59, 0xff, 0xae, 0x2f, 0x03, 0xdc, 0x28, 0x68, 0x29, 0xe8, 0xd5,
  0x18, 0x58, 0xfa, 0xd4, 0x26, 0xe5, 0xf7, 0xea, 0x44, 0xb9, 0x9d, 0xf7, 0xa6, 0x01, 0x40, 0x18,
  0x0b, 0x39, 0x59, 0xa1, 0x27, 0x8a, 0x81, 0xea, 0xe0, 0xa3, 0xc6, 0x5a, 0xe3, 0x1d, 0x32, 0xcc,
  0xb4, 0x0d, 0x9c, 0x0a, 0xa8, 0xc4, 0x14, 0xd0, 0x09, 0xb9, 0x7a, 0xee, 0xaa, 0x42, 0xe9, 0xe9,
  0xd5, 0x71, 0xd5, 0xf7, 0xa8, 0x46, 0x0c, 0x3a, 0xb4, 0x16, 0x67, 0xb4, 0xab, 0xda, 0x04, 0x99,
  0xba, 0xf6, 0x93, 0xbc, 0x83, 0x87, 0x43, 0x20, 0x89, 0x85, 0x82, 0x1a, 0xbd, 0xdd, 0x4a, 0x0a,
  0xfc, 0xd1, 0xe7, 0xf9, 0xbf, 0x14, 0x70, 0x8a, 0x90, 0xb1, 0x40, 0xe9, 0xfe, 0x88, 0xca, 0xac,
  0xe6, 0x24, 0x63, 0xdc, 0x61, 0x91, 0x99, 0x9c, 0x31, 0x4b, 0x26, 0xdb, 0xad, 0x7b, 0x29, 0xa4,
  0x86, 0x88, 0xe2, 0x18, 0x83, 0x03, 0xcc, 0x52, 0xf7, 0xed, 0xf7, 0xbd, 0x72, 0x0e, 0xde, 0x0e,
  0x58, 0xfd, 0x66, 0x17, 0xa5, 0xb2, 0x29, 0x2e, 0xba, 0xd9, 0x24, 0x11, 0xb2, 0xc7, 0xa5, 0xa3,
  0x06, 0x89, 0xb4, 0x55, 0xbf, 0x12, 0x8c, 0x61, 0x0e, 0x01, 0x28, 0xce, 0x0d, 0x0f, 0x1e, 0xd7,
  0xdf, 0x3f, 0x2d, 0x2c, 0x1d, 0xc5, 0x24, 0xe0, 0x00, 0xf5, 0xb0, 0xef, 0xe5, 0x14, 0xdf, 0x2c,
  0x38, 0xee, 0x37, 0x2a, 0x0b, 0x25, 0x47, 0x25, 0xea, 0xea, 0x2a, 0x10, 0x28, 0xe8, 0x04, 0x28,
  0xcb, 0x11, 0xcb, 0xb0, 0xf3, 0x1d, 0x37, 0x10, 0x1f, 0xfc, 0xa1, 0x10, 0xd7, 0xef, 0xf9, 0x14,
  0x12, 0xef, 0x00, 0x0b, 0x1f, 0xe7, 0xf1, 0xe6, 0x0c, 0xf8, 0xdf, 0xc5, 0xe4, 0xd4, 0xd7, 0x1d,
  0xf5, 0x18, 0x3a, 0xc9, 0x2f, 0x5d, 0x31, 0x2e, 0xbd, 0x35, 0xff, 0xe0, 0xf0, 0xe8, 0xfc, 0x02,
  0x3b, 0x11, 0xe4, 0x7f, 0xf5, 0xe3, 0xe9, 0x04, 0xf6, 0x12, 0x30, 0x07, 0x12, 0xed, 0x04, 0x09,
  0x33, 0xd7, 0xce, 0xd9, 0xd5, 0x39, 0x10, 0xc2, 0xd9, 0x34, 0x18, 0x59, 0xfe, 0xff, 0x0f, 0x1f,
  0x09, 0xbf, 0x16, 0xf6, 0x12, 0x0e, 0xc9, 0xe7, 0x30, 0x30, 0x0d, 0xfc, 0xd5, 0xbf, 0x19, 0xd8,
  0x3b, 0xca, 0x43, 0x32, 0x1a, 0x1f, 0xd0, 0xf2, 0x18, 0x12, 0x2a, 0xdb, 0xe1, 0xfb, 0x25, 0x12,
  0x16, 0x24, 0x12, 0xcf, 0x0e, 0xd2, 0xfe, 0xf5, 0xf7, 0x13, 0x24, 0xf0, 0xff, 0x18, 0xf8, 0xe9,
  0x1a, 0xe2, 0x35, 0xf1, 0xe9, 0x16, 0xe4, 0x2a, 0xd7, 0x25, 0x04, 0xd5, 0x1c, 0x0e, 0xfe, 0xe7,
  0x07, 0x1b, 0x02, 0xc8, 0x15, 0x01, 0xfe, 0x08, 0x1b, 0xf0, 0x09, 0xd4, 0x2e, 0x0b, 0x0c, 0x11,
  0xef, 0x14, 0xcf, 0x35, 0x22, 0xfd, 0xfd, 0x3a, 0xf6, 0x04, 0x18, 0x1f, 0x6e, 0xfa, 0xf8, 0x3f,
  0xf9, 0xe1, 0x38, 0x7f, 0xff, 0x47, 0xff, 0xfb, 0x12, 0xfc, 0xf5, 0x1a, 0x07, 0xf7, 0xe4, 0x21,
  0xe9, 0xe9, 0xd2, 0xde, 0x07, 0x22, 0x16, 0x17, 0x15, 0xe6, 0xd9, 0xe4, 0xd0, 0x0c, 0xdc, 0xe1,
  0x21, 0xef, 0xfa, 0x14, 0x12, 0xee, 0xf9, 0x4a, 0xfa, 0xf9, 0x16, 0xfd, 0x88, 0x14, 0x13, 0x12,
  0x2d, 0xfc, 0x04, 0x34, 0xfb, 0x25, 0xe1, 0xa7, 0x0d, 0x07, 0xec, 0xb5, 0xeb, 0x0f, 0x12, 0x1d,
  0x20, 0xcf, 0x15, 0x54, 0xf2, 0xd6, 0xf4, 0xea, 0xcc, 0xf6, 0x04, 0x1f, 0xe6, 0x0a, 0x05, 0xe1,
  0xe5, 0xdd, 0xc9, 0x06, 0xf6, 0xf7, 0xf3, 0x14, 0x11, 0x18, 0x0e, 0x11, 0x0d, 0xd0, 0xf1, 0x04,
  0x04, 0xe5, 0x3a, 0x69, 0x11, 0x17, 0x0b, 0x14, 0x31, 0xf9, 0x20, 0xca, 0x11, 0x11, 0x00, 0xe9,
  0x0c, 0x39, 0xd3, 0xa3, 0x15, 0xf8, 0xf7, 0xfc, 0x0b, 0x01, 0x50, 0xf7, 0x8f, 0x13, 0x0c, 0xff,
  0x02, 0xd4, 0xf3, 0x31, 0xeb, 0x06, 0xdb, 0xed, 0x1f, 0xee, 0xf4, 0xe3, 0xd2, 0x03, 0x14, 0x06,
  0x01, 0xdc, 0x26, 0xf5, 0x15, 0x07, 0x09, 0xed, 0xd0, 0xf6, 0x10, 0x12, 0xef, 0xfc, 0x0d, 0x20,
  0xef, 0x19, 0xce, 0x1b, 0xfd, 0x3d, 0x22, 0x10, 0x81, 0xe8, 0xe3, 0x18, 0x64, 0x26, 0x11, 0xc1,
  0xc7, 0x2a, 0x20, 0x09, 0x16, 0x27, 0x00, 0xec, 0xeb, 0x09, 0xc9, 0xe8, 0x23, 0x11, 0xfc, 0x02,
  0x08, 0x25, 0xf1, 0xf5, 0xf6, 0x00, 0x18, 0x0a, 0xee, 0x11, 0xfe, 0xc4, 0x01, 0xec, 0xda, 0x19,
  0xf6, 0x0d, 0xfb, 0xe7, 0xf0, 0xeb, 0x1d, 0x04, 0x0a, 0x10, 0xf2, 0xf4, 0xf4, 0xc3, 0x1e, 0x11,
  0x3b, 0xdd, 0xe5, 0x0e, 0x0d, 0xd9, 0x1c, 0x0f, 0x08, 0xf7, 0x1f, 0x1b, 0xf8, 0x20, 0x17, 0x15,
  0xe0, 0xdd, 0x0a, 0x04, 0xff, 0x33, 0x17, 0xec, 0xec, 0xf5, 0x11, 0xf6, 0xf6, 0x18, 0xe3, 0x2e,
  0xe1, 0x08, 0xdd, 0x19, 0xf3, 0x12, 0x12, 0x05, 0xe0, 0x0c, 0x13, 0xea, 0x1b, 0x43, 0x13, 0x3d,
  0x01, 0xd1, 0x2f, 0xae, 0x19, 0x29, 0xf1, 0xbf, 0xe0, 0x03, 0x0b, 0x16, 0x16, 0xd3, 0xe3, 0xfe,
  0x49, 0xe4, 0x14, 0x81, 0x05, 0x0a, 0xf3, 0x3d, 0xfc, 0xf7, 0xcb, 0xff, 0x0f, 0x29, 0x1f, 0x12,
  0x01, 0x35, 0xf7, 0x29, 0x08, 0x1c, 0xfe, 0x09, 0x03, 0xff, 0x04, 0xd1, 0x73, 0x03, 0xeb, 0x0b,
  0xe2, 0x07, 0x06, 0x17, 0xfb, 0xdf, 0x25, 0x98, 0xf8, 0x1a, 0xf0, 0x2d, 0xff, 0x22, 0x16, 0x24,
  0x22, 0x1b, 0x2c, 0x86, 0x17, 0xf1, 0x1e, 0x35, 0xf9, 0xef, 0xf9, 0xfd, 0xd3, 0x02, 0x18, 0x0c,
  0x1f, 0xe6, 0x00, 0x39, 0x11, 0xfe, 0x1c, 0xf3, 0x0d, 0xed, 0x24, 0x04, 0x08, 0xfc, 0x10, 0xf1,
  0xfe, 0xde, 0xfd, 0xe6, 0x02, 0x01, 0xf1, 0xf8, 0xfe, 0x01, 0x0b, 0xe8, 0xfc, 0xef, 0x06, 0x11,
  0x1d, 0xf7, 0xe0, 0x2a, 0x07, 0xd3, 0xea, 0x09, 0x24, 0x20, 0xf6, 0xeb, 0x0c, 0x06, 0x1f, 0x00,
  0xfd, 0xee, 0x08, 0x03, 0x0d, 0xf6, 0xfb, 0xf3, 0x06, 0x00, 0x26, 0x02, 0xd1, 0x15, 0xfc, 0x10,
  0x0e, 0xeb, 0xff, 0x1b, 0x17, 0x07, 0xf3, 0x57, 0xec, 0xf2, 0x08, 0x2d, 0xe1, 0xd9, 0x08, 0x15,
  0xec, 0xff, 0x0e, 0x7f, 0x2a, 0x26, 0x2b, 0x07, 0xec, 0x05, 0x1a, 0xe8, 0x02, 0x21, 0xe8, 0x36,
  0x0e, 0xc5, 0x18, 0x05, 0xf5, 0x07, 0x15, 0x02, 0x07, 0xf5, 0x12, 0xec, 0x1e, 0xfd, 0x20, 0xe0,
  0x0c, 0xf4, 0xf4, 0x0f, 0xf0, 0xf3, 0xfc, 0x12, 0x10, 0x08, 0xe3, 0xfb, 0xad, 0x27, 0x28, 0xc9,
  0xf8, 0x13, 0x09, 0xf0, 0x0d, 0xda, 0x02, 0x17, 0xfd, 0xf2, 0x06, 0xeb, 0x00, 0xf6, 0x07, 0xf6,
  0x1b, 0xe8, 0xfb, 0x33, 0xf9, 0x21, 0xee, 0xf8, 0xf2, 0xfd, 0xff, 0xff, 0x04, 0x00, 0x00, 0x00,
  0x20, 0x00, 0x00, 0x00, 0xde, 0xfd, 0xff, 0xff, 0x17, 0xfd, 0xff, 0xff, 0xfd, 0xfa, 0xff, 0xff,
  0x0f, 0x04, 0x00, 0x00, 0xce, 0xfe, 0xff, 0xff, 0xb6, 0xfd, 0xff, 0xff, 0xa5, 0x02, 0x00, 0x00,
  0x45, 0x00, 0x00, 0x00, 0x1e, 0xfe, 0xff, 0xff, 0x04, 0x00, 0x00, 0x00, 0x20, 0x01, 0x00, 0x00,
  0x0d, 0xf8, 0xe1, 0x00, 0xff, 0xfa, 0xf7, 0x0c, 0xee, 0x00, 0x06, 0x05, 0x08, 0x01, 0x17, 0x16,
  0x03, 0x0a, 0xf2, 0xfe, 0x0c, 0x10, 0xe3, 0xed, 0xc9, 0x24, 0x12, 0xf5, 0xf6, 0xeb, 0xef, 0x0f,
  0x7f, 0x43, 0xf8, 0xfa, 0xfa, 0x36, 0x02, 0xec, 0xfa, 0xfa, 0x1f, 0xdc, 0x1b, 0xe3, 0x19, 0x2d,
  0x12, 0x09, 0x0e, 0xf1, 0xf4, 0x03, 0x01, 0x01, 0xe4, 0x0a, 0x02, 0x11, 0x0d, 0x1b, 0x17, 0xe0,
  0x03, 0x06, 0xf7, 0xe0, 0xfd, 0xf9, 0x00, 0x03, 0x02, 0x04, 0xe7, 0x0e, 0x00, 0x08, 0x05, 0x01,
  0x07, 0x05, 0x1d, 0xff, 0x18, 0x0a, 0xe5, 0x03, 0xf7, 0xfd, 0xe1, 0x08, 0x09, 0xf3, 0xfd, 0xe7,
  0xde, 0xf2, 0xfd, 0xf9, 0xf0, 0xf5, 0x04, 0x00, 0x7f, 0x35, 0xee, 0x1a, 0x13, 0x03, 0x04, 0x0f,
  0x07, 0x0c, 0xf9, 0x09, 0xf2, 0xef, 0x26, 0x18, 0xfb, 0xfc, 0xfd, 0x11, 0xf0, 0x02, 0xf9, 0x14,
  0xfe, 0x09, 0xe5, 0xee, 0x12, 0xf5, 0x17, 0xde, 0xf9, 0xf6, 0x0f, 0xe6, 0x14, 0x01, 0xfc, 0xed,
  0x1c, 0xe4, 0xf2, 0x11, 0xfa, 0xf3, 0x0f, 0x14, 0xd7, 0xea, 0xe2, 0x0d, 0xdb, 0xf3, 0x22, 0xff,
  0x13, 0x10, 0xea, 0x13, 0xf7, 0x0b, 0xe6, 0xef, 0xb5, 0x16, 0xde, 0x00, 0x11, 0x07, 0x0a, 0x03,
  0x7f, 0x4e, 0x1e, 0x13, 0x13, 0x7b, 0xf8, 0xe5, 0xf5, 0x06, 0x01, 0xeb, 0x21, 0xf7, 0xf1, 0xfb,
  0x02, 0xf8, 0xef, 0x05, 0x01, 0xfa, 0xf4, 0x10, 0xef, 0x0d, 0xe7, 0x1a, 0x01, 0x24, 0x1f, 0xe1,
  0x12, 0x06, 0xe9, 0xf6, 0xe6, 0xf6, 0xfe, 0x32, 0x15, 0xfd, 0x0a, 0xf2, 0xf9, 0xfe, 0x0e, 0x07,
  0xe9, 0xf2, 0xe4, 0x13, 0xf1, 0xf0, 0x0e, 0xf3, 0xfa, 0xf4, 0x19, 0x1d, 0xed, 0xe8, 0xfc, 0xea,
  0xbe, 0xe4, 0xfd, 0x17, 0x17, 0x06, 0x17, 0x01, 0x7f, 0x3b, 0x06, 0x0f, 0x1b, 0x47, 0xfb, 0x14,
  0xf4, 0x03, 0x17, 0x21, 0x0b, 0xff, 0x1e, 0xed, 0x22, 0xf6, 0x19, 0x0d, 0xe3, 0xfd, 0xf3, 0x22,
  0x0b, 0x10, 0x1e, 0x15, 0xff, 0xf8, 0x10, 0xee, 0x03, 0xfd, 0x19, 0xec, 0xf6, 0x03, 0xfd, 0x03,
  0x4a, 0xff, 0xff, 0xff, 0x04, 0x00, 0x00, 0x00, 0x10, 0x00, 0x00, 0x00, 0xe4, 0xfd, 0xff, 0xff,
  0x26, 0xfe, 0xff, 0xff, 0xde, 0xfd, 0xff, 0xff, 0x58, 0xfe, 0xff, 0xff, 0xfc, 0xff, 0xff, 0xff,
  0x04, 0x00, 0x04, 0x00, 0x04, 0x00, 0x00, 0x00, 0x0f, 0x00, 0x00, 0x00, 0x4d, 0x4c, 0x49, 0x52,
  0x20, 0x43, 0x6f, 0x6e, 0x76, 0x65, 0x72, 0x74, 0x65, 0x64, 0x2e, 0x00, 0x01, 0x00, 0x00, 0x00,
  0x14, 0x00, 0x00, 0x00, 0x00, 0x00, 0x0e, 0x00, 0x18, 0x00, 0x14, 0x00, 0x10, 0x00, 0x0c, 0x00,
  0x08, 0x00, 0x04, 0x00, 0x0e, 0x00, 0x00, 0x00, 0x14, 0x00, 0x00, 0x00, 0x1c, 0x00, 0x00, 0x00,
  0x5c, 0x01, 0x00, 0x00, 0x60, 0x01, 0x00, 0x00, 0x64, 0x01, 0x00, 0x00, 0x04, 0x00, 0x00, 0x00,
  0x6d, 0x61, 0x69, 0x6e, 0x00, 0x00, 0x00, 0x00, 0x04, 0x00, 0x00, 0x00, 0xf8, 0x00, 0x00, 0x00,
  0xa8, 0x00, 0x00, 0x00, 0x60, 0x00, 0x00, 0x00, 0x14, 0x00, 0x00, 0x00, 0x00, 0x00, 0x0e, 0x00,
  0x1a, 0x00, 0x14, 0x00, 0x10, 0x00, 0x0c, 0x00, 0x0b, 0x00, 0x04, 0x00, 0x0e, 0x00, 0x00, 0x00,
  0x1c, 0x00, 0x00, 0x00, 0x00, 0x00, 0x00, 0x5e, 0x1c, 0x00, 0x00, 0x00, 0x20, 0x00, 0x00, 0x00,
  0x01, 0x00, 0x00, 0x00, 0x00, 0x00, 0x06, 0x00, 0x08, 0x00, 0x04, 0x00, 0x06, 0x00, 0x00, 0x00,
  0x02, 0x00, 0x00, 0x00, 0x01, 0x00, 0x00, 0x00, 0x0a, 0x00, 0x00, 0x00, 0x01, 0x00, 0x00, 0x00,
  0x09, 0x00, 0x00, 0x00, 0x00, 0x00, 0x0e, 0x00, 0x16, 0x00, 0x00, 0x00, 0x10, 0x00, 0x0c, 0x00,
  0x0b, 0x00, 0x04, 0x00, 0x0e, 0x00, 0x00, 0x00, 0x1c, 0x00, 0x00, 0x00, 0x00, 0x00, 0x00, 0x01,
  0x20, 0x00, 0x00, 0x00, 0x24, 0x00, 0x00, 0x00, 0x00, 0x00, 0x0a, 0x00, 0x0c, 0x00, 0x00, 0x00,
  0x08, 0x00, 0x04, 0x00, 0x0a, 0x00, 0x00, 0x00, 0x01, 0x00, 0x00, 0x00, 0x01, 0x00, 0x00, 0x00,
  0x01, 0x00, 0x00, 0x00, 0x09, 0x00, 0x00, 0x00, 0x03, 0x00, 0x00, 0x00, 0x08, 0x00, 0x00, 0x00,
  0x02, 0x00, 0x00, 0x00, 0x01, 0x00, 0x00, 0x00, 0xc2, 0xff, 0xff, 0xff, 0x10, 0x00, 0x00, 0x00,
  0x00, 0x00, 0x00, 0x01, 0x18, 0x00, 0x00, 0x00, 0x1c, 0x00, 0x00, 0x00, 0xb4, 0xff, 0xff, 0xff,
  0x00, 0x00, 0x00, 0x01, 0x01, 0x00, 0x00, 0x00, 0x01, 0x00, 0x00, 0x00, 0x01, 0x00, 0x00, 0x00,
  0x08, 0x00, 0x00, 0x00, 0x03, 0x00, 0x00, 0x00, 0x07, 0x00, 0x00, 0x00, 0x04, 0x00, 0x00, 0x00,
  0x03, 0x00, 0x00, 0x00, 0x00, 0x00, 0x0e, 0x00, 0x14, 0x00, 0x00, 0x00, 0x10, 0x00, 0x0c, 0x00,
  0x0b, 0x00, 0x04, 0x00, 0x0e, 0x00, 0x00, 0x00, 0x1c, 0x00, 0x00, 0x00, 0x00, 0x00, 0x00, 0x01,
  0x24, 0x00, 0x00, 0x00, 0x28, 0x00, 0x00, 0x00, 0x0c, 0x00, 0x10, 0x00, 0x00, 0x00, 0x0c, 0x00,
  0x08, 0x00, 0x07, 0x00, 0x0c, 0x00, 0x00, 0x00, 0x00, 0x00, 0x00, 0x01, 0x01, 0x00, 0x00, 0x00,
  0x01, 0x00, 0x00, 0x00, 0x01, 0x00, 0x00, 0x00, 0x07, 0x00, 0x00, 0x00, 0x03, 0x00, 0x00, 0x00,
  0x00, 0x00, 0x00, 0x00, 0x06, 0x00, 0x00, 0x00, 0x05, 0x00, 0x00, 0x00, 0x01, 0x00, 0x00, 0x00,
  0x0a, 0x00, 0x00, 0x00, 0x01, 0x00, 0x00, 0x00, 0x00, 0x00, 0x00, 0x00, 0x0b, 0x00, 0x00, 0x00,
  0x80, 0x09, 0x00, 0x00, 0x98, 0x08, 0x00, 0x00, 0xdc, 0x07, 0x00, 0x00, 0xc0, 0x06, 0x00, 0x00,
  0xec, 0x05, 0x00, 0x00, 0x70, 0x04, 0x00, 0x00, 0x3c, 0x03, 0x00, 0x00, 0x50, 0x02, 0x00, 0x00,
  0x64, 0x01, 0x00, 0x00, 0x90, 0x00, 0x00, 0x00, 0x04, 0x00, 0x00, 0x00, 0xc2, 0xf6, 0xff, 0xff,
  0x00, 0x00, 0x00, 0x01, 0x18, 0x00, 0x00, 0x00, 0x28, 0x00, 0x00, 0x00, 0x44, 0x00, 0x00, 0x00,
  0x0b, 0x00, 0x00, 0x00, 0x00, 0x00, 0x00, 0x09, 0x58, 0x00, 0x00, 0x00, 0x04, 0x00, 0x00, 0x00,
  0xff, 0xff, 0xff, 0xff, 0x30, 0x00, 0x00, 0x00, 0x40, 0x00, 0x00, 0x00, 0x01, 0x00, 0x00, 0x00,
  0xac, 0xf6, 0xff, 0xff, 0x08, 0x00, 0x00, 0x00, 0x10, 0x00, 0x00, 0x00, 0x01, 0x00, 0x00, 0x00,
  0x8e, 0xff, 0xff, 0xff, 0xff, 0xff, 0xff, 0xff, 0x01, 0x00, 0x00, 0x00, 0xf6, 0xe1, 0x90, 0x3b,
  0x1b, 0x00, 0x00, 0x00, 0x53, 0x74, 0x61, 0x74, 0x65, 0x66, 0x75, 0x6c, 0x50, 0x61, 0x72, 0x74,
  0x69, 0x74, 0x69, 0x6f, 0x6e, 0x65, 0x64, 0x43, 0x61, 0x6c, 0x6c, 0x5f, 0x31, 0x3a, 0x30, 0x00,
  0x04, 0x00, 0x00, 0x00, 0x01, 0x00, 0x00, 0x00, 0x30, 0x00, 0x00, 0x00, 0x40, 0x00, 0x00, 0x00,
  0x01, 0x00, 0x00, 0x00, 0x4a, 0xf7, 0xff, 0xff, 0x00, 0x00, 0x00, 0x01, 0x18, 0x00, 0x00, 0x00,
  0x28, 0x00, 0x00, 0x00, 0x48, 0x00, 0x00, 0x00, 0x0a, 0x00, 0x00, 0x00, 0x00, 0x00, 0x00, 0x09,
  0xa0, 0x00, 0x00, 0x00, 0x04, 0x00, 0x00, 0x00, 0xff, 0xff, 0xff, 0xff, 0x18, 0x00, 0x00, 0x00,
  0x20, 0x00, 0x00, 0x00, 0x04, 0x00, 0x00, 0x00, 0x34, 0xf7, 0xff, 0xff, 0x08, 0x00, 0x00, 0x00,
  0x14, 0x00, 0x00, 0x00, 0x01, 0x00, 0x00, 0x00, 0x8e, 0xff, 0xff, 0xff, 0xff, 0xff, 0xff, 0xff,
  0x00, 0x00, 0x00, 0x00, 0x01, 0x00, 0x00, 0x00, 0xf6, 0xe1, 0x90, 0x3b, 0x5e, 0x00, 0x00, 0x00,
  0x65, 0x73, 0x70, 0x63, 0x6e, 0x5f, 0x6d, 0x69, 0x63, 0x72, 0x6f, 0x5f, 0x31, 0x2f, 0x63, 0x6f,
  0x6e, 0x76, 0x33, 0x5f, 0x31, 0x2f, 0x42, 0x69, 0x61, 0x73, 0x41, 0x64, 0x64, 0x3b, 0x65, 0x73,
  0x70, 0x63, 0x6e, 0x5f, 0x6d, 0x69, 0x63, 0x72, 0x6f, 0x5f, 0x31, 0x2f, 0x63, 0x6f, 0x6e, 0x76,
  0x33, 0x5f, 0x31, 0x2f, 0x63, 0x6f, 0x6e, 0x76, 0x6f, 0x6c, 0x75, 0x74, 0x69, 0x6f, 0x6e, 0x3b,
  0x65, 0x73, 0x70, 0x63, 0x6e, 0x5f, 0x6d, 0x69, 0x63, 0x72, 0x6f, 0x5f, 0x31, 0x2f, 0x63, 0x6f,
  0x6e, 0x76, 0x33, 0x5f, 0x31, 0x2f, 0x53, 0x71, 0x75, 0x65, 0x65, 0x7a, 0x65, 0x31, 0x00, 0x00,
  0x04, 0x00, 0x00, 0x00, 0x01, 0x00, 0x00, 0x00, 0x18, 0x00, 0x00, 0x00, 0x20, 0x00, 0x00, 0x00,
  0x04, 0x00, 0x00, 0x00, 0x1a, 0xf8, 0xff, 0xff, 0x00, 0x00, 0x00, 0x01, 0x18, 0x00, 0x00, 0x00,
  0x28, 0x00, 0x00, 0x00, 0x44, 0x00, 0x00, 0x00, 0x09, 0x00, 0x00, 0x00, 0x00, 0x00, 0x00, 0x09,
  0xb8, 0x00, 0x00, 0x00, 0x04, 0x00, 0x00, 0x00, 0xff, 0xff, 0xff, 0xff, 0x18, 0x00, 0x00, 0x00,
  0x20, 0x00, 0x00, 0x00, 0x08, 0x00, 0x00, 0x00, 0x04, 0xf8, 0xff, 0xff, 0x08, 0x00, 0x00, 0x00,
  0x10, 0x00, 0x00, 0x00, 0x01, 0x00, 0x00, 0x00, 0x80, 0xff, 0xff, 0xff, 0xff, 0xff, 0xff, 0xff,
  0x01, 0x00, 0x00, 0x00, 0x86, 0x75, 0xa5, 0x3b, 0x79, 0x00, 0x00, 0x00, 0x65, 0x73, 0x70, 0x63,
  0x6e, 0x5f, 0x6d, 0x69, 0x63, 0x72, 0x6f, 0x5f, 0x31, 0x2f, 0x63, 0x6f, 0x6e, 0x76, 0x32, 0x5f,
  0x31, 0x2f, 0x52, 0x65, 0x6c, 0x75, 0x3b, 0x65, 0x73, 0x70, 0x63, 0x6e, 0x5f, 0x6d, 0x69, 0x63,
  0x72, 0x6f, 0x5f, 0x31, 0x2f, 0x63, 0x6f, 0x6e, 0x76, 0x32, 0x5f, 0x31, 0x2f, 0x42, 0x69, 0x61,
  0x73, 0x41, 0x64, 0x64, 0x3b, 0x65, 0x73, 0x70, 0x63, 0x6e, 0x5f, 0x6d, 0x69, 0x63, 0x72, 0x6f,
  0x5f, 0x31, 0x2f, 0x63, 0x6f, 0x6e, 0x76, 0x32, 0x5f, 0x31, 0x2f, 0x63, 0x6f, 0x6e, 0x76, 0x6f,
  0x6c, 0x75, 0x74, 0x69, 0x6f, 0x6e, 0x3b, 0x65, 0x73, 0x70, 0x63, 0x6e, 0x5f, 0x6d, 0x69, 0x63,
  0x72, 0x6f, 0x5f, 0x31, 0x2f, 0x63, 0x6f, 0x6e, 0x76, 0x32, 0x5f, 0x31, 0x2f, 0x53, 0x71, 0x75,
  0x65, 0x65, 0x7a, 0x65, 0x31, 0x00, 0x00, 0x00, 0x04, 0x00, 0x00, 0x00, 0x01, 0x00, 0x00, 0x00,
  0x18, 0x00, 0x00, 0x00, 0x20, 0x00, 0x00, 0x00, 0x08, 0x00, 0x00, 0x00, 0x02, 0xf9, 0xff, 0xff,
  0x00, 0x00, 0x00, 0x01, 0x18, 0x00, 0x00, 0x00, 0x28, 0x00, 0x00, 0x00, 0x44, 0x00, 0x00, 0x00,
  0x08, 0x00, 0x00, 0x00, 0x00, 0x00, 0x00, 0x09, 0xb8, 0x00, 0x00, 0x00, 0x04, 0x00, 0x00, 0x00,
  0xff, 0xff, 0xff, 0xff, 0x18, 0x00, 0x00, 0x00, 0x20, 0x00, 0x00, 0x00, 0x10, 0x00, 0x00, 0x00,
  0xec, 0xf8, 0xff, 0xff, 0x08, 0x00, 0x00, 0x00, 0x10, 0x00, 0x00, 0x00, 0x01, 0x00, 0x00, 0x00,
  0x80, 0xff, 0xff, 0xff, 0xff, 0xff, 0xff, 0xff, 0x01, 0x00, 0x00, 0x00, 0x7b, 0x4e, 0x24, 0x3b,
  0x79, 0x00, 0x00, 0x00, 0x65, 0x73, 0x70, 0x63, 0x6e, 0x5f, 0x6d, 0x69, 0x63, 0x72, 0x6f, 0x5f,
  0x31, 0x2f, 0x63, 0x6f, 0x6e, 0x76, 0x31, 0x5f, 0x31, 0x2f, 0x52, 0x65, 0x6c, 0x75, 0x3b, 0x65,
  0x73, 0x70, 0x63, 0x6e, 0x5f, 0x6d, 0x69, 0x63, 0x72, 0x6f, 0x5f, 0x31, 0x2f, 0x63, 0x6f, 0x6e,
  0x76, 0x31, 0x5f, 0x31, 0x2f, 0x42, 0x69, 0x61, 0x73, 0x41, 0x64, 0x64, 0x3b, 0x65, 0x73, 0x70,
  0x63, 0x6e, 0x5f, 0x6d, 0x69, 0x63, 0x72, 0x6f, 0x5f, 0x31, 0x2f, 0x63, 0x6f, 0x6e, 0x76, 0x31,
  0x5f, 0x31, 0x2f, 0x63, 0x6f, 0x6e, 0x76, 0x6f, 0x6c, 0x75, 0x74, 0x69, 0x6f, 0x6e, 0x3b, 0x65,
  0x73, 0x70, 0x63, 0x6e, 0x5f, 0x6d, 0x69, 0x63, 0x72, 0x6f, 0x5f, 0x31, 0x2f, 0x63, 0x6f, 0x6e,
  0x76, 0x31, 0x5f, 0x31, 0x2f, 0x53, 0x71, 0x75, 0x65, 0x65, 0x7a, 0x65, 0x31, 0x00, 0x00, 0x00,
  0x04, 0x00, 0x00, 0x00, 0x01, 0x00, 0x00, 0x00, 0x18, 0x00, 0x00, 0x00, 0x20, 0x00, 0x00, 0x00,
  0x10, 0x00, 0x00, 0x00, 0xce, 0xfa, 0xff, 0xff, 0x00, 0x00, 0x00, 0x01, 0x14, 0x00, 0x00, 0x00,
  0xe8, 0x00, 0x00, 0x00, 0x07, 0x00, 0x00, 0x00, 0x00, 0x00, 0x00, 0x09, 0x04, 0x01, 0x00, 0x00,
  0xbc, 0xf9, 0xff, 0xff, 0x08, 0x00, 0x00, 0x00, 0x8c, 0x00, 0x00, 0x00, 0x10, 0x00, 0x00, 0x00,
  0x00, 0x00, 0x00, 0x00, 0x00, 0x00, 0x00, 0x00, 0x00, 0x00, 0x00, 0x00, 0x00, 0x00, 0x00, 0x00,
  0x00, 0x00, 0x00, 0x00, 0x00, 0x00, 0x00, 0x00, 0x00, 0x00, 0x00, 0x00, 0x00, 0x00, 0x00, 0x00,
  0x00, 0x00, 0x00, 0x00, 0x00, 0x00, 0x00, 0x00, 0x00, 0x00, 0x00, 0x00, 0x00, 0x00, 0x00, 0x00,
  0x00, 0x00, 0x00, 0x00, 0x00, 0x00, 0x00, 0x00, 0x00, 0x00, 0x00, 0x00, 0x00, 0x00, 0x00, 0x00,
  0x00, 0x00, 0x00, 0x00, 0x00, 0x00, 0x00, 0x00, 0x00, 0x00, 0x00, 0x00, 0x00, 0x00, 0x00, 0x00,
  0x00, 0x00, 0x00, 0x00, 0x00, 0x00, 0x00, 0x00, 0x00, 0x00, 0x00, 0x00, 0x00, 0x00, 0x00, 0x00,
  0x00, 0x00, 0x00, 0x00, 0x00, 0x00, 0x00, 0x00, 0x00, 0x00, 0x00, 0x00, 0x00, 0x00, 0x00, 0x00,
  0x00, 0x00, 0x00, 0x00, 0x00, 0x00, 0x00, 0x00, 0x00, 0x00, 0x00, 0x00, 0x00, 0x00, 0x00, 0x00,
  0x00, 0x00, 0x00, 0x00, 0x10, 0x00, 0x00, 0x00, 0x5f, 0xe5, 0xcc, 0x3a, 0x4a, 0x53, 0xc1, 0x3a,
  0xdf, 0xf0, 0xed, 0x3a, 0x9e, 0x7d, 0x06, 0x3b, 0x38, 0xda, 0x8f, 0x3b, 0x56, 0x64, 0xad, 0x3a,
  0x17, 0xbd, 0xa3, 0x3a, 0x8f, 0x61, 0x04, 0x3b, 0x76, 0xa6, 0xce, 0x3a, 0x15, 0xf0, 0xa5, 0x3a,
  0x3f, 0xc1, 0xf9, 0x3a, 0xff, 0x61, 0x36, 0x3b, 0x4f, 0x2e, 0xcf, 0x3a, 0xb5, 0xb6, 0xee, 0x3a,
  0x00, 0x81, 0xb3, 0x3a, 0x02, 0x03, 0x83, 0x3b, 0x21, 0x00, 0x00, 0x00, 0x65, 0x73, 0x70, 0x63,
  0x6e, 0x5f, 0x6d, 0x69, 0x63, 0x72, 0x6f, 0x5f, 0x31, 0x2f, 0x63, 0x6f, 0x6e, 0x76, 0x31, 0x5f,
  0x31, 0x2f, 0x63, 0x6f, 0x6e, 0x76, 0x6f, 0x6c, 0x75, 0x74, 0x69, 0x6f, 0x6e, 0x00, 0x00, 0x00,
  0x04, 0x00, 0x00, 0x00, 0x10, 0x00, 0x00, 0x00, 0x03, 0x00, 0x00, 0x00, 0x03, 0x00, 0x00, 0x00,
  0x01, 0x00, 0x00, 0x00, 0xfe, 0xfb, 0xff, 0xff, 0x00, 0x00, 0x00, 0x01, 0x14, 0x00, 0x00, 0x00,
  0xe4, 0x00, 0x00, 0x00, 0x06, 0x00, 0x00, 0x00, 0x00, 0x00, 0x00, 0x02, 0x58, 0x01, 0x00, 0x00,
  0xec, 0xfa, 0xff, 0xff, 0x08, 0x00, 0x00, 0x00, 0x88, 0x00, 0x00, 0x00, 0x10, 0x00, 0x00, 0x00,
  0x00, 0x00, 0x00, 0x00, 0x00, 0x00, 0x00, 0x00, 0x00, 0x00, 0x00, 0x00, 0x00, 0x00, 0x00, 0x00,
  0x00, 0x00, 0x00, 0x00, 0x00, 0x00, 0x00, 0x00, 0x00, 0x00, 0x00, 0x00, 0x00, 0x00, 0x00, 0x00,
  0x00, 0x00, 0x00, 0x00, 0x00, 0x00, 0x00, 0x00, 0x00, 0x00, 0x00, 0x00, 0x00, 0x00, 0x00, 0x00,
  0x00, 0x00, 0x00, 0x00, 0x00, 0x00, 0x00, 0x00, 0x00, 0x00, 0x00, 0x00, 0x00, 0x00, 0x00, 0x00,
  0x00, 0x00, 0x00, 0x00, 0x00, 0x00, 0x00, 0x00, 0x00, 0x00, 0x00, 0x00, 0x00, 0x00, 0x00, 0x00,
  0x00, 0x00, 0x00, 0x00, 0x00, 0x00, 0x00, 0x00, 0x00, 0x00, 0x00, 0x00, 0x00, 0x00, 0x00, 0x00,
  0x00, 0x00, 0x00, 0x00, 0x00, 0x00, 0x00, 0x00, 0x00, 0x00, 0x00, 0x00, 0x00, 0x00, 0x00, 0x00,
  0x00, 0x00, 0x00, 0x00, 0x00, 0x00, 0x00, 0x00, 0x00, 0x00, 0x00, 0x00, 0x00, 0x00, 0x00, 0x00,
  0x10, 0x00, 0x00, 0x00, 0x7e, 0x36, 0xc3, 0x36, 0x65, 0x30, 0xb8, 0x36, 0x35, 0xb2, 0xe2, 0x36,
  0x84, 0x22, 0x00, 0x37, 0xdc, 0x0d, 0x89, 0x37, 0x99, 0x32, 0xa5, 0x36, 0x24, 0x00, 0x9c, 0x36,
  0xf6, 0x3f, 0xfc, 0x36, 0x5c, 0xe2, 0xc4, 0x36, 0x87, 0x18, 0x9e, 0x36, 0xa7, 0xf3, 0xed, 0x36,
  0x7c, 0xc3, 0x2d, 0x37, 0xc9, 0x63, 0xc5, 0x36, 0xb1, 0x6e, 0xe3, 0x36, 0x52, 0x05, 0xab, 0x36,
  0xfe, 0xa3, 0x79, 0x37, 0x78, 0x00, 0x00, 0x00, 0x65, 0x73, 0x70, 0x63, 0x6e, 0x5f, 0x6d, 0x69,
  0x63, 0x72, 0x6f, 0x5f, 0x31, 0x2f, 0x63, 0x6f, 0x6e, 0x76, 0x31, 0x5f, 0x31, 0x2f, 0x52, 0x65,
  0x6c, 0x75, 0x3b, 0x65, 0x73, 0x70, 0x63, 0x6e, 0x5f, 0x6d, 0x69, 0x63, 0x72, 0x6f, 0x5f, 0x31,
  0x2f, 0x63, 0x6f, 0x6e, 0x76, 0x31, 0x5f, 0x31, 0x2f, 0x42, 0x69, 0x61, 0x73, 0x41, 0x64, 0x64,
  0x3b, 0x65, 0x73, 0x70, 0x63, 0x6e, 0x5f, 0x6d, 0x69, 0x63, 0x72, 0x6f, 0x5f, 0x31, 0x2f, 0x63,
  0x6f, 0x6e, 0x76, 0x31, 0x5f, 0x31, 0x2f, 0x63, 0x6f, 0x6e, 0x76, 0x6f, 0x6c, 0x75, 0x74, 0x69,
  0x6f, 0x6e, 0x3b, 0x65, 0x73, 0x70, 0x63, 0x6e, 0x5f, 0x6d, 0x69, 0x63, 0x72, 0x6f, 0x5f, 0x31,
  0x2f, 0x63, 0x6f, 0x6e, 0x76, 0x31, 0x5f, 0x31, 0x2f, 0x53, 0x71, 0x75, 0x65, 0x65, 0x7a, 0x65,
  0x00, 0x00, 0x00, 0x00, 0x01, 0x00, 0x00, 0x00, 0x10, 0x00, 0x00, 0x00, 0x76, 0xfd, 0xff, 0xff,
  0x00, 0x00, 0x00, 0x01, 0x14, 0x00, 0x00, 0x00, 0x88, 0x00, 0x00, 0x00, 0x05, 0x00, 0x00, 0x00,
  0x00, 0x00, 0x00, 0x09, 0xa4, 0x00, 0x00, 0x00, 0x64, 0xfc, 0xff, 0xff, 0x08, 0x00, 0x00, 0x00,
  0x4c, 0x00, 0x00, 0x00, 0x08, 0x00, 0x00, 0x00, 0x00, 0x00, 0x00, 0x00, 0x00, 0x00, 0x00, 0x00,
  0x00, 0x00, 0x00, 0x00, 0x00, 0x00, 0x00, 0x00, 0x00, 0x00, 0x00, 0x00, 0x00, 0x00, 0x00, 0x00,
  0x00, 0x00, 0x00, 0x00, 0x00, 0x00, 0x00, 0x00, 0x00, 0x00, 0x00, 0x00, 0x00, 0x00, 0x00, 0x00,
  0x00, 0x00, 0x00, 0x00, 0x00, 0x00, 0x00, 0x00, 0x00, 0x00, 0x00, 0x00, 0x00, 0x00, 0x00, 0x00,
  0x00, 0x00, 0x00, 0x00, 0x00, 0x00, 0x00, 0x00, 0x00, 0x00, 0x00, 0x00, 0x08, 0x00, 0x00, 0x00,
  0x15, 0x35, 0xa4, 0x3b, 0xdf, 0x3a, 0x41, 0x3b, 0x0d, 0x31, 0xaa, 0x3a, 0x00, 0x3d, 0x2d, 0x3b,
  0xe0, 0x0d, 0x83, 0x3b, 0xa3, 0xcf, 0xc5, 0x3b, 0x66, 0x55, 0x88, 0x3b, 0x0e, 0x6f, 0xa6, 0x3b,
  0x21, 0x00, 0x00, 0x00, 0x65, 0x73, 0x70, 0x63, 0x6e, 0x5f, 0x6d, 0x69, 0x63, 0x72, 0x6f, 0x5f,
  0x31, 0x2f, 0x63, 0x6f, 0x6e, 0x76, 0x32, 0x5f, 0x31, 0x2f, 0x63, 0x6f, 0x6e, 0x76, 0x6f, 0x6c,
  0x75, 0x74, 0x69, 0x6f, 0x6e, 0x00, 0x00, 0x00, 0x04, 0x00, 0x00, 0x00, 0x08, 0x00, 0x00, 0x00,
  0x03, 0x00, 0x00, 0x00, 0x03, 0x00, 0x00, 0x00, 0x10, 0x00, 0x00, 0x00, 0x46, 0xfe, 0xff, 0xff,
  0x00, 0x00, 0x00, 0x01, 0x14, 0x00, 0x00, 0x00, 0x84, 0x00, 0x00, 0x00, 0x04, 0x00, 0x00, 0x00,
  0x00, 0x00, 0x00, 0x02, 0xf8, 0x00, 0x00, 0x00, 0x34, 0xfd, 0xff, 0xff, 0x08, 0x00, 0x00, 0x00,
  0x48, 0x00, 0x00, 0x00, 0x08, 0x00, 0x00, 0x00, 0x00, 0x00, 0x00, 0x00, 0x00, 0x00, 0x00, 0x00,
  0x00, 0x00, 0x00, 0x00, 0x00, 0x00, 0x00, 0x00, 0x00, 0x00, 0x00, 0x00, 0x00, 0x00, 0x00, 0x00,
  0x00, 0x00, 0x00, 0x00, 0x00, 0x00, 0x00, 0x00, 0x00, 0x00, 0x00, 0x00, 0x00, 0x00, 0x00, 0x00,
  0x00, 0x00, 0x00, 0x00, 0x00, 0x00, 0x00, 0x00, 0x00, 0x00, 0x00, 0x00, 0x00, 0x00, 0x00, 0x00,
  0x00, 0x00, 0x00, 0x00, 0x00, 0x00, 0x00, 0x00, 0x08, 0x00, 0x00, 0x00, 0xb1, 0xc8, 0x52, 0x37,
  0xe7, 0x09, 0xf8, 0x36, 0x32, 0x77, 0x5a, 0x36, 0x60, 0x60, 0xde, 0x36, 0x21, 0x3a, 0x28, 0x37,
  0x51, 0xeb, 0x7d, 0x37, 0x02, 0x01, 0x2f, 0x37, 0x56, 0xa4, 0x55, 0x37, 0x78, 0x00, 0x00, 0x00,
  0x65, 0x73, 0x70, 0x63, 0x6e, 0x5f, 0x6d, 0x69, 0x63, 0x72, 0x6f, 0x5f, 0x31, 0x2f, 0x63, 0x6f,
  0x6e, 0x76, 0x32, 0x5f, 0x31, 0x2f, 0x52, 0x65, 0x6c, 0x75, 0x3b, 0x65, 0x73, 0x70, 0x63, 0x6e,
  0x5f, 0x6d, 0x69, 0x63, 0x72, 0x6f, 0x5f, 0x31, 0x2f, 0x63, 0x6f, 0x6e, 0x76, 0x32, 0x5f, 0x31,
  0x2f, 0x42, 0x69, 0x61, 0x73, 0x41, 0x64, 0x64, 0x3b, 0x65, 0x73, 0x70, 0x63, 0x6e, 0x5f, 0x6d,
  0x69, 0x63, 0x72, 0x6f, 0x5f, 0x31, 0x2f, 0x63, 0x6f, 0x6e, 0x76, 0x32, 0x5f, 0x31, 0x2f, 0x63,
  0x6f, 0x6e, 0x76, 0x6f, 0x6c, 0x75, 0x74, 0x69, 0x6f, 0x6e, 0x3b, 0x65, 0x73, 0x70, 0x63, 0x6e,
  0x5f, 0x6d, 0x69, 0x63, 0x72, 0x6f, 0x5f, 0x31, 0x2f, 0x63, 0x6f, 0x6e, 0x76, 0x32, 0x5f, 0x31,
  0x2f, 0x53, 0x71, 0x75, 0x65, 0x65, 0x7a, 0x65, 0x00, 0x00, 0x00, 0x00, 0x01, 0x00, 0x00, 0x00,
  0x08, 0x00, 0x00, 0x00, 0x5e, 0xff, 0xff, 0xff, 0x00, 0x00, 0x00, 0x01, 0x14, 0x00, 0x00, 0x00,
  0x58, 0x00, 0x00, 0x00, 0x03, 0x00, 0x00, 0x00, 0x00, 0x00, 0x00, 0x09, 0x74, 0x00, 0x00, 0x00,
  0x4c, 0xfe, 0xff, 0xff, 0x08, 0x00, 0x00, 0x00, 0x2c, 0x00, 0x00, 0x00, 0x04, 0x00, 0x00, 0x00,
  0x00, 0x00, 0x00, 0x00, 0x00, 0x00, 0x00, 0x00, 0x00, 0x00, 0x00, 0x00, 0x00, 0x00, 0x00, 0x00,
  0x00, 0x00, 0x00, 0x00, 0x00, 0x00, 0x00, 0x00, 0x00, 0x00, 0x00, 0x00, 0x00, 0x00, 0x00, 0x00,
  0x00, 0x00, 0x00, 0x00, 0x04, 0x00, 0x00, 0x00, 0x22, 0x39, 0xd6, 0x3b, 0x6b, 0xf3, 0xf4, 0x3b,
  0xe9, 0x0f, 0xb7, 0x3b, 0x80, 0xf4, 0xd3, 0x3b, 0x21, 0x00, 0x00, 0x00, 0x65, 0x73, 0x70, 0x63,
  0x6e, 0x5f, 0x6d, 0x69, 0x63, 0x72, 0x6f, 0x5f, 0x31, 0x2f, 0x63, 0x6f, 0x6e, 0x76, 0x33, 0x5f,
  0x31, 0x2f, 0x63, 0x6f, 0x6e, 0x76, 0x6f, 0x6c, 0x75, 0x74, 0x69, 0x6f, 0x6e, 0x00, 0x00, 0x00,
  0x04, 0x00, 0x00, 0x00, 0x04, 0x00, 0x00, 0x00, 0x03, 0x00, 0x00, 0x00, 0x03, 0x00, 0x00, 0x00,
  0x08, 0x00, 0x00, 0x00, 0x00, 0x00, 0x16, 0x00, 0x1c, 0x00, 0x18, 0x00, 0x17, 0x00, 0x10, 0x00,
  0x0c, 0x00, 0x08, 0x00, 0x00, 0x00, 0x00, 0x00, 0x00, 0x00, 0x07, 0x00, 0x16, 0x00, 0x00, 0x00,
  0x00, 0x00, 0x00, 0x01, 0x14, 0x00, 0x00, 0x00, 0x54, 0x00, 0x00, 0x00, 0x02, 0x00, 0x00, 0x00,
  0x00, 0x00, 0x00, 0x02, 0xac, 0x00, 0x00, 0x00, 0x04, 0xff, 0xff, 0xff, 0x08, 0x00, 0x00, 0x00,
  0x28, 0x00, 0x00, 0x00, 0x04, 0x00, 0x00, 0x00, 0x00, 0x00, 0x00, 0x00, 0x00, 0x00, 0x00, 0x00,
  0x00, 0x00, 0x00, 0x00, 0x00, 0x00, 0x00, 0x00, 0x00, 0x00, 0x00, 0x00, 0x00, 0x00, 0x00, 0x00,
  0x00, 0x00, 0x00, 0x00, 0x00, 0x00, 0x00, 0x00, 0x04, 0x00, 0x00, 0x00, 0x2b, 0x75, 0x0a, 0x38,
  0x57, 0x51, 0x1e, 0x38, 0x97, 0xa2, 0xec, 0x37, 0xe4, 0xfd, 0x08, 0x38, 0x5d, 0x00, 0x00, 0x00,
  0x65, 0x73, 0x70, 0x63, 0x6e, 0x5f, 0x6d, 0x69, 0x63, 0x72, 0x6f, 0x5f, 0x31, 0x2f, 0x63, 0x6f,
  0x6e, 0x76, 0x33, 0x5f, 0x31, 0x2f, 0x42, 0x69, 0x61, 0x73, 0x41, 0x64, 0x64, 0x3b, 0x65, 0x73,
  0x70, 0x63, 0x6e, 0x5f, 0x6d, 0x69, 0x63, 0x72, 0x6f, 0x5f, 0x31, 0x2f, 0x63, 0x6f, 0x6e, 0x76,
  0x33, 0x5f, 0x31, 0x2f, 0x63, 0x6f, 0x6e, 0x76, 0x6f, 0x6c, 0x75, 0x74, 0x69, 0x6f, 0x6e, 0x3b,
  0x65, 0x73, 0x70, 0x63, 0x6e, 0x5f, 0x6d, 0x69, 0x63, 0x72, 0x6f, 0x5f, 0x31, 0x2f, 0x63, 0x6f,
  0x6e, 0x76, 0x33, 0x5f, 0x31, 0x2f, 0x53, 0x71, 0x75, 0x65, 0x65, 0x7a, 0x65, 0x00, 0x00, 0x00,
  0x01, 0x00, 0x00, 0x00, 0x04, 0x00, 0x00, 0x00, 0x00, 0x00, 0x16, 0x00, 0x20, 0x00, 0x1c, 0x00,
  0x1b, 0x00, 0x14, 0x00, 0x10, 0x00, 0x0c, 0x00, 0x00, 0x00, 0x00, 0x00, 0x08, 0x00, 0x07, 0x00,
  0x16, 0x00, 0x00, 0x00, 0x00, 0x00, 0x00, 0x01, 0x18, 0x00, 0x00, 0x00, 0x34, 0x00, 0x00, 0x00,
  0x50, 0x00, 0x00, 0x00, 0x01, 0x00, 0x00, 0x00, 0x00, 0x00, 0x00, 0x09, 0x60, 0x00, 0x00, 0x00,
  0x04, 0x00, 0x00, 0x00, 0xff, 0xff, 0xff, 0xff, 0x18, 0x00, 0x00, 0x00, 0x20, 0x00, 0x00, 0x00,
  0x01, 0x00, 0x00, 0x00, 0x0c, 0x00, 0x0c, 0x00, 0x00, 0x00, 0x00, 0x00, 0x08, 0x00, 0x04, 0x00,
  0x0c, 0x00, 0x00, 0x00, 0x08, 0x00, 0x00, 0x00, 0x10, 0x00, 0x00, 0x00, 0x01, 0x00, 0x00, 0x00,
  0x80, 0xff, 0xff, 0xff, 0xff, 0xff, 0xff, 0xff, 0x01, 0x00, 0x00, 0x00, 0xda, 0xe6, 0x73, 0x3b,
  0x14, 0x00, 0x00, 0x00, 0x73, 0x65, 0x72, 0x76, 0x69, 0x6e, 0x67, 0x5f, 0x64, 0x65, 0x66, 0x61,
  0x75, 0x6c, 0x74, 0x5f, 0x6c, 0x72, 0x3a, 0x30, 0x00, 0x00, 0x00, 0x00, 0x04, 0x00, 0x00, 0x00,
  0x01, 0x00, 0x00, 0x00, 0x18, 0x00, 0x00, 0x00, 0x20, 0x00, 0x00, 0x00, 0x01, 0x00, 0x00, 0x00,
  0x02, 0x00, 0x00, 0x00, 0x24, 0x00, 0x00, 0x00, 0x04, 0x00, 0x00, 0x00, 0xf0, 0xff, 0xff, 0xff,
  0x05, 0x00, 0x00, 0x00, 0x02, 0x00, 0x00, 0x00, 0x00, 0x00, 0x00, 0x05, 0x0c, 0x00, 0x10, 0x00,
  0x0f, 0x00, 0x00, 0x00, 0x08, 0x00, 0x04, 0x00, 0x0c, 0x00, 0x00, 0x00, 0x03, 0x00, 0x00, 0x00,
  0x03, 0x00, 0x00, 0x00, 0x00, 0x00, 0x00, 0x03,
};
const size_t espcn_micro_int8_tflite_len = 5320;
