#pragma once
#include <cstddef>
#include <cstdint>

alignas(16) const unsigned char espcn_light_int8_tflite[] = {
  0x20, 0x00, 0x00, 0x00, 0x54, 0x46, 0x4c, 0x33, 0x00, 0x00, 0x00, 0x00, 0x14, 0x00, 0x20, 0x00,
  0x1c, 0x00, 0x18, 0x00, 0x14, 0x00, 0x10, 0x00, 0x0c, 0x00, 0x00, 0x00, 0x08, 0x00, 0x04, 0x00,
  0x14, 0x00, 0x00, 0x00, 0x1c, 0x00, 0x00, 0x00, 0x8c, 0x00, 0x00, 0x00, 0xe4, 0x00, 0x00, 0x00,
  0x38, 0x1a, 0x00, 0x00, 0x48, 0x1a, 0x00, 0x00, 0x28, 0x28, 0x00, 0x00, 0x03, 0x00, 0x00, 0x00,
  0x01, 0x00, 0x00, 0x00, 0x10, 0x00, 0x00, 0x00, 0x00, 0x00, 0x0a, 0x00, 0x10, 0x00, 0x0c, 0x00,
  0x08, 0x00, 0x04, 0x00, 0x0a, 0x00, 0x00, 0x00, 0x0c, 0x00, 0x00, 0x00, 0x1c, 0x00, 0x00, 0x00,
  0x3c, 0x00, 0x00, 0x00, 0x0f, 0x00, 0x00, 0x00, 0x73, 0x65, 0x72, 0x76, 0x69, 0x6e, 0x67, 0x5f,
  0x64, 0x65, 0x66, 0x61, 0x75, 0x6c, 0x74, 0x00, 0x01, 0x00, 0x00, 0x00, 0x04, 0x00, 0x00, 0x00,
  0x9c, 0xff, 0xff, 0xff, 0x0a, 0x00, 0x00, 0x00, 0x04, 0x00, 0x00, 0x00, 0x08, 0x00, 0x00, 0x00,
  0x6f, 0x75, 0x74, 0x70, 0x75, 0x74, 0x5f, 0x30, 0x00, 0x00, 0x00, 0x00, 0x01, 0x00, 0x00, 0x00,
  0x04, 0x00, 0x00, 0x00, 0xae, 0xe5, 0xff, 0xff, 0x04, 0x00, 0x00, 0x00, 0x02, 0x00, 0x00, 0x00,
  0x6c, 0x72, 0x00, 0x00, 0x02, 0x00, 0x00, 0x00, 0x34, 0x00, 0x00, 0x00, 0x04, 0x00, 0x00, 0x00,
  0xdc, 0xff, 0xff, 0xff, 0x0d, 0x00, 0x00, 0x00, 0x04, 0x00, 0x00, 0x00, 0x13, 0x00, 0x00, 0x00,
  0x43, 0x4f, 0x4e, 0x56, 0x45, 0x52, 0x53, 0x49, 0x4f, 0x4e, 0x5f, 0x4d, 0x45, 0x54, 0x41, 0x44,
  0x41, 0x54, 0x41, 0x00, 0x08, 0x00, 0x0c, 0x00, 0x08, 0x00, 0x04, 0x00, 0x08, 0x00, 0x00, 0x00,
  0x0c, 0x00, 0x00, 0x00, 0x04, 0x00, 0x00, 0x00, 0x13, 0x00, 0x00, 0x00, 0x6d, 0x69, 0x6e, 0x5f,
  0x72, 0x75, 0x6e, 0x74, 0x69, 0x6d, 0x65, 0x5f, 0x76, 0x65, 0x72, 0x73, 0x69, 0x6f, 0x6e, 0x00,
  0x0e, 0x00, 0x00, 0x00, 0x50, 0x19, 0x00, 0x00, 0x44, 0x19, 0x00, 0x00, 0x24, 0x19, 0x00, 0x00,
  0xd4, 0x16, 0x00, 0x00, 0x84, 0x16, 0x00, 0x00, 0x74, 0x04, 0x00, 0x00, 0xe4, 0x03, 0x00, 0x00,
  0xb4, 0x00, 0x00, 0x00, 0xac, 0x00, 0x00, 0x00, 0xa4, 0x00, 0x00, 0x00, 0x9c, 0x00, 0x00, 0x00,
  0x94, 0x00, 0x00, 0x00, 0x74, 0x00, 0x00, 0x00, 0x04, 0x00, 0x00, 0x00, 0x56, 0xe6, 0xff, 0xff,
  0x04, 0x00, 0x00, 0x00, 0x60, 0x00, 0x00, 0x00, 0x0c, 0x00, 0x00, 0x00, 0x08, 0x00, 0x0e, 0x00,
  0x08, 0x00, 0x04, 0x00, 0x08, 0x00, 0x00, 0x00, 0x10, 0x00, 0x00, 0x00, 0x28, 0x00, 0x00, 0x00,
  0x00, 0x00, 0x06, 0x00, 0x08, 0x00, 0x04, 0x00, 0x06, 0x00, 0x00, 0x00, 0x04, 0x00, 0x00, 0x00,
  0x01, 0x00, 0x00, 0x00, 0xeb, 0x03, 0x00, 0x00, 0x0c, 0x00, 0x18, 0x00, 0x14, 0x00, 0x10, 0x00,
  0x0c, 0x00, 0x04, 0x00, 0x0c, 0x00, 0x00, 0x00, 0xe7, 0x47, 0x13, 0x57, 0x85, 0x47, 0xbd, 0xca,
  0x02, 0x00, 0x00, 0x00, 0x02, 0x00, 0x00, 0x00, 0x04, 0x00, 0x00, 0x00, 0x06, 0x00, 0x00, 0x00,
  0x32, 0x2e, 0x32, 0x31, 0x2e, 0x30, 0x00, 0x00, 0xc2, 0xe6, 0xff, 0xff, 0x04, 0x00, 0x00, 0x00,
  0x10, 0x00, 0x00, 0x00, 0x32, 0x2e, 0x35, 0x2e, 0x30, 0x00, 0x00, 0x00, 0x00, 0x00, 0x00, 0x00,
  0x00, 0x00, 0x00, 0x00, 0x74, 0xe7, 0xff, 0xff, 0x78, 0xe7, 0xff, 0xff, 0x7c, 0xe7, 0xff, 0xff,
  0x80, 0xe7, 0xff, 0xff, 0xee, 0xe6, 0xff, 0xff, 0x04, 0x00, 0x00, 0x00, 0x20, 0x03, 0x00, 0x00,
  0x04, 0xfc, 0x00, 0x02, 0xff, 0x03, 0xfc, 0x02, 0xfe, 0x00, 0xeb, 0x32, 0x4c, 0x0d, 0xfa, 0x07,
  0xf5, 0x81, 0xf8, 0x04, 0x04, 0xfb, 0x0f, 0xff, 0x01, 0x17, 0xf3, 0x61, 0x6d, 0xc0, 0x0d, 0x51,
  0xf7, 0xa3, 0x22, 0x5a, 0x13, 0x41, 0xb8, 0xfb, 0x7f, 0x3d, 0xfb, 0xed, 0xb6, 0x17, 0xa5, 0xe9,
  0x10, 0x4a, 0x06, 0xe0, 0xfd, 0x06, 0x23, 0xd1, 0x51, 0x52, 0x42, 0x40, 0xe2, 0x1a, 0x40, 0x7f,
  0xf9, 0xda, 0xfb, 0x53, 0xd7, 0xd7, 0xd9, 0x20, 0x13, 0x42, 0x13, 0x01, 0x00, 0xfe, 0x04, 0xfd,
  0xff, 0xfe, 0x08, 0x03, 0xfc, 0x03, 0x01, 0xfb, 0xc6, 0x16, 0x02, 0x1d, 0x6c, 0x81, 0xf3, 0xfe,
  0xf7, 0x1a, 0x02, 0x0d, 0xef, 0x01, 0x0f, 0x03, 0xfb, 0x1d, 0x01, 0xe5, 0x00, 0xfb, 0xfa, 0x99,
  0x7f, 0xf2, 0x20, 0x0c, 0xd1, 0x12, 0x19, 0xdf, 0xf8, 0x07, 0xfb, 0xf4, 0x0c, 0x1a, 0xc2, 0x39,
  0x1c, 0xf4, 0xe0, 0x25, 0xb2, 0xdf, 0xea, 0xfd, 0x0e, 0x7f, 0x0e, 0x2f, 0x29, 0xd3, 0xbe, 0xd9,
  0x2f, 0x1a, 0xd9, 0x79, 0xcb, 0xe5, 0x46, 0x59, 0x40, 0x10, 0xab, 0xc0, 0x64, 0x18, 0x56, 0x65,
  0xb0, 0xb3, 0xcc, 0xa9, 0x95, 0x46, 0x5a, 0xc3, 0x29, 0x38, 0x41, 0x9b, 0xfe, 0x7f, 0xcf, 0xb5,
  0x0f, 0x57, 0xc3, 0xd5, 0xe6, 0x26, 0x2a, 0x12, 0x22, 0x7d, 0xae, 0x1d, 0x7f, 0xeb, 0x3e, 0xff,
  0xb0, 0xfa, 0xf4, 0xea, 0x91, 0x60, 0x59, 0xc4, 0xdd, 0x02, 0x0a, 0xf9, 0x13, 0x05, 0xd3, 0x4c,
  0xf0, 0x1f, 0x63, 0x25, 0x6a, 0x81, 0xd9, 0xb2, 0x44, 0xaf, 0x24, 0x16, 0x1b, 0xe6, 0xfd, 0x2d,
  0xef, 0xe0, 0xe2, 0xa1, 0x18, 0x04, 0x8f, 0xe1, 0xb2, 0xca, 0x22, 0x8d, 0x25, 0xc9, 0xd2, 0x95,
  0x28, 0xbc, 0x8e, 0x9f, 0x01, 0xc2, 0xb5, 0x81, 0xcc, 0x0a, 0xd2, 0xf0, 0x33, 0xbc, 0x51, 0xeb,
  0x1d, 0x40, 0x06, 0xaf, 0x6a, 0x50, 0x02, 0x7f, 0x4e, 0xf3, 0x65, 0xcc, 0xd7, 0x22, 0xfc, 0x14,
  0x3f, 0xf2, 0xca, 0x05, 0xf3, 0x0d, 0xf7, 0x02, 0x03, 0x28, 0x11, 0x0b, 0xfb, 0x17, 0x81, 0xbe,
  0xfd, 0x08, 0xf5, 0x3a, 0x1e, 0x0b, 0xfd, 0xfe, 0xff, 0x10, 0xf8, 0xff, 0x38, 0x38, 0x33, 0x26,
  0xbc, 0xea, 0xbf, 0xbf, 0x47, 0x08, 0xe3, 0xcf, 0x5d, 0xc7, 0x48, 0x48, 0x17, 0x7f, 0x35, 0x37,
  0xe6, 0xc3, 0x48, 0xc6, 0xc9, 0x01, 0x04, 0x08, 0xf9, 0xf9, 0x00, 0xf6, 0xf0, 0x08, 0x0f, 0x05,
  0x01, 0x7f, 0x8c, 0xdf, 0xff, 0xf1, 0x51, 0xe6, 0xe7, 0x00, 0x05, 0xf3, 0xf8, 0x0d, 0xfe, 0x08,
  0x07, 0xf9, 0x00, 0x05, 0xdf, 0x81, 0xef, 0x05, 0x12, 0xd5, 0x7f, 0xef, 0xf6, 0xef, 0x0a, 0x31,
  0x2e, 0x09, 0xfe, 0x1c, 0xf2, 0xfb, 0xfb, 0x38, 0xd0, 0xb9, 0x12, 0x24, 0x12, 0xfc, 0x35, 0x48,
  0xfc, 0x19, 0x7f, 0xc2, 0xa1, 0xe0, 0xf0, 0x54, 0xef, 0xc3, 0xee, 0xdd, 0xe2, 0x1a, 0x27, 0x06,
  0x00, 0xfd, 0xf9, 0x04, 0x8a, 0x00, 0x01, 0x13, 0xfa, 0x81, 0x01, 0x0a, 0x1b, 0xdf, 0x8c, 0x00,
  0x00, 0x10, 0xf2, 0xba, 0xfe, 0xfb, 0x00, 0x01, 0xda, 0x81, 0x01, 0x05, 0xff, 0x03, 0x93, 0x09,
  0xec, 0x03, 0xfb, 0x82, 0x32, 0x31, 0xfb, 0x02, 0x98, 0x03, 0xf6, 0x08, 0xfd, 0x91, 0xf7, 0xff,
  0xfc, 0x01, 0xfe, 0x1b, 0xcb, 0x24, 0xca, 0x3c, 0x1b, 0x23, 0x3c, 0x7e, 0xcb, 0x1b, 0x9e, 0xca,
  0x2c, 0x01, 0x73, 0x9e, 0xb8, 0x7f, 0xe9, 0xf6, 0x21, 0x1c, 0xc8, 0xe2, 0x23, 0xdf, 0xd8, 0x0c,
  0xc1, 0x9a, 0x4b, 0x66, 0x45, 0x6e, 0xe3, 0xf3, 0x89, 0x16, 0x1a, 0xed, 0x78, 0x7f, 0xbf, 0xd2,
  0xed, 0xf8, 0x20, 0x07, 0xe2, 0xdc, 0xf2, 0x54, 0xf0, 0x10, 0xde, 0x62, 0xe3, 0x34, 0x3e, 0x50,
  0x7f, 0x48, 0xf8, 0xd1, 0xda, 0x16, 0x4a, 0xd1, 0x34, 0xed, 0x31, 0xcb, 0x05, 0x5b, 0xc0, 0xc4,
  0xb4, 0xf9, 0x7f, 0x61, 0x5b, 0x6d, 0x18, 0xdc, 0x48, 0x23, 0x6a, 0xb5, 0x5d, 0xc6, 0x0f, 0x2f,
  0x46, 0xfb, 0xd0, 0x1d, 0xe8, 0x0c, 0x74, 0x44, 0x57, 0xa1, 0x1d, 0xa6, 0xd0, 0xe7, 0x3d, 0x12,
  0xcd, 0x43, 0xf3, 0x2f, 0x71, 0x01, 0x74, 0x21, 0x12, 0xc6, 0xed, 0x7f, 0xc8, 0x3d, 0x33, 0xdc,
  0x42, 0x43, 0xd9, 0x2d, 0xbe, 0xd1, 0x5f, 0x18, 0x7f, 0x0c, 0xee, 0x86, 0xb8, 0x10, 0x38, 0xd3,
  0xc0, 0x40, 0xfa, 0xe7, 0x2e, 0x0d, 0x3d, 0xca, 0x44, 0x03, 0x2f, 0x0b, 0xc5, 0xf9, 0x46, 0x7f,
  0x28, 0x37, 0xdf, 0x42, 0x5f, 0x74, 0x0f, 0xe0, 0x21, 0xef, 0xdf, 0x21, 0xc4, 0x38, 0x4b, 0xfa,
  0xd3, 0x02, 0x0b, 0xf6, 0x01, 0x02, 0x0e, 0xb4, 0xc8, 0x02, 0x04, 0xfd, 0x17, 0x7f, 0xf6, 0xf8,
  0xfe, 0xf0, 0xe8, 0xf9, 0x02, 0xff, 0x05, 0x04, 0x07, 0xfd, 0x01, 0xf9, 0x04, 0xea, 0x81, 0xff,
  0x02, 0x04, 0x05, 0xfa, 0xff, 0xf5, 0x13, 0x10, 0xf5, 0x02, 0xff, 0xff, 0xfc, 0xfe, 0x00, 0x00,
  0x01, 0xfd, 0x03, 0x00, 0x02, 0x09, 0xfd, 0xff, 0xfe, 0xf1, 0xfd, 0xff, 0x00, 0x06, 0x03, 0x66,
  0xce, 0x08, 0xcd, 0x8d, 0x7f, 0xe9, 0x05, 0x1d, 0xe6, 0x09, 0xf5, 0xff, 0x03, 0xfd, 0x04, 0xf8,
  0x02, 0xfc, 0x06, 0xf5, 0x18, 0xff, 0x01, 0x0d, 0x81, 0x4b, 0x0c, 0xff, 0x07, 0xf8, 0x0b, 0xfd,
  0x01, 0xfa, 0x05, 0x00, 0x00, 0xe0, 0x3f, 0xe6, 0xfb, 0x00, 0xda, 0xd2, 0xbb, 0x12, 0x14, 0xf4,
  0x7f, 0xac, 0x37, 0xd8, 0x31, 0x70, 0xca, 0x25, 0xf4, 0xe0, 0x1d, 0xe6, 0x03, 0xf8, 0xdf, 0xe0,
  0x35, 0x14, 0x0e, 0x02, 0x17, 0x16, 0xf6, 0xe1, 0x09, 0x81, 0x2c, 0x2c, 0x17, 0xe7, 0xc1, 0x4e,
  0x0a, 0x10, 0xfc, 0x45, 0xce, 0x03, 0xe8, 0x30, 0x29, 0xea, 0xca, 0x1e, 0xdd, 0xbe, 0x75, 0x1b,
  0xf3, 0xef, 0x41, 0x7f, 0xfc, 0xfe, 0x39, 0xc6, 0xdc, 0xf3, 0x0e, 0xf1, 0xf7, 0x17, 0xf3, 0x09,
  0x1a, 0xea, 0xff, 0xff, 0x04, 0x00, 0x00, 0x00, 0x80, 0x00, 0x00, 0x00, 0xeb, 0xfd, 0xff, 0xff,
  0xb7, 0xf8, 0xff, 0xff, 0x2a, 0x0b, 0x00, 0x00, 0xa4, 0xfd, 0xff, 0xff, 0x76, 0x08, 0x00, 0x00,
  0x5f, 0x11, 0x00, 0x00, 0xa5, 0xfc, 0xff, 0xff, 0xac, 0x0b, 0x00, 0x00, 0xfa, 0x0a, 0x00, 0x00,
  0x58, 0xde, 0xff, 0xff, 0x12, 0xfe, 0xff, 0xff, 0x3f, 0xff, 0xff, 0xff, 0x1a, 0xfe, 0xff, 0xff,
  0x87, 0xfb, 0xff, 0xff, 0xa6, 0x08, 0x00, 0x00, 0x9b, 0x08, 0x00, 0x00, 0xa9, 0xfe, 0xff, 0xff,
  0xfb, 0xff, 0xff, 0xff, 0x59, 0xff, 0xff, 0xff, 0xc6, 0x07, 0x00, 0x00, 0x1c, 0xff, 0xff, 0xff,
  0x25, 0xf9, 0xff, 0xff, 0x9c, 0xf9, 0xff, 0xff, 0x99, 0x11, 0x00, 0x00, 0xae, 0xfd, 0xff, 0xff,
  0x9f, 0xfe, 0xff, 0xff, 0x3d, 0x00, 0x00, 0x00, 0xbf, 0xfa, 0xff, 0xff, 0xc0, 0xfe, 0xff, 0xff,
  0x56, 0x02, 0x00, 0x00, 0xcd, 0x05, 0x00, 0x00, 0xce, 0x01, 0x00, 0x00, 0xa6, 0xea, 0xff, 0xff,
  0x04, 0x00, 0x00, 0x00, 0x00, 0x12, 0x00, 0x00, 0x11, 0x03, 0x00, 0xe9, 0xf7, 0xe2, 0x05, 0xfd,
  0xea, 0xf4, 0xf3, 0x11, 0xf6, 0x07, 0x05, 0x06, 0x10, 0x04, 0xf4, 0x0a, 0xf9, 0x01, 0xf5, 0x07,
  0x05, 0x13, 0xef, 0x0c, 0x33, 0xfe, 0x00, 0xff, 0x4a, 0x0d, 0xfd, 0xe6, 0xf8, 0xfd, 0x09, 0x09,
  0x0c, 0x08, 0x12, 0xf2, 0xfc, 0x25, 0x28, 0x10, 0xfd, 0xf9, 0x0f, 0x00, 0xf1, 0x09, 0xea, 0x08,
  0x05, 0x01, 0xff, 0xe4, 0xf7, 0x0b, 0x0e, 0x10, 0x22, 0x0d, 0xf1, 0xe2, 0x0e, 0xe1, 0xf5, 0x0e,
  0xf5, 0x09, 0x05, 0x86, 0xfd, 0x10, 0xf7, 0xfe, 0x11, 0xfc, 0xf3, 0xfe, 0x06, 0x05, 0xfc, 0x03,
  0x1a, 0x34, 0xfe, 0xec, 0xf5, 0x01, 0x0e, 0x13, 0x06, 0x09, 0xfd, 0xf6, 0x18, 0x01, 0x0f, 0xff,
  0x06, 0xfd, 0x03, 0xfa, 0x05, 0x1f, 0xfe, 0x11, 0x0e, 0xfb, 0x06, 0xfb, 0xf4, 0xf9, 0xf1, 0x06,
  0xfa, 0xfc, 0xd9, 0xf2, 0xb1, 0xf0, 0xfc, 0x04, 0xa0, 0x09, 0xf6, 0xf3, 0xf0, 0xfa, 0x06, 0x04,
  0x07, 0xf6, 0x0c, 0x04, 0x11, 0x0c, 0xf2, 0x08, 0xf7, 0x05, 0x01, 0x06, 0xf1, 0xf8, 0xfa, 0x19,
  0xf8, 0xe5, 0xec, 0x00, 0xff, 0x0a, 0x15, 0xe9, 0x81, 0x0f, 0xf9, 0x01, 0xfe, 0xf4, 0x01, 0x18,
  0xfa, 0x11, 0x1f, 0x14, 0x01, 0x07, 0xf2, 0x14, 0xf4, 0x0c, 0x10, 0x17, 0xf9, 0xfc, 0xf9, 0x06,
  0x00, 0x33, 0xef, 0x0f, 0x0f, 0xfc, 0x0a, 0xff, 0x01, 0x09, 0xfe, 0x01, 0xfc, 0x10, 0xfc, 0xf8,
  0x06, 0x02, 0xfe, 0xf4, 0xff, 0x0b, 0x0a, 0xfd, 0x24, 0x09, 0x0b, 0x08, 0xfb, 0xfb, 0x01, 0x03,
  0xff, 0xed, 0x56, 0x02, 0xe1, 0x04, 0xfa, 0x00, 0xfb, 0x08, 0x06, 0x09, 0x0f, 0x1d, 0xff, 0x06,
  0xf7, 0xf7, 0x07, 0xfa, 0x03, 0xfd, 0x07, 0xf9, 0x0b, 0x03, 0xf8, 0xfe, 0xf8, 0xf7, 0x08, 0xed,
  0x01, 0xeb, 0x33, 0x05, 0x03, 0xf4, 0xe4, 0x00, 0xfc, 0x07, 0xfa, 0x02, 0xef, 0x19, 0xf9, 0xf8,
  0x04, 0x09, 0x02, 0x01, 0x03, 0xf2, 0x11, 0xf2, 0xfe, 0xfa, 0xfd, 0x04, 0xf1, 0x06, 0x04, 0x09,
  0xfe, 0xdc, 0x2d, 0x12, 0xff, 0x02, 0xf1, 0x0f, 0x4b, 0x0f, 0x12, 0x1b, 0x06, 0xfd, 0xf7, 0x12,
  0xfc, 0xf5, 0xeb, 0x03, 0x08, 0x21, 0xf7, 0x11, 0xe5, 0xf0, 0xf0, 0xff, 0x03, 0x02, 0xf4, 0x09,
  0x08, 0xef, 0x03, 0xea, 0x09, 0xff, 0xfe, 0xf4, 0x7f, 0x06, 0xfd, 0x25, 0x11, 0xfa, 0xff, 0xea,
  0xe7, 0x09, 0xf1, 0x05, 0xf7, 0xe7, 0xfa, 0x18, 0xf2, 0xe9, 0x05, 0x11, 0xf2, 0x03, 0xf0, 0x0a,
  0xf5, 0xfc, 0xf2, 0x0b, 0x08, 0x03, 0x05, 0xea, 0x0e, 0xfe, 0xe9, 0xff, 0xfb, 0x0d, 0x09, 0xf8,
  0xfc, 0x11, 0xf7, 0xf5, 0xf6, 0x00, 0xf8, 0x02, 0x02, 0x0e, 0x13, 0xf7, 0xe6, 0xfb, 0xef, 0x21,
  0xec, 0x1b, 0x03, 0x16, 0xf5, 0x0f, 0x04, 0xfe, 0xe0, 0xfd, 0x0a, 0xe8, 0x0a, 0x02, 0xf0, 0x02,
  0xf2, 0xef, 0xf0, 0xfd, 0x07, 0x47, 0x22, 0xef, 0xce, 0x24, 0xda, 0xfe, 0x15, 0x01, 0x07, 0xda,
  0x03, 0x1c, 0x1d, 0x14, 0x28, 0x03, 0x11, 0x08, 0x17, 0xf0, 0x19, 0xf8, 0xfb, 0xf0, 0x03, 0xe8,
  0x14, 0x07, 0x12, 0xcd, 0x0d, 0x0b, 0x0a, 0x09, 0x03, 0x4e, 0x18, 0x16, 0x08, 0xe9, 0x10, 0x0a,
  0x0f, 0x26, 0x02, 0x3e, 0xee, 0x0d, 0xf4, 0xee, 0x30, 0x15, 0xff, 0xf1, 0xfa, 0x22, 0xfe, 0x15,
  0x0c, 0xfd, 0x0e, 0xf4, 0xf4, 0x21, 0xef, 0x07, 0xef, 0x2f, 0x12, 0x11, 0xf7, 0x08, 0x12, 0x1c,
  0xf1, 0x07, 0x10, 0x0a, 0x12, 0x1c, 0x08, 0x15, 0x0d, 0x00, 0x17, 0x12, 0x02, 0xfa, 0x06, 0x02,
  0xfd, 0xf7, 0x12, 0xef, 0xf0, 0x2d, 0xe9, 0xf1, 0xcb, 0xf5, 0xe4, 0x0e, 0x17, 0xfd, 0xf4, 0xf8,
  0x15, 0xa7, 0xf8, 0xfd, 0x1b, 0xf8, 0xff, 0x0d, 0x43, 0x12, 0x25, 0x13, 0xf2, 0xf0, 0xf1, 0xfc,
  0x05, 0x05, 0x17, 0xfc, 0x06, 0xd4, 0x03, 0x0c, 0xf1, 0x2e, 0xf5, 0xfc, 0x08, 0x14, 0x06, 0x02,
  0x0b, 0xf2, 0x1c, 0xec, 0x31, 0xfc, 0xf0, 0x2a, 0x0f, 0xed, 0xf5, 0x0c, 0xe2, 0xf4, 0xed, 0x05,
  0x15, 0x10, 0xfb, 0x1d, 0x07, 0xf8, 0xee, 0x17, 0x10, 0x00, 0x04, 0xec, 0x05, 0x14, 0xf4, 0xfe,
  0xf2, 0x07, 0xfe, 0xf0, 0x0b, 0x10, 0xf3, 0xfc, 0xe1, 0xf5, 0xf1, 0x1b, 0xf5, 0x0f, 0x17, 0x04,
  0x12, 0xfa, 0x06, 0x07, 0xff, 0x17, 0x02, 0x0c, 0x2f, 0x10, 0x1a, 0xf5, 0xef, 0xfb, 0xee, 0x0e,
  0x0d, 0x09, 0x05, 0x02, 0x1f, 0xfd, 0xff, 0x07, 0x0c, 0xfb, 0xf5, 0x08, 0x02, 0xef, 0xf8, 0x06,
  0xe5, 0x07, 0xf5, 0x0d, 0x0e, 0x05, 0xf6, 0xf5, 0x13, 0x09, 0xef, 0x0b, 0xf5, 0x04, 0xf4, 0xf9,
  0x0b, 0xfc, 0xeb, 0x03, 0xfd, 0x02, 0x08, 0x0a, 0x10, 0x05, 0xfc, 0xf6, 0x00, 0xef, 0x04, 0xfe,
  0xfd, 0xfe, 0x08, 0x14, 0xfa, 0x08, 0xec, 0x0d, 0x06, 0x12, 0x05, 0xf9, 0xf8, 0xf4, 0x07, 0x0e,
  0x06, 0xec, 0xfe, 0xeb, 0x04, 0x05, 0xe4, 0xeb, 0x08, 0xf5, 0x08, 0xfa, 0xe6, 0xf6, 0xfa, 0x07,
  0xe4, 0xf1, 0x10, 0x2a, 0xee, 0xfc, 0x00, 0xfd, 0x22, 0xc6, 0x11, 0x0b, 0x09, 0x07, 0x09, 0x0f,
  0xff, 0xf9, 0xe1, 0xfb, 0x7f, 0x17, 0x04, 0xf7, 0x1d, 0xf5, 0x11, 0xfc, 0x0a, 0xf6, 0xf0, 0x1a,
  0xfc, 0x0b, 0x09, 0x2e, 0x03, 0x29, 0x16, 0xfc, 0xf6, 0xdd, 0xed, 0x02, 0xf5, 0x02, 0xff, 0x02,
  0x0b, 0x08, 0x2c, 0x08, 0x17, 0xfe, 0x13, 0xe0, 0x36, 0xf5, 0xf6, 0xf8, 0x30, 0x02, 0xfb, 0xf6,
  0x05, 0xf2, 0xfc, 0x2a, 0xf4, 0x03, 0xfe, 0x02, 0x0e, 0x1d, 0x04, 0xf4, 0x05, 0xf8, 0xf1, 0x0b,
  0x08, 0xff, 0x0e, 0x0b, 0x22, 0x09, 0xe5, 0x2a, 0x02, 0xfd, 0x02, 0x0d, 0x00, 0xfd, 0x03, 0xfd,
  0x05, 0x05, 0x04, 0x00, 0x05, 0xf8, 0xed, 0xf7, 0x32, 0x15, 0x0c, 0xfc, 0x04, 0x05, 0xfe, 0xfd,
  0x04, 0xdc, 0xcc, 0x14, 0x33, 0x07, 0x1d, 0xf1, 0x0f, 0x01, 0x05, 0xfe, 0xf2, 0xfd, 0xf0, 0xf4,
  0x12, 0xf9, 0xfb, 0xf8, 0xf7, 0xfe, 0x05, 0xfc, 0xe8, 0x21, 0x09, 0x09, 0x0a, 0xef, 0xf7, 0xff,
  0xf7, 0xf5, 0xe5, 0x06, 0x13, 0x01, 0x13, 0x18, 0x10, 0x01, 0x03, 0x03, 0x17, 0x00, 0xf6, 0x09,
  0x0c, 0xf2, 0x01, 0x11, 0xfc, 0xf7, 0xf2, 0xfc, 0xf5, 0x26, 0x0e, 0xf4, 0x0d, 0x01, 0x07, 0xfb,
  0x0d, 0xda, 0xf7, 0x00, 0x13, 0x05, 0xfc, 0x15, 0xfc, 0xfd, 0xed, 0x37, 0xf7, 0x0e, 0x0b, 0x02,
  0x12, 0xda, 0xfb, 0xf0, 0x13, 0xcf, 0x04, 0x19, 0x25, 0xf4, 0x11, 0xf7, 0xe1, 0xf5, 0xf2, 0x1f,
  0x11, 0xdf, 0xef, 0x02, 0x26, 0xfd, 0x0c, 0xf4, 0x23, 0xf6, 0xf2, 0x76, 0xf5, 0xf6, 0x0a, 0x1d,
  0xe7, 0xf0, 0x1f, 0x7a, 0x12, 0xa8, 0xf6, 0x03, 0xec, 0xec, 0x20, 0xfe, 0x1a, 0xf3, 0xe3, 0x1f,
  0xec, 0x0b, 0xfc, 0xfa, 0xd0, 0xf5, 0xf7, 0xeb, 0x50, 0xf8, 0x14, 0x10, 0x25, 0x09, 0x0e, 0xe5,
  0xee, 0x04, 0xed, 0x49, 0xeb, 0x16, 0x06, 0xed, 0x0c, 0x44, 0x16, 0x0d, 0xe6, 0xfe, 0xf3, 0x1c,
  0xe5, 0x07, 0x16, 0xd1, 0xfa, 0x08, 0xf3, 0xdf, 0x21, 0x14, 0x0f, 0x91, 0x1f, 0x1f, 0xe4, 0xd9,
  0x26, 0x07, 0xe7, 0x34, 0xed, 0xc3, 0xf8, 0xfc, 0xc0, 0xfe, 0xfb, 0xe6, 0x1f, 0xe5, 0x12, 0x01,
  0x12, 0x23, 0xdf, 0xe9, 0x1e, 0xef, 0x0f, 0xf1, 0x0c, 0x16, 0xec, 0xdd, 0x0f, 0x00, 0x14, 0xd4,
  0xf7, 0x13, 0x0d, 0x1b, 0xea, 0x82, 0x1c, 0x1c, 0x0d, 0xf4, 0x22, 0xf6, 0xe8, 0x13, 0x0f, 0x04,
  0x11, 0x13, 0x09, 0x05, 0x4b, 0xfe, 0x0f, 0xce, 0x62, 0x16, 0x12, 0xe0, 0x01, 0xf7, 0x1c, 0x08,
  0xf7, 0xf0, 0x23, 0x81, 0x0e, 0x0d, 0xf5, 0xf0, 0x0f, 0xba, 0x14, 0xf5, 0xf3, 0x1c, 0xfd, 0xfc,
  0xea, 0xe6, 0x05, 0x1f, 0x07, 0xfc, 0xf4, 0xed, 0xf9, 0x01, 0xec, 0x02, 0x19, 0xe7, 0xdb, 0x0d,
  0x1e, 0x1f, 0x04, 0x05, 0x18, 0x6c, 0xe3, 0xe7, 0x15, 0xfb, 0x08, 0x0a, 0x25, 0xfd, 0x01, 0x22,
  0x03, 0x10, 0x2c, 0x0a, 0x27, 0xed, 0x0b, 0x15, 0x04, 0x04, 0xf8, 0x0d, 0x03, 0x1d, 0xe7, 0x15,
  0xf2, 0xff, 0x15, 0x0d, 0x14, 0xcf, 0x14, 0x0d, 0x1b, 0x1b, 0x09, 0x18, 0xeb, 0x12, 0xf0, 0x22,
  0x20, 0x3e, 0xe8, 0xe8, 0x0c, 0xf4, 0xf5, 0x16, 0x0d, 0xff, 0x04, 0x0a, 0xf7, 0xfc, 0x17, 0x13,
  0x29, 0x00, 0x18, 0x52, 0xe2, 0xfc, 0x01, 0xf6, 0x01, 0x34, 0x03, 0x05, 0x34, 0x16, 0xf2, 0x12,
  0x1e, 0xa1, 0xe7, 0xe7, 0xd3, 0xfe, 0x06, 0xf9, 0xfc, 0xfd, 0xf1, 0x31, 0xf5, 0x04, 0x03, 0x01,
  0xfa, 0x07, 0x05, 0xf5, 0x05, 0x0f, 0xfe, 0xec, 0xf2, 0xfd, 0xf8, 0x01, 0xfb, 0xf9, 0xf9, 0xf5,
  0x0b, 0x0a, 0xfa, 0x02, 0x23, 0xe8, 0x13, 0xf7, 0x0b, 0x05, 0x04, 0xa0, 0xf4, 0xfe, 0xfe, 0xfc,
  0x17, 0x0a, 0x08, 0x07, 0xfa, 0xe6, 0x1a, 0x0e, 0x1f, 0x05, 0x27, 0xf5, 0x0d, 0x02, 0x04, 0x07,
  0x03, 0xf1, 0xef, 0x9f, 0x01, 0xfb, 0x03, 0xfe, 0xe3, 0x05, 0xfc, 0x00, 0x06, 0x09, 0xed, 0x09,
  0xf6, 0xf2, 0xf1, 0xfc, 0xfd, 0xf7, 0xfb, 0xf8, 0xfa, 0xf1, 0xf1, 0x0e, 0x04, 0xfe, 0x01, 0x05,
  0x00, 0x02, 0x13, 0x1c, 0x06, 0xc8, 0xfb, 0x03, 0xfb, 0x03, 0xf9, 0x02, 0xf1, 0x05, 0xff, 0xf9,
  0x0c, 0x06, 0xfb, 0x0c, 0x0b, 0x4b, 0x1b, 0xf8, 0xe5, 0x00, 0x03, 0xfe, 0xf9, 0x06, 0x05, 0x03,
  0x00, 0x06, 0x1c, 0xfb, 0x7e, 0x03, 0x0a, 0xf5, 0x13, 0xff, 0xff, 0xf2, 0xf9, 0x00, 0x00, 0x1a,
  0x09, 0x0d, 0x05, 0xef, 0xfa, 0xf0, 0xe1, 0x06, 0x31, 0xee, 0x07, 0x10, 0xf5, 0x08, 0x0c, 0x07,
  0xfc, 0xd0, 0x0f, 0x81, 0xb2, 0xfc, 0xea, 0xf3, 0x11, 0x00, 0xfe, 0x09, 0x1e, 0x01, 0x08, 0x0f,
  0xfb, 0xf0, 0x0c, 0x1d, 0x05, 0xfd, 0x1e, 0xf3, 0xf0, 0x1a, 0xf0, 0x12, 0xf2, 0xfa, 0xfa, 0x0e,
  0xf7, 0xee, 0x0b, 0x2d, 0xf9, 0xcf, 0x0c, 0xfd, 0x02, 0x05, 0x15, 0x00, 0xfa, 0xfc, 0xfe, 0x03,
  0xe6, 0xf3, 0x0a, 0xff, 0xf5, 0x04, 0xfe, 0xe6, 0x00, 0xfc, 0xff, 0x04, 0xfc, 0x0d, 0xf8, 0x08,
  0xfc, 0x08, 0xee, 0x04, 0x56, 0xfc, 0xfb, 0xe5, 0xf9, 0xfe, 0xfb, 0xf8, 0xf7, 0x03, 0x10, 0xe8,
  0xea, 0x0d, 0x09, 0xf3, 0x10, 0x11, 0xf1, 0x08, 0x18, 0x18, 0x02, 0xf6, 0xfa, 0xf7, 0x08, 0x16,
  0xff, 0x06, 0x12, 0x07, 0xdb, 0xea, 0xe7, 0x04, 0x0f, 0xfc, 0x04, 0x02, 0xfc, 0xf5, 0xf2, 0x05,
  0x17, 0x05, 0xfa, 0x06, 0x08, 0xee, 0xfc, 0x03, 0x00, 0x02, 0x06, 0x09, 0xf7, 0x00, 0xff, 0xf7,
  0x05, 0xd3, 0x1e, 0x13, 0xfa, 0xff, 0xf9, 0x13, 0x01, 0x1a, 0xf0, 0x15, 0x1b, 0x02, 0xfd, 0x0a,
  0xea, 0x18, 0x13, 0xf8, 0x0e, 0x11, 0x0e, 0xf2, 0xac, 0x0b, 0xeb, 0x01, 0x22, 0xf3, 0x1b, 0x0c,
  0xfb, 0x1f, 0xf0, 0x15, 0xce, 0x16, 0xfa, 0xe2, 0x81, 0xeb, 0x1b, 0x46, 0xfe, 0xee, 0x12, 0xff,
  0xcc, 0xfb, 0x04, 0xe6, 0xfc, 0x20, 0xfc, 0x16, 0x25, 0xf9, 0x27, 0x0d, 0xf6, 0xec, 0xea, 0x09,
  0x01, 0x3b, 0x19, 0x37, 0xf8, 0xfe, 0xfd, 0x0e, 0x40, 0xf3, 0xf3, 0x07, 0x00, 0x0b, 0x08, 0x2a,
  0x1c, 0xf7, 0x21, 0x56, 0x11, 0xec, 0x07, 0x01, 0xfc, 0xe3, 0xf2, 0x16, 0x12, 0xf0, 0xfb, 0xe3,
  0xf8, 0x18, 0x1e, 0xde, 0xef, 0xdd, 0xe8, 0xd8, 0xf7, 0x16, 0x1a, 0xe5, 0xfb, 0xfc, 0x17, 0xf2,
  0x0e, 0xf2, 0x1e, 0xf5, 0xe0, 0xe6, 0x12, 0xfd, 0xd4, 0xfd, 0xec, 0xeb, 0x12, 0x0b, 0xf2, 0x06,
  0x20, 0x09, 0x54, 0xe9, 0x26, 0x08, 0xf3, 0x18, 0x22, 0xf8, 0xfe, 0xc7, 0x29, 0xf9, 0xee, 0xee,
  0x1e, 0xfd, 0x18, 0x32, 0x10, 0x4b, 0x09, 0x1f, 0x5a, 0x2d, 0xde, 0xea, 0xe9, 0x21, 0xe5, 0x2b,
  0x03, 0x77, 0x45, 0x4f, 0x58, 0x10, 0xf4, 0x25, 0x08, 0xde, 0x0e, 0x30, 0xf8, 0x05, 0x15, 0xf2,
  0xf9, 0x02, 0x20, 0xd3, 0xfd, 0xeb, 0xd5, 0x14, 0x03, 0x4f, 0xfa, 0xfa, 0xf5, 0x0e, 0xf5, 0x01,
  0x12, 0xc4, 0xca, 0x22, 0xfc, 0xfc, 0xe9, 0x0b, 0x47, 0xf4, 0x35, 0x01, 0x0d, 0xfb, 0xe9, 0x07,
  0x09, 0xe5, 0xf6, 0xde, 0x21, 0x34, 0xe0, 0xf4, 0x11, 0xfa, 0xf6, 0x0d, 0x15, 0xf9, 0x0f, 0xe9,
  0x27, 0xa2, 0x1e, 0xff, 0x01, 0x1c, 0xf6, 0xe7, 0x42, 0xff, 0xfa, 0x0b, 0xee, 0x0a, 0xfa, 0xec,
  0x1e, 0x23, 0xe6, 0x10, 0xde, 0x01, 0x0e, 0x0e, 0x0d, 0x1a, 0xfe, 0xe5, 0xfc, 0xe3, 0xf5, 0x1f,
  0x0d, 0x1d, 0x18, 0x0a, 0x74, 0xea, 0x07, 0x2e, 0x0b, 0x19, 0x07, 0xe6, 0xec, 0x1a, 0xfc, 0x13,
  0xfc, 0x23, 0xe1, 0x2d, 0xe0, 0xf4, 0xf4, 0x15, 0xde, 0x24, 0x02, 0xe8, 0x05, 0x07, 0x0c, 0x27,
  0xf2, 0xfa, 0xf2, 0xf8, 0x13, 0x26, 0xf5, 0xf2, 0xce, 0x1d, 0xf8, 0x40, 0x1f, 0xf3, 0xff, 0x03,
  0x0f, 0x0e, 0x09, 0x1a, 0xd6, 0xda, 0xfb, 0x12, 0x03, 0x2a, 0x13, 0xef, 0xfc, 0xfe, 0xfb, 0x1f,
  0x00, 0x4d, 0x37, 0x15, 0xf6, 0x1d, 0xf9, 0x16, 0xe6, 0x12, 0x0c, 0x1a, 0x00, 0x12, 0x14, 0xf0,
  0x09, 0xea, 0xfc, 0x33, 0xff, 0xe8, 0x33, 0xf3, 0x04, 0x0e, 0x02, 0xf2, 0xf9, 0x1a, 0xec, 0x29,
  0xfa, 0x7f, 0x07, 0xd7, 0x0a, 0x23, 0x0d, 0x32, 0xec, 0xfd, 0xeb, 0x08, 0x0d, 0x07, 0x19, 0x1a,
  0x01, 0x01, 0x2b, 0x3e, 0xfa, 0x12, 0x07, 0xfc, 0xe7, 0xe3, 0x17, 0xe0, 0xf0, 0xfe, 0x01, 0x0a,
  0x0e, 0x3d, 0x1d, 0x47, 0xfb, 0x18, 0x00, 0xfe, 0x32, 0x0b, 0xdb, 0xe5, 0xe2, 0xde, 0x0d, 0xf1,
  0x2f, 0x14, 0xf7, 0x02, 0xea, 0x5e, 0xe5, 0x02, 0x3d, 0xd6, 0x21, 0xf9, 0xd8, 0xe7, 0xe3, 0x0a,
  0x02, 0xbc, 0x09, 0x19, 0x70, 0xf4, 0x02, 0x12, 0x1f, 0x17, 0x01, 0x2f, 0xf8, 0xf9, 0x0c, 0x06,
  0x2e, 0x11, 0xe5, 0x8c, 0x1a, 0xda, 0xe1, 0xed, 0x2d, 0x04, 0x08, 0x24, 0x01, 0x02, 0x01, 0x0c,
  0x02, 0x5e, 0x69, 0x3a, 0xc7, 0xe9, 0x22, 0x28, 0x28, 0x06, 0x11, 0xf9, 0xe9, 0x01, 0xf1, 0xe9,
  0xd8, 0xeb, 0x04, 0xd2, 0x00, 0x14, 0x09, 0x0c, 0xcb, 0x7d, 0x01, 0x0d, 0xd0, 0xfa, 0x0a, 0x09,
  0xec, 0x0b, 0x14, 0xf8, 0x2f, 0x05, 0xe7, 0xe9, 0xf2, 0xfd, 0x10, 0xf9, 0xfd, 0x1c, 0xf0, 0xf3,
  0xf8, 0x04, 0x20, 0x03, 0xe8, 0xf4, 0x0d, 0x07, 0xff, 0x0c, 0x0f, 0xf8, 0xfb, 0xff, 0xf2, 0x0e,
  0xf8, 0x2e, 0xf1, 0xfc, 0x0c, 0x04, 0x22, 0xf0, 0xe1, 0x0d, 0x09, 0x09, 0xfb, 0x05, 0x0b, 0x13,
  0x10, 0x0f, 0x07, 0x04, 0xe6, 0xda, 0x11, 0x10, 0xe2, 0x1e, 0x0b, 0x00, 0xf8, 0x10, 0x14, 0xe5,
  0x1d, 0xed, 0x34, 0x00, 0xf1, 0x27, 0x09, 0x20, 0x05, 0xf9, 0x11, 0xff, 0xee, 0xfa, 0xfe, 0x16,
  0xde, 0xe6, 0x08, 0xf5, 0x04, 0xef, 0xef, 0x08, 0x1e, 0x36, 0xeb, 0xf7, 0x0e, 0xfd, 0x14, 0xe1,
  0x00, 0xbf, 0x27, 0xfd, 0xd5, 0x19, 0xe2, 0x26, 0x0f, 0x10, 0xf6, 0x76, 0x0c, 0x0d, 0xfb, 0xea,
  0xf8, 0xe8, 0x12, 0xd8, 0x15, 0x36, 0x09, 0xdc, 0xc0, 0x26, 0xd7, 0x19, 0xfe, 0xf1, 0x0a, 0xe8,
  0x0c, 0x2d, 0x0c, 0xf7, 0xf8, 0xfc, 0x15, 0xfb, 0x21, 0x07, 0x12, 0x03, 0xec, 0x0a, 0x19, 0x07,
  0xe3, 0x18, 0xee, 0x21, 0x02, 0x27, 0xf3, 0x05, 0xee, 0xfb, 0xf0, 0x1e, 0x18, 0x1d, 0xf3, 0x24,
  0xe5, 0x23, 0x02, 0x3b, 0xcc, 0xfc, 0x12, 0xf7, 0x08, 0xf8, 0x00, 0xec, 0x12, 0x01, 0xfd, 0xeb,
  0xe9, 0x0a, 0x1c, 0x11, 0xee, 0x04, 0x0d, 0xef, 0x2d, 0xf8, 0xfe, 0x15, 0xee, 0x14, 0xf1, 0x05,
  0xe1, 0xf9, 0xec, 0xfc, 0xf8, 0xf1, 0x0b, 0x09, 0x0a, 0xe9, 0xef, 0xcc, 0x19, 0xf3, 0xe7, 0xf9,
  0x06, 0x12, 0x15, 0x38, 0xfb, 0x2c, 0x00, 0x00, 0x8c, 0x15, 0x17, 0x09, 0x18, 0x01, 0x1a, 0x11,
  0x30, 0x34, 0x04, 0xe5, 0x64, 0xf8, 0x12, 0x18, 0x45, 0x15, 0xe5, 0xca, 0x23, 0xe8, 0x0e, 0x08,
  0xfc, 0x18, 0x21, 0x36, 0x06, 0xf1, 0x12, 0x07, 0xe0, 0x46, 0xfc, 0x12, 0x10, 0x11, 0x17, 0xf8,
  0x00, 0x12, 0xf9, 0x0f, 0x1b, 0xf4, 0xff, 0xe8, 0x57, 0xf1, 0xed, 0x09, 0x05, 0x0a, 0xf5, 0xf9,
  0x28, 0xee, 0xeb, 0xa2, 0x05, 0x19, 0xff, 0x09, 0x24, 0x41, 0x08, 0xee, 0x0c, 0x1d, 0x19, 0x15,
  0x00, 0xe3, 0x0d, 0x21, 0x08, 0x01, 0x0d, 0xf3, 0x02, 0x0f, 0x03, 0xf7, 0xf9, 0x0f, 0xdb, 0x1a,
  0xf5, 0x1d, 0xfb, 0xff, 0xed, 0x7f, 0x0b, 0xe8, 0xbd, 0xd7, 0xf8, 0x0f, 0x03, 0xe9, 0xf6, 0x10,
  0xf9, 0x2f, 0x1b, 0x16, 0x2a, 0xea, 0xee, 0xf8, 0xf2, 0x18, 0xfa, 0x09, 0x0e, 0xfc, 0xe9, 0xeb,
  0x02, 0xe6, 0xfa, 0x1f, 0x11, 0xfd, 0xeb, 0x0c, 0xd6, 0x32, 0x16, 0xef, 0x19, 0x20, 0x16, 0x03,
  0xf0, 0x1c, 0xf4, 0x16, 0x3b, 0xff, 0x04, 0x1b, 0xf4, 0x17, 0xe2, 0xff, 0x08, 0x19, 0xf2, 0x06,
  0xf9, 0x06, 0xe3, 0x49, 0x00, 0x19, 0xf0, 0x14, 0x03, 0xf5, 0xe1, 0xe7, 0x0e, 0xfa, 0x17, 0xde,
  0x02, 0xd1, 0xe4, 0xd6, 0x0c, 0xf7, 0x1a, 0xf3, 0x1b, 0x05, 0xfd, 0x93, 0xf1, 0xfa, 0x1c, 0x0c,
  0xe5, 0xfb, 0x1e, 0x06, 0x07, 0x63, 0x15, 0xde, 0xde, 0xfd, 0xf3, 0xfd, 0x0c, 0x19, 0xfd, 0xe0,
  0xff, 0x0d, 0x10, 0x02, 0xfd, 0x0f, 0x03, 0x09, 0x81, 0xe7, 0x2b, 0xc7, 0xf7, 0x07, 0xf2, 0x20,
  0x06, 0xe0, 0xfd, 0x9a, 0xfa, 0xd2, 0x09, 0x18, 0x23, 0xe8, 0xe0, 0xf9, 0xfc, 0x19, 0x0d, 0xd2,
  0xf6, 0x21, 0xf4, 0x20, 0xe5, 0x03, 0x0e, 0x0a, 0x91, 0x18, 0xfc, 0xda, 0xdd, 0x18, 0x16, 0xe5,
  0xf6, 0xe3, 0x06, 0xe4, 0x16, 0x2a, 0xf6, 0xee, 0x19, 0x18, 0xf9, 0x0d, 0xf7, 0x09, 0x09, 0x13,
  0xf3, 0xfe, 0xff, 0xcc, 0xef, 0xf0, 0xec, 0x01, 0xea, 0xf9, 0x06, 0x54, 0x03, 0xf5, 0xf9, 0x00,
  0xf1, 0x19, 0xfa, 0xe2, 0x12, 0xea, 0xf4, 0x13, 0xb7, 0x05, 0x15, 0xe4, 0x21, 0x24, 0xe9, 0x12,
  0x01, 0x13, 0xfc, 0xe6, 0xd3, 0xeb, 0x03, 0xf5, 0x00, 0x22, 0x0f, 0x12, 0x12, 0xe1, 0x11, 0x05,
  0xee, 0x12, 0x25, 0x1b, 0x15, 0xca, 0x10, 0xeb, 0x44, 0x37, 0xf4, 0x0b, 0x04, 0xf7, 0x15, 0x05,
  0xee, 0x43, 0x1a, 0xf9, 0x06, 0xf3, 0xe8, 0xff, 0x02, 0x00, 0xf7, 0xfe, 0xf7, 0xf6, 0x24, 0x0f,
  0x21, 0xec, 0x06, 0x65, 0x04, 0x2b, 0x1c, 0xe4, 0x5d, 0x46, 0xe0, 0x03, 0x1d, 0xf5, 0xe6, 0x11,
  0x19, 0xfd, 0xcd, 0xf0, 0xef, 0xf1, 0x1a, 0xfb, 0x30, 0xe7, 0x01, 0x06, 0xfa, 0x12, 0x17, 0xf0,
  0xf4, 0xe5, 0xf0, 0xe3, 0x09, 0x02, 0xd6, 0x11, 0xb2, 0x1a, 0x1b, 0x1c, 0x22, 0xf5, 0xf7, 0x0b,
  0x12, 0xc1, 0xe5, 0xfa, 0xfc, 0x14, 0x05, 0xf6, 0x1a, 0xfa, 0x17, 0x11, 0xef, 0x26, 0xf0, 0xf9,
  0x04, 0xf7, 0xef, 0xe3, 0xfe, 0xe7, 0xda, 0x02, 0x11, 0x42, 0xe1, 0x0f, 0x15, 0xfb, 0xf9, 0xf8,
  0x26, 0xf5, 0x37, 0x07, 0xb9, 0x10, 0xee, 0x1a, 0x41, 0x1c, 0x12, 0xfc, 0xf4, 0x06, 0x1a, 0xea,
  0x06, 0xf7, 0x27, 0xfc, 0x0b, 0x12, 0xf2, 0xf3, 0x24, 0x25, 0x0c, 0xf0, 0x04, 0x24, 0xee, 0xda,
  0x06, 0xbf, 0xc4, 0xec, 0x11, 0x19, 0x08, 0xf8, 0xdf, 0x0d, 0x05, 0x01, 0xfe, 0x09, 0xf2, 0x0b,
  0xfd, 0x14, 0x1c, 0x29, 0xff, 0xe4, 0x1f, 0xf3, 0xcd, 0x01, 0xf9, 0x05, 0x23, 0x1a, 0x05, 0x0a,
  0x17, 0x53, 0x48, 0x09, 0xee, 0x18, 0xef, 0xff, 0x81, 0xf0, 0xe1, 0xee, 0x08, 0x2b, 0xfc, 0x01,
  0x16, 0x0d, 0xe7, 0x10, 0xfc, 0xf5, 0x2b, 0x11, 0xf1, 0xf9, 0xee, 0xfa, 0x03, 0x10, 0x13, 0x06,
  0xef, 0x6b, 0x16, 0xfb, 0x05, 0x09, 0x06, 0x04, 0xd2, 0x00, 0xfe, 0x3a, 0x0f, 0x0f, 0x0a, 0xf1,
  0xfa, 0x10, 0x04, 0x3b, 0xed, 0xf0, 0x1a, 0x00, 0xdb, 0xd1, 0x1a, 0x05, 0x1e, 0xf5, 0xf3, 0x1a,
  0x11, 0x2e, 0x01, 0x29, 0xe0, 0x0a, 0xec, 0xe8, 0xef, 0xf8, 0xe5, 0xd9, 0xf4, 0xe3, 0xe3, 0xfa,
  0xf2, 0x0c, 0x04, 0xdd, 0x18, 0x4c, 0x04, 0x06, 0x0b, 0xd7, 0xf8, 0x0f, 0xef, 0x0c, 0x16, 0x0d,
  0xf9, 0x00, 0x5d, 0x1c, 0xf8, 0xe7, 0xfd, 0x15, 0x2a, 0x10, 0x10, 0x0a, 0xff, 0x0c, 0x04, 0x02,
  0x19, 0x14, 0x0c, 0x01, 0xf4, 0xc2, 0x0c, 0x08, 0x09, 0x0c, 0x23, 0xf9, 0xf1, 0x05, 0xf7, 0xf6,
  0x19, 0xda, 0xe3, 0x17, 0xfe, 0x08, 0xfe, 0xee, 0x05, 0x0a, 0x05, 0xd8, 0x1d, 0x0e, 0x0e, 0x01,
  0xd9, 0xef, 0xe9, 0x1c, 0x00, 0x01, 0xe9, 0xeb, 0xe3, 0x2e, 0x0c, 0x11, 0xf3, 0x1d, 0xed, 0xf8,
  0x0b, 0xd2, 0x08, 0x16, 0x2c, 0x21, 0xdf, 0xd5, 0x13, 0x09, 0x09, 0x2c, 0x0a, 0x16, 0xf4, 0xf6,
  0x02, 0x0d, 0xd9, 0x13, 0xf3, 0x03, 0x09, 0xf3, 0xfc, 0x35, 0x19, 0x09, 0x16, 0x17, 0x06, 0xfc,
  0x06, 0xcb, 0xc3, 0xfb, 0x2f, 0x09, 0x04, 0xfa, 0x31, 0x00, 0xef, 0x17, 0xf0, 0x25, 0xea, 0xf3,
  0x17, 0x14, 0x1c, 0x2b, 0x09, 0x17, 0x03, 0x0a, 0xdf, 0x05, 0x1a, 0xf4, 0xee, 0x12, 0xf3, 0x18,
  0xf9, 0x10, 0x24, 0xe0, 0x02, 0xfd, 0x0f, 0x27, 0xfa, 0xfd, 0xef, 0x11, 0xf2, 0xec, 0xed, 0x11,
  0x02, 0xed, 0x0f, 0x22, 0x0a, 0xf1, 0x07, 0x0d, 0x10, 0x3c, 0x10, 0x00, 0xf6, 0x03, 0xe9, 0x09,
  0x00, 0x30, 0x18, 0xf5, 0x09, 0x02, 0x09, 0x26, 0xfd, 0xf9, 0x1b, 0xfa, 0x2b, 0xf4, 0xd9, 0xf4,
  0xd4, 0x1c, 0x0b, 0xd3, 0x09, 0xd1, 0x0d, 0xee, 0xcd, 0x0f, 0xfb, 0x00, 0x3d, 0x03, 0x13, 0xfc,
  0x17, 0x06, 0xff, 0x25, 0xcc, 0xf1, 0xf6, 0xff, 0x9f, 0x08, 0x1b, 0xf1, 0xfb, 0xff, 0xff, 0xdc,
  0xe3, 0xfb, 0xe7, 0xa2, 0x0d, 0x3d, 0xeb, 0xe9, 0x4d, 0x18, 0x14, 0xf0, 0xef, 0x0b, 0x05, 0x13,
  0x0b, 0xf4, 0xd3, 0xf6, 0xf4, 0x16, 0xfa, 0xff, 0xeb, 0x06, 0xdd, 0x04, 0xdf, 0x22, 0x03, 0x1d,
  0xf3, 0xdc, 0xf9, 0xfe, 0x02, 0xe4, 0xe9, 0xe4, 0x0a, 0x4d, 0x03, 0x11, 0xdf, 0x0b, 0x1c, 0x10,
  0xd8, 0x13, 0x08, 0xfa, 0x24, 0xf4, 0x12, 0xe1, 0x34, 0x13, 0x42, 0x21, 0xff, 0xee, 0xff, 0x0d,
  0xf4, 0xde, 0x29, 0xdd, 0xf3, 0x8d, 0x2e, 0xf1, 0xc4, 0x22, 0xff, 0xf0, 0x3e, 0x18, 0x12, 0x04,
  0x05, 0x13, 0x02, 0xe6, 0x14, 0x22, 0x1f, 0x28, 0x7f, 0x10, 0x2f, 0xd8, 0xe7, 0x02, 0xfc, 0x1d,
  0x2d, 0xfc, 0x00, 0x48, 0xe8, 0x34, 0xea, 0x14, 0x65, 0x4f, 0x06, 0x18, 0xfc, 0xf3, 0xef, 0x0c,
  0x42, 0x6b, 0xfc, 0xf2, 0xdc, 0xff, 0x1f, 0xf0, 0x18, 0x0b, 0xdd, 0xcb, 0xfb, 0xdf, 0xec, 0xde,
  0x0d, 0xee, 0xf9, 0x0e, 0x09, 0x29, 0x19, 0x0a, 0xf7, 0x34, 0x09, 0x07, 0x1b, 0x02, 0x03, 0xfd,
  0x1e, 0xab, 0xdf, 0xe0, 0xfe, 0x16, 0xe6, 0x10, 0x04, 0xdf, 0xff, 0xe4, 0x13, 0xfa, 0x16, 0x21,
  0xd8, 0xd9, 0x10, 0xd3, 0x13, 0xbb, 0xff, 0x22, 0xcd, 0xf5, 0xf2, 0xee, 0x12, 0xfe, 0x13, 0xfd,
  0x2d, 0xe2, 0xea, 0xec, 0xd8, 0xf2, 0xf8, 0x16, 0x25, 0xf7, 0x14, 0xfe, 0xe1, 0x06, 0x13, 0x1d,
  0x1f, 0xf6, 0xfe, 0xde, 0xe2, 0x04, 0x01, 0xf4, 0x0e, 0xf6, 0xfe, 0xf0, 0xf4, 0xf6, 0x1d, 0x11,
  0x1c, 0x96, 0xdc, 0x07, 0xfc, 0xd4, 0x0a, 0x13, 0xf4, 0x1a, 0xf5, 0x07, 0x13, 0xe5, 0x06, 0x05,
  0x20, 0xf8, 0xff, 0xf0, 0x10, 0xf5, 0xee, 0xf8, 0x14, 0xdc, 0x1c, 0x1b, 0xdc, 0x14, 0xea, 0xea,
  0x26, 0x13, 0x0f, 0x0f, 0xed, 0xdd, 0x08, 0x11, 0x03, 0xee, 0x09, 0xf3, 0x16, 0x0f, 0xf5, 0x00,
  0xf8, 0xef, 0x05, 0x06, 0x03, 0xec, 0x14, 0xfc, 0x18, 0x03, 0xf2, 0x19, 0x14, 0x04, 0x04, 0xf4,
  0xf8, 0x15, 0x24, 0x01, 0xf6, 0xf4, 0xe6, 0xfb, 0x99, 0xe2, 0xfa, 0xfb, 0x13, 0xde, 0x0c, 0xf3,
  0x1f, 0xe7, 0xf2, 0x05, 0x0a, 0x20, 0xfa, 0xea, 0x1a, 0xdf, 0xe6, 0x03, 0xee, 0xfe, 0x0d, 0xeb,
  0x11, 0x23, 0x08, 0xfd, 0x08, 0x05, 0xea, 0xfd, 0xbb, 0x07, 0xf4, 0xf4, 0xe9, 0x14, 0x0f, 0x0a,
  0x08, 0xf8, 0x10, 0xf3, 0x12, 0xf6, 0xf0, 0xf1, 0x03, 0xe5, 0x0a, 0x06, 0x0b, 0xfb, 0x00, 0xfd,
  0xf7, 0x23, 0xf9, 0xe9, 0x02, 0x12, 0x0c, 0x00, 0xf9, 0xf5, 0xfd, 0x15, 0xe9, 0x0e, 0xfa, 0x13,
  0xfd, 0xf0, 0x09, 0x13, 0xe9, 0xd3, 0x13, 0x11, 0xb9, 0x11, 0x03, 0xf5, 0x13, 0x1b, 0x0c, 0x05,
  0x02, 0xe1, 0x26, 0xee, 0xc6, 0xf4, 0xef, 0xfd, 0x08, 0x0e, 0x0c, 0x03, 0x15, 0x10, 0x0b, 0x14,
  0x07, 0x11, 0xe7, 0xf4, 0x04, 0x3b, 0x1f, 0x02, 0x38, 0x02, 0xfd, 0x0c, 0x02, 0x02, 0x0a, 0xfb,
  0x0c, 0x55, 0x1c, 0x03, 0x29, 0x17, 0x15, 0x1a, 0x0c, 0xff, 0x06, 0xf7, 0xf3, 0xf2, 0x13, 0x05,
  0x1a, 0x0c, 0x14, 0x7f, 0xf8, 0xf3, 0xf1, 0x05, 0x0b, 0xff, 0xe7, 0xe6, 0x12, 0x0f, 0x0f, 0x01,
  0x0b, 0xdf, 0xee, 0xf9, 0x1a, 0xfd, 0xe9, 0xfa, 0x01, 0x0d, 0x12, 0xfa, 0x12, 0x02, 0x0c, 0x07,
  0xdf, 0x17, 0x0b, 0xfb, 0x0e, 0xdd, 0xf8, 0xed, 0xe9, 0x09, 0xf8, 0xed, 0x15, 0xfe, 0x09, 0xf5,
  0xf4, 0xd9, 0xfe, 0x07, 0xda, 0xe7, 0xf6, 0x13, 0x2c, 0xf5, 0x04, 0x10, 0x05, 0xf5, 0x0b, 0x09,
  0x08, 0x0e, 0xfd, 0xf5, 0x10, 0x26, 0xe8, 0x0f, 0x38, 0xfb, 0xf6, 0xf3, 0x11, 0x18, 0xec, 0x00,
  0x16, 0xeb, 0x1c, 0xf4, 0x0a, 0xf7, 0x13, 0x12, 0x0e, 0x03, 0x00, 0x0d, 0xec, 0x18, 0x16, 0xf3,
  0xf6, 0x0c, 0x06, 0xe4, 0x07, 0xf1, 0xe7, 0x04, 0x01, 0x11, 0x02, 0xf9, 0xf5, 0xfe, 0x08, 0xfa,
  0x11, 0x0d, 0xf2, 0x1b, 0x0e, 0x05, 0xed, 0xf0, 0xf3, 0x05, 0xfe, 0xe3, 0x02, 0xf9, 0xff, 0x0d,
  0xf4, 0x11, 0x12, 0x02, 0x07, 0x4a, 0xfd, 0x10, 0xf5, 0x0e, 0x27, 0xf5, 0x03, 0xf4, 0x15, 0xf8,
  0xf2, 0x1a, 0xff, 0xe8, 0xe3, 0x1a, 0xef, 0xfb, 0xd5, 0x01, 0xfe, 0xfd, 0x0b, 0x0f, 0x10, 0x01,
  0xee, 0x0e, 0x05, 0xf9, 0xf1, 0x04, 0x11, 0xea, 0xff, 0xfa, 0x19, 0xf3, 0xea, 0x17, 0x01, 0xf4,
  0x00, 0x23, 0x0a, 0x28, 0xd9, 0xfa, 0x1b, 0xeb, 0xfd, 0xec, 0x0f, 0xea, 0xf5, 0xf8, 0xf6, 0x03,
  0x0b, 0x16, 0x01, 0x0b, 0xf9, 0xf9, 0x07, 0x13, 0x0c, 0xcd, 0xf7, 0xf1, 0x0f, 0xea, 0x0c, 0x04,
  0x10, 0x0e, 0xfa, 0xdf, 0x00, 0xea, 0xf5, 0xfb, 0x12, 0x0e, 0x0f, 0x2a, 0x01, 0xf9, 0xf7, 0xe4,
  0x13, 0xfc, 0xee, 0x18, 0x10, 0x1a, 0x19, 0xf0, 0x0e, 0x1f, 0x23, 0xf8, 0x13, 0x13, 0xf6, 0x16,
  0xee, 0x08, 0xdc, 0x10, 0xe7, 0xf0, 0x0f, 0xfd, 0x24, 0xeb, 0xfc, 0x21, 0xfa, 0x08, 0x1d, 0xf2,
  0xf6, 0x0b, 0x0f, 0x0e, 0xf6, 0xc2, 0xf1, 0x08, 0x0a, 0xed, 0xff, 0x10, 0xf2, 0xef, 0x00, 0x01,
  0x04, 0x37, 0x21, 0xde, 0x58, 0x0c, 0xfe, 0xf0, 0xda, 0x02, 0xf7, 0x0f, 0x13, 0x00, 0x13, 0xf4,
  0xf6, 0x0d, 0x02, 0x7f, 0xfc, 0x1b, 0x04, 0xf3, 0x2f, 0x94, 0xf6, 0xfb, 0x10, 0xfa, 0xfe, 0xfb,
  0x09, 0xe3, 0xe5, 0x00, 0x03, 0x13, 0xf9, 0x13, 0xfd, 0xec, 0xf5, 0xed, 0x01, 0x10, 0xf6, 0xfa,
  0x0e, 0xec, 0x0c, 0xe5, 0x11, 0x14, 0x08, 0x11, 0xad, 0x02, 0xf9, 0x0f, 0x10, 0xfa, 0x19, 0xf9,
  0x08, 0xd9, 0x07, 0xf8, 0x03, 0xfd, 0x09, 0xfc, 0x05, 0x0d, 0xfb, 0x23, 0xfb, 0x09, 0x06, 0x0f,
  0x04, 0xf1, 0x06, 0xfb, 0xea, 0x1b, 0xec, 0xf9, 0x19, 0x07, 0xf4, 0x11, 0xf3, 0xfb, 0x0f, 0xec,
  0x16, 0xcf, 0x0e, 0x0e, 0xf9, 0x06, 0x08, 0xf3, 0x0d, 0xfb, 0xeb, 0xf9, 0xff, 0x0c, 0x07, 0xff,
  0x12, 0xf9, 0x01, 0xed, 0x03, 0xf1, 0xf4, 0x09, 0xfb, 0x69, 0x00, 0x16, 0x06, 0xec, 0xfd, 0xf9,
  0x02, 0xe7, 0xd2, 0xf8, 0x0b, 0x0e, 0xec, 0xff, 0x45, 0xf8, 0x0d, 0x1b, 0xf0, 0xfe, 0xed, 0xe8,
  0x13, 0xf9, 0xde, 0xf1, 0xfb, 0xb4, 0xfc, 0xf2, 0xf0, 0xf4, 0x08, 0x01, 0xed, 0xf3, 0xf3, 0x1b,
  0x07, 0xfe, 0x06, 0x1f, 0xfc, 0xf3, 0x12, 0x0e, 0xdf, 0xe7, 0xf3, 0x0f, 0x15, 0xec, 0xee, 0xf1,
  0xe6, 0x02, 0x0a, 0x17, 0xff, 0x26, 0x13, 0x13, 0x1f, 0xf2, 0x0b, 0xf4, 0xff, 0x06, 0x04, 0xff,
  0xef, 0x05, 0x0b, 0xd7, 0xe8, 0xf4, 0x14, 0xec, 0xf4, 0xe7, 0xf9, 0x07, 0xf4, 0xde, 0x00, 0x01,
  0xe4, 0x0d, 0xe9, 0x27, 0xed, 0x08, 0xee, 0x04, 0x0c, 0xd8, 0x18, 0xeb, 0xeb, 0xf2, 0xe8, 0x13,
  0x08, 0x25, 0x12, 0xfc, 0xdb, 0xf5, 0x18, 0xef, 0x33, 0xf8, 0x0b, 0x29, 0x26, 0x1a, 0xea, 0x03,
  0xdf, 0xfb, 0x1e, 0xe8, 0x0c, 0x81, 0x04, 0xfb, 0xdd, 0x15, 0xf5, 0xff, 0x2a, 0x11, 0x19, 0x04,
  0x1d, 0xf4, 0x35, 0x06, 0x01, 0xf1, 0x01, 0x0a, 0x5a, 0xfb, 0x1a, 0xd6, 0x05, 0x07, 0xee, 0x09,
  0x19, 0x11, 0xfe, 0xd9, 0x08, 0x79, 0x00, 0x00, 0x3f, 0x25, 0xf9, 0xfe, 0x13, 0xf5, 0x0e, 0x09,
  0x1c, 0x5c, 0x0c, 0x0f, 0xfa, 0xed, 0x0e, 0x33, 0x50, 0x20, 0x0f, 0xef, 0xf8, 0x14, 0xff, 0xfb,
  0x29, 0x00, 0x0b, 0xe9, 0xfa, 0xf4, 0x13, 0xfc, 0xf6, 0x21, 0xf2, 0x10, 0x10, 0xfa, 0x09, 0xfd,
  0x15, 0xfd, 0x00, 0x2e, 0x23, 0x1b, 0xf4, 0x0e, 0xf4, 0x01, 0x17, 0x01, 0x01, 0xef, 0x11, 0xf3,
  0xde, 0xff, 0x0f, 0xd6, 0x0f, 0xe8, 0xf4, 0x0e, 0x2e, 0xfd, 0x03, 0xfe, 0x20, 0x07, 0x02, 0xff,
  0xfe, 0x14, 0x2a, 0x0f, 0x15, 0x0f, 0xfc, 0x1e, 0xf7, 0x02, 0x09, 0xe6, 0xe5, 0xec, 0xf5, 0xf3,
  0xf9, 0x14, 0xef, 0xfb, 0x06, 0x3d, 0xf4, 0x01, 0x0e, 0x1d, 0xf4, 0x05, 0x1c, 0x21, 0x03, 0xfc,
  0x0e, 0x39, 0x15, 0x0f, 0xd0, 0x0b, 0xfb, 0x0d, 0xf9, 0xfe, 0xf2, 0x14, 0x01, 0xf6, 0xe5, 0x04,
  0xef, 0xf6, 0x17, 0x1e, 0xf7, 0xe7, 0xfd, 0x03, 0xf9, 0x05, 0xfa, 0x07, 0x15, 0x13, 0x0d, 0xec,
  0x1c, 0xc5, 0xe8, 0xfc, 0x0a, 0xf3, 0x09, 0xda, 0xee, 0xe7, 0xdd, 0xec, 0xfe, 0xfd, 0xe0, 0x0a,
  0xe2, 0x13, 0x0d, 0x06, 0xf4, 0xe0, 0x0c, 0x17, 0xe7, 0xee, 0x29, 0x19, 0x0a, 0x1a, 0x0d, 0x1d,
  0x0b, 0xfa, 0x14, 0x34, 0x0d, 0x17, 0x1a, 0xe6, 0xad, 0xec, 0xe7, 0xd0, 0x09, 0x16, 0xe4, 0xe7,
  0xdd, 0xf0, 0x1f, 0xf8, 0x29, 0x00, 0x21, 0xf9, 0xf3, 0xd7, 0x19, 0x18, 0x1f, 0xeb, 0x06, 0x06,
  0x0d, 0xc3, 0xd9, 0x10, 0xf1, 0x1b, 0xd5, 0xd0, 0x31, 0x1c, 0x0d, 0x02, 0xdd, 0xec, 0xfc, 0x01,
  0x25, 0xe7, 0x01, 0xeb, 0x26, 0xe4, 0xff, 0x13, 0xea, 0x08, 0x20, 0xe9, 0x0a, 0xeb, 0x04, 0xe4,
  0xed, 0x8a, 0x08, 0xf8, 0x06, 0xfd, 0x02, 0xd2, 0xf8, 0x12, 0x16, 0x50, 0x15, 0x18, 0xdc, 0x04,
  0x22, 0x02, 0xf6, 0xfb, 0xdd, 0x39, 0x23, 0x17, 0xe9, 0x30, 0xeb, 0x1d, 0x15, 0xfb, 0xf6, 0x03,
  0x17, 0x1a, 0x0d, 0xf7, 0x07, 0xf6, 0x17, 0x21, 0x43, 0xf2, 0x30, 0x24, 0x16, 0xed, 0xf2, 0xf1,
  0xf1, 0xf5, 0x1e, 0xe2, 0x16, 0x3f, 0x20, 0xdc, 0x22, 0x1c, 0xe8, 0xd9, 0xfa, 0x1d, 0xf4, 0xfd,
  0x2d, 0x52, 0xee, 0xfb, 0xde, 0x2c, 0x06, 0x1b, 0xfc, 0x1b, 0xda, 0x1e, 0xdb, 0x19, 0x29, 0x23,
  0x28, 0xf3, 0x10, 0x7f, 0xea, 0x1d, 0xfa, 0x26, 0xd6, 0x17, 0x22, 0xf8, 0xfe, 0xfc, 0x26, 0xec,
  0x1c, 0xe0, 0xf5, 0xf6, 0x08, 0x29, 0xd4, 0xe2, 0x1b, 0x23, 0x19, 0x1f, 0x00, 0xe9, 0x1f, 0xef,
  0x05, 0xe6, 0x16, 0xe6, 0xfb, 0xd8, 0xe4, 0xf6, 0xf8, 0x08, 0x08, 0x00, 0xea, 0x04, 0x1c, 0x27,
  0x22, 0xbe, 0xe9, 0x14, 0x11, 0xf2, 0xf3, 0xf1, 0x3b, 0xf4, 0x0b, 0xfd, 0x0e, 0x07, 0xe8, 0xed,
  0xf6, 0xfd, 0x23, 0x09, 0x01, 0x02, 0x13, 0x15, 0xfe, 0x16, 0xef, 0x25, 0x2d, 0xeb, 0x1a, 0xd7,
  0xf8, 0xf0, 0x0a, 0x1c, 0x17, 0x05, 0x13, 0x0c, 0xde, 0x1c, 0xfc, 0x0f, 0x16, 0xeb, 0xfb, 0xfb,
  0x07, 0x0b, 0x0b, 0xda, 0xed, 0x05, 0xd0, 0x0a, 0xd9, 0x13, 0x0c, 0xdb, 0x09, 0xe2, 0xd8, 0xec,
  0x20, 0x00, 0x02, 0x1e, 0x31, 0xd8, 0x0e, 0x12, 0xfa, 0x03, 0xfd, 0xfe, 0x0e, 0xe5, 0x07, 0x01,
  0xf0, 0xff, 0xf1, 0xf8, 0xef, 0x2f, 0xf8, 0x16, 0x12, 0x1f, 0x07, 0xfa, 0xfa, 0xfa, 0x05, 0xf7,
  0xff, 0x09, 0xef, 0xfd, 0xd1, 0xdf, 0xf8, 0xf9, 0xab, 0xe7, 0x10, 0x03, 0x05, 0x04, 0x04, 0x13,
  0xeb, 0x09, 0x1a, 0x00, 0xee, 0xee, 0xec, 0xfa, 0x20, 0xff, 0x37, 0x00, 0xff, 0xf5, 0xf0, 0x12,
  0x2e, 0x17, 0x13, 0x1a, 0xef, 0x0d, 0xec, 0x20, 0xc1, 0xf0, 0xe9, 0xf9, 0xe8, 0x03, 0x01, 0xeb,
  0xe4, 0x0e, 0x22, 0x0a, 0x0a, 0x2a, 0x18, 0xf1, 0x10, 0xe3, 0xf6, 0x0f, 0x1b, 0xfb, 0xf9, 0xeb,
  0x08, 0x09, 0x12, 0xec, 0x08, 0x01, 0x2c, 0x15, 0x0f, 0x01, 0x0c, 0xef, 0xeb, 0xd5, 0x22, 0x1c,
  0x18, 0x16, 0xe5, 0x1c, 0xe6, 0x3e, 0x17, 0xf8, 0xfa, 0xe1, 0x14, 0x05, 0x0e, 0x21, 0x0f, 0x15,
  0x07, 0x1c, 0x24, 0xda, 0x1c, 0xfd, 0xf6, 0xf1, 0x0e, 0x01, 0x04, 0x61, 0x1b, 0xe4, 0x23, 0xdc,
  0x3a, 0xfa, 0xef, 0x64, 0x07, 0x03, 0x24, 0x06, 0x24, 0xee, 0xf4, 0x1c, 0xe1, 0xef, 0xf9, 0x03,
  0xe9, 0x10, 0xff, 0x36, 0x66, 0x01, 0x0a, 0x0b, 0x09, 0xfb, 0x13, 0x26, 0xb9, 0xea, 0x11, 0xdd,
  0x05, 0x0e, 0x18, 0xd7, 0xfb, 0xe3, 0x0c, 0x13, 0xf1, 0x57, 0x16, 0xea, 0xeb, 0xf9, 0x07, 0xe8,
  0x03, 0x0c, 0xc6, 0xb6, 0xe7, 0x1a, 0xf8, 0xd5, 0xf8, 0xf1, 0x0e, 0x35, 0x09, 0x0f, 0x2d, 0xf5,
  0x1b, 0x16, 0x12, 0x13, 0xf1, 0xc8, 0xd9, 0xee, 0x26, 0x1b, 0xf1, 0x0a, 0xed, 0x16, 0xfe, 0x07,
  0x07, 0xea, 0xa8, 0x01, 0x1c, 0xe5, 0x05, 0xee, 0x1f, 0x03, 0xea, 0x09, 0x0d, 0xc0, 0x14, 0x0a,
  0x21, 0x0c, 0xf9, 0xf7, 0x21, 0x03, 0xca, 0xf6, 0xf4, 0x01, 0x12, 0xf8, 0x2d, 0xff, 0xf7, 0xd3,
  0x26, 0x81, 0xe6, 0x05, 0x49, 0x10, 0xe6, 0xea, 0x15, 0x0d, 0x0a, 0x04, 0xdc, 0x30, 0xf9, 0x07,
  0xf8, 0xf5, 0x26, 0xcd, 0xfe, 0x20, 0xe2, 0xf7, 0xf6, 0xe7, 0xf7, 0x1a, 0xf5, 0x1f, 0x19, 0xc0,
  0xf8, 0xec, 0x13, 0xfc, 0xf7, 0xee, 0xf9, 0xaa, 0xb2, 0xfc, 0xff, 0xff, 0x04, 0x00, 0x00, 0x00,
  0x40, 0x00, 0x00, 0x00, 0xa9, 0xfd, 0xff, 0xff, 0x5a, 0x01, 0x00, 0x00, 0x94, 0x02, 0x00, 0x00,
  0x89, 0xff, 0xff, 0xff, 0xf8, 0xfe, 0xff, 0xff, 0x0a, 0xfa, 0xff, 0xff, 0x9e, 0x01, 0x00, 0x00,
  0x01, 0xff, 0xff, 0xff, 0xc7, 0x02, 0x00, 0x00, 0xf5, 0xff, 0xff, 0xff, 0x1c, 0xff, 0xff, 0xff,
  0x8b, 0xff, 0xff, 0xff, 0x21, 0x00, 0x00, 0x00, 0x7c, 0x02, 0x00, 0x00, 0x27, 0xff, 0xff, 0xff,
  0xa6, 0x06, 0x00, 0x00, 0xfe, 0xfc, 0xff, 0xff, 0x04, 0x00, 0x00, 0x00, 0x40, 0x02, 0x00, 0x00,
  0xfe, 0xf7, 0xf1, 0xfa, 0x06, 0xfe, 0xeb, 0x1c, 0xe1, 0x0d, 0x05, 0x11, 0x09, 0xf0, 0x13, 0xef,
  0x03, 0x2b, 0x1c, 0x09, 0xa9, 0x09, 0xfc, 0xfb, 0xdf, 0x1e, 0x17, 0xf5, 0xed, 0x08, 0xe9, 0x24,
  0xfa, 0x1c, 0xfe, 0xf4, 0x04, 0xfa, 0xfa, 0xdf, 0xf6, 0x08, 0x2c, 0xd8, 0x1d, 0x0a, 0x16, 0x03,
  0xb6, 0xfe, 0x37, 0xd8, 0x0e, 0xf5, 0xe1, 0xf6, 0xeb, 0x02, 0x01, 0x0e, 0xfa, 0x2f, 0x07, 0xc2,
  0xc2, 0x0b, 0xe9, 0xde, 0x81, 0x28, 0x15, 0x09, 0x2c, 0x05, 0x2c, 0x30, 0x0d, 0xee, 0x18, 0x2a,
  0xfe, 0x1d, 0xd2, 0x1c, 0x0a, 0xee, 0xf0, 0x16, 0xfa, 0xd5, 0x2c, 0x10, 0x15, 0x1a, 0x0f, 0xed,
  0x27, 0xf4, 0xff, 0xfc, 0x07, 0x0b, 0xf7, 0x11, 0x11, 0xf0, 0xe5, 0x21, 0x1e, 0x06, 0xe4, 0x28,
  0x1f, 0xf1, 0xef, 0xf5, 0xed, 0x02, 0x43, 0xf7, 0x21, 0x02, 0x06, 0x0d, 0xdb, 0xe9, 0xf3, 0xec,
  0xf1, 0xdd, 0x1e, 0x0c, 0xf6, 0xfb, 0x0b, 0x1c, 0xe9, 0x1d, 0x00, 0x06, 0x03, 0xe1, 0x0a, 0x00,
  0x04, 0x0b, 0xf5, 0x1e, 0xff, 0x15, 0x0b, 0xf1, 0x07, 0xfd, 0x16, 0xff, 0x15, 0xfa, 0xe7, 0xf1,
  0xfe, 0x03, 0x0f, 0x04, 0x20, 0x13, 0x05, 0xe9, 0x15, 0xdf, 0x01, 0xfa, 0xe7, 0x0e, 0xff, 0x01,
  0x06, 0x23, 0xf5, 0x14, 0x07, 0x0e, 0xfb, 0x06, 0x00, 0x0b, 0xff, 0x11, 0xf3, 0xee, 0x1c, 0x05,
  0xed, 0xf9, 0x1d, 0x0f, 0xe7, 0xdf, 0xee, 0x17, 0x18, 0x0e, 0xe8, 0xf5, 0x1e, 0x0c, 0x15, 0xe5,
  0xb0, 0xfc, 0x18, 0xe2, 0x7f, 0xfd, 0x03, 0xed, 0x00, 0xef, 0x18, 0x05, 0x01, 0x1d, 0x0b, 0x09,
  0xfd, 0x12, 0xd1, 0x18, 0xf5, 0xe7, 0xe6, 0x18, 0x02, 0xf3, 0x1d, 0x16, 0xf9, 0x04, 0xfd, 0xf6,
  0x0a, 0xe7, 0xfd, 0xf2, 0x00, 0x1e, 0xe9, 0xfc, 0xf3, 0xfb, 0xf4, 0xfb, 0x09, 0x08, 0xe9, 0x12,
  0x2a, 0xe5, 0xe4, 0x07, 0x03, 0x14, 0x1e, 0xe8, 0x0b, 0x27, 0x19, 0xeb, 0x10, 0x0e, 0xf2, 0x14,
  0xfb, 0xec, 0x12, 0xeb, 0x01, 0x15, 0x15, 0x16, 0xed, 0x17, 0x15, 0x06, 0xf6, 0xf6, 0xf0, 0x04,
  0xfd, 0xf1, 0xe9, 0x02, 0x00, 0xed, 0x0a, 0x0d, 0x19, 0xf5, 0xf3, 0x04, 0xf4, 0xf4, 0x0e, 0x0d,
  0xfe, 0x12, 0x01, 0x0e, 0xf8, 0x00, 0x02, 0xfe, 0x16, 0x05, 0xf0, 0xf7, 0x01, 0xef, 0x0d, 0x27,
  0xfa, 0x1b, 0x14, 0x06, 0xfa, 0x07, 0xf2, 0xf0, 0x0a, 0x10, 0x05, 0xf7, 0x0d, 0xe6, 0xf6, 0x02,
  0x24, 0xf1, 0x21, 0x02, 0x0f, 0x16, 0xeb, 0x02, 0xf1, 0xfc, 0xf6, 0x1a, 0x05, 0x19, 0x13, 0xd0,
  0x19, 0x15, 0xfc, 0x07, 0x81, 0x10, 0x21, 0x1c, 0xfd, 0xed, 0xf5, 0x12, 0x15, 0x25, 0x19, 0x0d,
  0xfe, 0xf7, 0xe3, 0xf0, 0x06, 0x0e, 0xfd, 0xfe, 0x09, 0x01, 0x0d, 0xf0, 0xf0, 0x09, 0x01, 0xe7,
  0xde, 0xec, 0x0a, 0x05, 0x04, 0xe8, 0xe0, 0x11, 0x15, 0xf2, 0x16, 0xfe, 0x03, 0xec, 0x18, 0x07,
  0xe3, 0x03, 0xec, 0xe6, 0xeb, 0x01, 0x16, 0xf8, 0x04, 0x0c, 0xf5, 0xef, 0xe7, 0x09, 0x07, 0xfd,
  0x05, 0xe8, 0x11, 0x0c, 0x04, 0x0d, 0xfe, 0x04, 0x0d, 0x09, 0x17, 0x00, 0xee, 0xf7, 0x15, 0x0a,
  0x03, 0xfb, 0xe5, 0xf3, 0xf8, 0xef, 0x13, 0x14, 0x18, 0xeb, 0xe4, 0x11, 0xf4, 0xdd, 0x03, 0xfd,
  0xfb, 0xee, 0x07, 0x14, 0x27, 0xe0, 0x06, 0xde, 0xec, 0xf7, 0xfc, 0x1e, 0x22, 0xf3, 0x1b, 0x30,
  0x00, 0x28, 0x07, 0x09, 0xff, 0xef, 0xff, 0x09, 0x02, 0x07, 0x0b, 0x1a, 0x15, 0xf9, 0x1a, 0x0d,
  0x17, 0x12, 0x17, 0x23, 0xec, 0xd7, 0x00, 0x1b, 0x27, 0x0b, 0x1c, 0x15, 0xfb, 0x12, 0x15, 0xc5,
  0x3f, 0xf8, 0x3e, 0xe8, 0x7f, 0xfa, 0x11, 0x1f, 0x0e, 0x14, 0x24, 0x1f, 0xd6, 0x28, 0xea, 0xec,
  0xfb, 0x26, 0xa6, 0x0f, 0xf6, 0xe7, 0xe9, 0xed, 0x14, 0xfa, 0xf9, 0x06, 0x06, 0x35, 0x19, 0xee,
  0xee, 0xec, 0x11, 0x1c, 0xfb, 0x0c, 0xe9, 0xe0, 0xef, 0xd7, 0xf3, 0xf8, 0x19, 0xf0, 0x23, 0x14,
  0x9e, 0xe1, 0xe5, 0x07, 0x33, 0x1f, 0x14, 0xfc, 0xf3, 0x25, 0xfa, 0x26, 0xe5, 0x0e, 0x06, 0xf8,
  0xfc, 0x15, 0x1c, 0xeb, 0x08, 0xfc, 0xe6, 0xe7, 0xe9, 0x01, 0x16, 0xec, 0xf9, 0xff, 0xe0, 0x10,
  0x4a, 0xff, 0xff, 0xff, 0x04, 0x00, 0x00, 0x00, 0x10, 0x00, 0x00, 0x00, 0x65, 0x00, 0x00, 0x00,
  0x17, 0x00, 0x00, 0x00, 0x7f, 0x00, 0x00, 0x00, 0x83, 0xff, 0xff, 0xff, 0xfc, 0xff, 0xff, 0xff,
  0x04, 0x00, 0x04, 0x00, 0x04, 0x00, 0x00, 0x00, 0x0f, 0x00, 0x00, 0x00, 0x4d, 0x4c, 0x49, 0x52,
  0x20, 0x43, 0x6f, 0x6e, 0x76, 0x65, 0x72, 0x74, 0x65, 0x64, 0x2e, 0x00, 0x01, 0x00, 0x00, 0x00,
  0x14, 0x00, 0x00, 0x00, 0x00, 0x00, 0x0e, 0x00, 0x18, 0x00, 0x14, 0x00, 0x10, 0x00, 0x0c, 0x00,
  0x08, 0x00, 0x04, 0x00, 0x0e, 0x00, 0x00, 0x00, 0x14, 0x00, 0x00, 0x00, 0x1c, 0x00, 0x00, 0x00,
  0x5c, 0x01, 0x00, 0x00, 0x60, 0x01, 0x00, 0x00, 0x64, 0x01, 0x00, 0x00, 0x04, 0x00, 0x00, 0x00,
  0x6d, 0x61, 0x69, 0x6e, 0x00, 0x00, 0x00, 0x00, 0x04, 0x00, 0x00, 0x00, 0xf8, 0x00, 0x00, 0x00,
  0xa8, 0x00, 0x00, 0x00, 0x60, 0x00, 0x00, 0x00, 0x14, 0x00, 0x00, 0x00, 0x00, 0x00, 0x0e, 0x00,
  0x1a, 0x00, 0x14, 0x00, 0x10, 0x00, 0x0c, 0x00, 0x0b, 0x00, 0x04, 0x00, 0x0e, 0x00, 0x00, 0x00,
  0x1c, 0x00, 0x00, 0x00, 0x00, 0x00, 0x00, 0x5e, 0x1c, 0x00, 0x00, 0x00, 0x20, 0x00, 0x00, 0x00,
  0x01, 0x00, 0x00, 0x00, 0x00, 0x00, 0x06, 0x00, 0x08, 0x00, 0x04, 0x00, 0x06, 0x00, 0x00, 0x00,
  0x02, 0x00, 0x00, 0x00, 0x01, 0x00, 0x00, 0x00, 0x0a, 0x00, 0x00, 0x00, 0x01, 0x00, 0x00, 0x00,
  0x09, 0x00, 0x00, 0x00, 0x00, 0x00, 0x0e, 0x00, 0x16, 0x00, 0x00, 0x00, 0x10, 0x00, 0x0c, 0x00,
  0x0b, 0x00, 0x04, 0x00, 0x0e, 0x00, 0x00, 0x00, 0x1c, 0x00, 0x00, 0x00, 0x00, 0x00, 0x00, 0x01,
  0x20, 0x00, 0x00, 0x00, 0x24, 0x00, 0x00, 0x00, 0x00, 0x00, 0x0a, 0x00, 0x0c, 0x00, 0x00, 0x00,
  0x08, 0x00, 0x04, 0x00, 0x0a, 0x00, 0x00, 0x00, 0x01, 0x00, 0x00, 0x00, 0x01, 0x00, 0x00, 0x00,
  0x01, 0x00, 0x00, 0x00, 0x09, 0x00, 0x00, 0x00, 0x03, 0x00, 0x00, 0x00, 0x08, 0x00, 0x00, 0x00,
  0x02, 0x00, 0x00, 0x00, 0x01, 0x00, 0x00, 0x00, 0xc2, 0xff, 0xff, 0xff, 0x10, 0x00, 0x00, 0x00,
  0x00, 0x00, 0x00, 0x01, 0x18, 0x00, 0x00, 0x00, 0x1c, 0x00, 0x00, 0x00, 0xb4, 0xff, 0xff, 0xff,
  0x00, 0x00, 0x00, 0x01, 0x01, 0x00, 0x00, 0x00, 0x01, 0x00, 0x00, 0x00, 0x01, 0x00, 0x00, 0x00,
  0x08, 0x00, 0x00, 0x00, 0x03, 0x00, 0x00, 0x00, 0x07, 0x00, 0x00, 0x00, 0x04, 0x00, 0x00, 0x00,
  0x03, 0x00, 0x00, 0x00, 0x00, 0x00, 0x0e, 0x00, 0x14, 0x00, 0x00, 0x00, 0x10, 0x00, 0x0c, 0x00,
  0x0b, 0x00, 0x04, 0x00, 0x0e, 0x00, 0x00, 0x00, 0x1c, 0x00, 0x00, 0x00, 0x00, 0x00, 0x00, 0x01,
  0x24, 0x00, 0x00, 0x00, 0x28, 0x00, 0x00, 0x00, 0x0c, 0x00, 0x10, 0x00, 0x00, 0x00, 0x0c, 0x00,
  0x08, 0x00, 0x07, 0x00, 0x0c, 0x00, 0x00, 0x00, 0x00, 0x00, 0x00, 0x01, 0x01, 0x00, 0x00, 0x00,
  0x01, 0x00, 0x00, 0x00, 0x01, 0x00, 0x00, 0x00, 0x07, 0x00, 0x00, 0x00, 0x03, 0x00, 0x00, 0x00,
  0x00, 0x00, 0x00, 0x00, 0x06, 0x00, 0x00, 0x00, 0x05, 0x00, 0x00, 0x00, 0x01, 0x00, 0x00, 0x00,
  0x0a, 0x00, 0x00, 0x00, 0x01, 0x00, 0x00, 0x00, 0x00, 0x00, 0x00, 0x00, 0x0b, 0x00, 0x00, 0x00,
  0xc0, 0x0b, 0x00, 0x00, 0xd8, 0x0a, 0x00, 0x00, 0x1c, 0x0a, 0x00, 0x00, 0xa0, 0x08, 0x00, 0x00,
  0x6c, 0x07, 0x00, 0x00, 0x30, 0x05, 0x00, 0x00, 0x3c, 0x03, 0x00, 0x00, 0x50, 0x02, 0x00, 0x00,
  0x64, 0x01, 0x00, 0x00, 0x90, 0x00, 0x00, 0x00, 0x04, 0x00, 0x00, 0x00, 0x82, 0xf4, 0xff, 0xff,
  0x00, 0x00, 0x00, 0x01, 0x18, 0x00, 0x00, 0x00, 0x28, 0x00, 0x00, 0x00, 0x44, 0x00, 0x00, 0x00,
  0x0b, 0x00, 0x00, 0x00, 0x00, 0x00, 0x00, 0x09, 0x58, 0x00, 0x00, 0x00, 0x04, 0x00, 0x00, 0x00,
  0xff, 0xff, 0xff, 0xff, 0x30, 0x00, 0x00, 0x00, 0x40, 0x00, 0x00, 0x00, 0x01, 0x00, 0x00, 0x00,
  0x6c, 0xf4, 0xff, 0xff, 0x08, 0x00, 0x00, 0x00, 0x10, 0x00, 0x00, 0x00, 0x01, 0x00, 0x00, 0x00,
  0x81, 0xff, 0xff, 0xff, 0xff, 0xff, 0xff, 0xff, 0x01, 0x00, 0x00, 0x00, 0x02, 0x55, 0x87, 0x3b,
  0x1b, 0x00, 0x00, 0x00, 0x53, 0x74, 0x61, 0x74, 0x65, 0x66, 0x75, 0x6c, 0x50, 0x61, 0x72, 0x74,
  0x69, 0x74, 0x69, 0x6f, 0x6e, 0x65, 0x64, 0x43, 0x61, 0x6c, 0x6c, 0x5f, 0x31, 0x3a, 0x30, 0x00,
  0x04, 0x00, 0x00, 0x00, 0x01, 0x00, 0x00, 0x00, 0x30, 0x00, 0x00, 0x00, 0x40, 0x00, 0x00, 0x00,
  0x01, 0x00, 0x00, 0x00, 0x0a, 0xf5, 0xff, 0xff, 0x00, 0x00, 0x00, 0x01, 0x18, 0x00, 0x00, 0x00,
  0x28, 0x00, 0x00, 0x00, 0x48, 0x00, 0x00, 0x00, 0x0a, 0x00, 0x00, 0x00, 0x00, 0x00, 0x00, 0x09,
  0xa0, 0x00, 0x00, 0x00, 0x04, 0x00, 0x00, 0x00, 0xff, 0xff, 0xff, 0xff, 0x18, 0x00, 0x00, 0x00,
  0x20, 0x00, 0x00, 0x00, 0x04, 0x00, 0x00, 0x00, 0xf4, 0xf4, 0xff, 0xff, 0x08, 0x00, 0x00, 0x00,
  0x14, 0x00, 0x00, 0x00, 0x01, 0x00, 0x00, 0x00, 0x81, 0xff, 0xff, 0xff, 0xff, 0xff, 0xff, 0xff,
  0x00, 0x00, 0x00, 0x00, 0x01, 0x00, 0x00, 0x00, 0x02, 0x55, 0x87, 0x3b, 0x5e, 0x00, 0x00, 0x00,
  0x65, 0x73, 0x70, 0x63, 0x6e, 0x5f, 0x6c, 0x69, 0x67, 0x68, 0x74, 0x5f, 0x31, 0x2f, 0x63, 0x6f,
  0x6e, 0x76, 0x33, 0x5f, 0x31, 0x2f, 0x42, 0x69, 0x61, 0x73, 0x41, 0x64, 0x64, 0x3b, 0x65, 0x73,
  0x70, 0x63, 0x6e, 0x5f, 0x6c, 0x69, 0x67, 0x68, 0x74, 0x5f, 0x31, 0x2f, 0x63, 0x6f, 0x6e, 0x76,
  0x33, 0x5f, 0x31, 0x2f, 0x63, 0x6f, 0x6e, 0x76, 0x6f, 0x6c, 0x75, 0x74, 0x69, 0x6f, 0x6e, 0x3b,
  0x65, 0x73, 0x70, 0x63, 0x6e, 0x5f, 0x6c, 0x69, 0x67, 0x68, 0x74, 0x5f, 0x31, 0x2f, 0x63, 0x6f,
  0x6e, 0x76, 0x33, 0x5f, 0x31, 0x2f, 0x53, 0x71, 0x75, 0x65, 0x65, 0x7a, 0x65, 0x31, 0x00, 0x00,
  0x04, 0x00, 0x00, 0x00, 0x01, 0x00, 0x00, 0x00, 0x18, 0x00, 0x00, 0x00, 0x20, 0x00, 0x00, 0x00,
  0x04, 0x00, 0x00, 0x00, 0xda, 0xf5, 0xff, 0xff, 0x00, 0x00, 0x00, 0x01, 0x18, 0x00, 0x00, 0x00,
  0x28, 0x00, 0x00, 0x00, 0x44, 0x00, 0x00, 0x00, 0x09, 0x00, 0x00, 0x00, 0x00, 0x00, 0x00, 0x09,
  0xb8, 0x00, 0x00, 0x00, 0x04, 0x00, 0x00, 0x00, 0xff, 0xff, 0xff, 0xff, 0x18, 0x00, 0x00, 0x00,
  0x20, 0x00, 0x00, 0x00, 0x10, 0x00, 0x00, 0x00, 0xc4, 0xf5, 0xff, 0xff, 0x08, 0x00, 0x00, 0x00,
  0x10, 0x00, 0x00, 0x00, 0x01, 0x00, 0x00, 0x00, 0x80, 0xff, 0xff, 0xff, 0xff, 0xff, 0xff, 0xff,
  0x01, 0x00, 0x00, 0x00, 0x40, 0x9f, 0x99, 0x3b, 0x79, 0x00, 0x00, 0x00, 0x65, 0x73, 0x70, 0x63,
  0x6e, 0x5f, 0x6c, 0x69, 0x67, 0x68, 0x74, 0x5f, 0x31, 0x2f, 0x63, 0x6f, 0x6e, 0x76, 0x32, 0x5f,
  0x31, 0x2f, 0x52, 0x65, 0x6c, 0x75, 0x3b, 0x65, 0x73, 0x70, 0x63, 0x6e, 0x5f, 0x6c, 0x69, 0x67,
  0x68, 0x74, 0x5f, 0x31, 0x2f, 0x63, 0x6f, 0x6e, 0x76, 0x32, 0x5f, 0x31, 0x2f, 0x42, 0x69, 0x61,
  0x73, 0x41, 0x64, 0x64, 0x3b, 0x65, 0x73, 0x70, 0x63, 0x6e, 0x5f, 0x6c, 0x69, 0x67, 0x68, 0x74,
  0x5f, 0x31, 0x2f, 0x63, 0x6f, 0x6e, 0x76, 0x32, 0x5f, 0x31, 0x2f, 0x63, 0x6f, 0x6e, 0x76, 0x6f,
  0x6c, 0x75, 0x74, 0x69, 0x6f, 0x6e, 0x3b, 0x65, 0x73, 0x70, 0x63, 0x6e, 0x5f, 0x6c, 0x69, 0x67,
  0x68, 0x74, 0x5f, 0x31, 0x2f, 0x63, 0x6f, 0x6e, 0x76, 0x32, 0x5f, 0x31, 0x2f, 0x53, 0x71, 0x75,
  0x65, 0x65, 0x7a, 0x65, 0x31, 0x00, 0x00, 0x00, 0x04, 0x00, 0x00, 0x00, 0x01, 0x00, 0x00, 0x00,
  0x18, 0x00, 0x00, 0x00, 0x20, 0x00, 0x00, 0x00, 0x10, 0x00, 0x00, 0x00, 0xc2, 0xf6, 0xff, 0xff,
  0x00, 0x00, 0x00, 0x01, 0x18, 0x00, 0x00, 0x00, 0x28, 0x00, 0x00, 0x00, 0x44, 0x00, 0x00, 0x00,
  0x08, 0x00, 0x00, 0x00, 0x00, 0x00, 0x00, 0x09, 0xb8, 0x00, 0x00, 0x00, 0x04, 0x00, 0x00, 0x00,
  0xff, 0xff, 0xff, 0xff, 0x18, 0x00, 0x00, 0x00, 0x20, 0x00, 0x00, 0x00, 0x20, 0x00, 0x00, 0x00,
  0xac, 0xf6, 0xff, 0xff, 0x08, 0x00, 0x00, 0x00, 0x10, 0x00, 0x00, 0x00, 0x01, 0x00, 0x00, 0x00,
  0x80, 0xff, 0xff, 0xff, 0xff, 0xff, 0xff, 0xff, 0x01, 0x00, 0x00, 0x00, 0xe0, 0x24, 0x1c, 0x3b,
  0x79, 0x00, 0x00, 0x00, 0x65, 0x73, 0x70, 0x63, 0x6e, 0x5f, 0x6c, 0x69, 0x67, 0x68, 0x74, 0x5f,
  0x31, 0x2f, 0x63, 0x6f, 0x6e, 0x76, 0x31, 0x5f, 0x31, 0x2f, 0x52, 0x65, 0x6c, 0x75, 0x3b, 0x65,
  0x73, 0x70, 0x63, 0x6e, 0x5f, 0x6c, 0x69, 0x67, 0x68, 0x74, 0x5f, 0x31, 0x2f, 0x63, 0x6f, 0x6e,
  0x76, 0x31, 0x5f, 0x31, 0x2f, 0x42, 0x69, 0x61, 0x73, 0x41, 0x64, 0x64, 0x3b, 0x65, 0x73, 0x70,
  0x63, 0x6e, 0x5f, 0x6c, 0x69, 0x67, 0x68, 0x74, 0x5f, 0x31, 0x2f, 0x63, 0x6f, 0x6e, 0x76, 0x31,
  0x5f, 0x31, 0x2f, 0x63, 0x6f, 0x6e, 0x76, 0x6f, 0x6c, 0x75, 0x74, 0x69, 0x6f, 0x6e, 0x3b, 0x65,
  0x73, 0x70, 0x63, 0x6e, 0x5f, 0x6c, 0x69, 0x67, 0x68, 0x74, 0x5f, 0x31, 0x2f, 0x63, 0x6f, 0x6e,
  0x76, 0x31, 0x5f, 0x31, 0x2f, 0x53, 0x71, 0x75, 0x65, 0x65, 0x7a, 0x65, 0x31, 0x00, 0x00, 0x00,
  0x04, 0x00, 0x00, 0x00, 0x01, 0x00, 0x00, 0x00, 0x18, 0x00, 0x00, 0x00, 0x20, 0x00, 0x00, 0x00,
  0x20, 0x00, 0x00, 0x00, 0x8e, 0xf8, 0xff, 0xff, 0x00, 0x00, 0x00, 0x01, 0x14, 0x00, 0x00, 0x00,
  0xa8, 0x01, 0x00, 0x00, 0x07, 0x00, 0x00, 0x00, 0x00, 0x00, 0x00, 0x09, 0xc4, 0x01, 0x00, 0x00,
  0x7c, 0xf7, 0xff, 0xff, 0x08, 0x00, 0x00, 0x00, 0x0c, 0x01, 0x00, 0x00, 0x20, 0x00, 0x00, 0x00,
  0x00, 0x00, 0x00, 0x00, 0x00, 0x00, 0x00, 0x00, 0x00, 0x00, 0x00, 0x00, 0x00, 0x00, 0x00, 0x00,
  0x00, 0x00, 0x00, 0x00, 0x00, 0x00, 0x00, 0x00, 0x00, 0x00, 0x00, 0x00, 0x00, 0x00, 0x00, 0x00,
  0x00, 0x00, 0x00, 0x00, 0x00, 0x00, 0x00, 0x00, 0x00, 0x00, 0x00, 0x00, 0x00, 0x00, 0x00, 0x00,
  0x00, 0x00, 0x00, 0x00, 0x00, 0x00, 0x00, 0x00, 0x00, 0x00, 0x00, 0x00, 0x00, 0x00, 0x00, 0x00,
  0x00, 0x00, 0x00, 0x00, 0x00, 0x00, 0x00, 0x00, 0x00, 0x00, 0x00, 0x00, 0x00, 0x00, 0x00, 0x00,
  0x00, 0x00, 0x00, 0x00, 0x00, 0x00, 0x00, 0x00, 0x00, 0x00, 0x00, 0x00, 0x00, 0x00, 0x00, 0x00,
  0x00, 0x00, 0x00, 0x00, 0x00, 0x00, 0x00, 0x00, 0x00, 0x00, 0x00, 0x00, 0x00, 0x00, 0x00, 0x00,
  0x00, 0x00, 0x00, 0x00, 0x00, 0x00, 0x00, 0x00, 0x00, 0x00, 0x00, 0x00, 0x00, 0x00, 0x00, 0x00,
  0x00, 0x00, 0x00, 0x00, 0x00, 0x00, 0x00, 0x00, 0x00, 0x00, 0x00, 0x00, 0x00, 0x00, 0x00, 0x00,
  0x00, 0x00, 0x00, 0x00, 0x00, 0x00, 0x00, 0x00, 0x00, 0x00, 0x00, 0x00, 0x00, 0x00, 0x00, 0x00,
  0x00, 0x00, 0x00, 0x00, 0x00, 0x00, 0x00, 0x00, 0x00, 0x00, 0x00, 0x00, 0x00, 0x00, 0x00, 0x00,
  0x00, 0x00, 0x00, 0x00, 0x00, 0x00, 0x00, 0x00, 0x00, 0x00, 0x00, 0x00, 0x00, 0x00, 0x00, 0x00,
  0x00, 0x00, 0x00, 0x00, 0x00, 0x00, 0x00, 0x00, 0x00, 0x00, 0x00, 0x00, 0x00, 0x00, 0x00, 0x00,
  0x00, 0x00, 0x00, 0x00, 0x00, 0x00, 0x00, 0x00, 0x00, 0x00, 0x00, 0x00, 0x00, 0x00, 0x00, 0x00,
  0x00, 0x00, 0x00, 0x00, 0x00, 0x00, 0x00, 0x00, 0x00, 0x00, 0x00, 0x00, 0x00, 0x00, 0x00, 0x00,
  0x00, 0x00, 0x00, 0x00, 0x00, 0x00, 0x00, 0x00, 0x00, 0x00, 0x00, 0x00, 0x00, 0x00, 0x00, 0x00,
  0x00, 0x00, 0x00, 0x00, 0x20, 0x00, 0x00, 0x00, 0xe5, 0x75, 0x8d, 0x3b, 0xb3, 0xf8, 0x12, 0x3a,
  0x93, 0x1c, 0x82, 0x3a, 0xe7, 0x24, 0x51, 0x3b, 0xd6, 0x97, 0xdf, 0x3a, 0x2c, 0x50, 0x5f, 0x3a,
  0x14, 0x9d, 0xcd, 0x39, 0xc2, 0x2b, 0x20, 0x3a, 0x7e, 0x19, 0x81, 0x3a, 0xf9, 0x27, 0x4d, 0x3a,
  0xd6, 0xc6, 0x56, 0x3a, 0x89, 0xdb, 0x76, 0x3b, 0xf0, 0x26, 0x56, 0x3a, 0xb7, 0xb9, 0x34, 0x3b,
  0x6a, 0xfb, 0xc7, 0x3a, 0x9c, 0x44, 0x27, 0x3a, 0xca, 0xe8, 0x32, 0x3c, 0x16, 0x61, 0x87, 0x3b,
  0x89, 0x9d, 0x14, 0x3a, 0x26, 0xd8, 0x17, 0x3a, 0x96, 0x26, 0x92, 0x3a, 0xdc, 0xc3, 0x38, 0x3a,
  0x5d, 0x84, 0x20, 0x3a, 0x86, 0xa9, 0x3b, 0x3a, 0x18, 0x9f, 0x77, 0x3a, 0xc3, 0xd9, 0x40, 0x3b,
  0x72, 0xe8, 0x07, 0x3c, 0x34, 0x32, 0x04, 0x3b, 0x54, 0x7e, 0x65, 0x3b, 0x82, 0x35, 0x54, 0x3a,
  0x8d, 0x18, 0x6c, 0x3a, 0x43, 0x3c, 0x8b, 0x3a, 0x21, 0x00, 0x00, 0x00, 0x65, 0x73, 0x70, 0x63,
  0x6e, 0x5f, 0x6c, 0x69, 0x67, 0x68, 0x74, 0x5f, 0x31, 0x2f, 0x63, 0x6f, 0x6e, 0x76, 0x31, 0x5f,
  0x31, 0x2f, 0x63, 0x6f, 0x6e, 0x76, 0x6f, 0x6c, 0x75, 0x74, 0x69, 0x6f, 0x6e, 0x00, 0x00, 0x00,
  0x04, 0x00, 0x00, 0x00, 0x20, 0x00, 0x00, 0x00, 0x05, 0x00, 0x00, 0x00, 0x05, 0x00, 0x00, 0x00,
  0x01, 0x00, 0x00, 0x00, 0x7e, 0xfa, 0xff, 0xff, 0x00, 0x00, 0x00, 0x01, 0x14, 0x00, 0x00, 0x00,
  0xa4, 0x01, 0x00, 0x00, 0x06, 0x00, 0x00, 0x00, 0x00, 0x00, 0x00, 0x02, 0x18, 0x02, 0x00, 0x00,
  0x6c, 0xf9, 0xff, 0xff, 0x08, 0x00, 0x00, 0x00, 0x08, 0x01, 0x00, 0x00, 0x20, 0x00, 0x00, 0x00,
  0x00, 0x00, 0x00, 0x00, 0x00, 0x00, 0x00, 0x00, 0x00, 0x00, 0x00, 0x00, 0x00, 0x00, 0x00, 0x00,
  0x00, 0x00, 0x00, 0x00, 0x00, 0x00, 0x00, 0x00, 0x00, 0x00, 0x00, 0x00, 0x00, 0x00, 0x00, 0x00,
  0x00, 0x00, 0x00, 0x00, 0x00, 0x00, 0x00, 0x00, 0x00, 0x00, 0x00, 0x00, 0x00, 0x00, 0x00, 0x00,
  0x00, 0x00, 0x00, 0x00, 0x00, 0x00, 0x00, 0x00, 0x00, 0x00, 0x00, 0x00, 0x00, 0x00, 0x00, 0x00,
  0x00, 0x00, 0x00, 0x00, 0x00, 0x00, 0x00, 0x00, 0x00, 0x00, 0x00, 0x00, 0x00, 0x00, 0x00, 0x00,
  0x00, 0x00, 0x00, 0x00, 0x00, 0x00, 0x00, 0x00, 0x00, 0x00, 0x00, 0x00, 0x00, 0x00, 0x00, 0x00,
  0x00, 0x00, 0x00, 0x00, 0x00, 0x00, 0x00, 0x00, 0x00, 0x00, 0x00, 0x00, 0x00, 0x00, 0x00, 0x00,
  0x00, 0x00, 0x00, 0x00, 0x00, 0x00, 0x00, 0x00, 0x00, 0x00, 0x00, 0x00, 0x00, 0x00, 0x00, 0x00,
  0x00, 0x00, 0x00, 0x00, 0x00, 0x00, 0x00, 0x00, 0x00, 0x00, 0x00, 0x00, 0x00, 0x00, 0x00, 0x00,
  0x00, 0x00, 0x00, 0x00, 0x00, 0x00, 0x00, 0x00, 0x00, 0x00, 0x00, 0x00, 0x00, 0x00, 0x00, 0x00,
  0x00, 0x00, 0x00, 0x00, 0x00, 0x00, 0x00, 0x00, 0x00, 0x00, 0x00, 0x00, 0x00, 0x00, 0x00, 0x00,
  0x00, 0x00, 0x00, 0x00, 0x00, 0x00, 0x00, 0x00, 0x00, 0x00, 0x00, 0x00, 0x00, 0x00, 0x00, 0x00,
  0x00, 0x00, 0x00, 0x00, 0x00, 0x00, 0x00, 0x00, 0x00, 0x00, 0x00, 0x00, 0x00, 0x00, 0x00, 0x00,
  0x00, 0x00, 0x00, 0x00, 0x00, 0x00, 0x00, 0x00, 0x00, 0x00, 0x00, 0x00, 0x00, 0x00, 0x00, 0x00,
  0x00, 0x00, 0x00, 0x00, 0x00, 0x00, 0x00, 0x00, 0x00, 0x00, 0x00, 0x00, 0x00, 0x00, 0x00, 0x00,
  0x00, 0x00, 0x00, 0x00, 0x00, 0x00, 0x00, 0x00, 0x00, 0x00, 0x00, 0x00, 0x00, 0x00, 0x00, 0x00,
  0x20, 0x00, 0x00, 0x00, 0x79, 0xc6, 0x86, 0x37, 0x9b, 0x06, 0x0c, 0x36, 0xe8, 0xec, 0x77, 0x36,
  0xa1, 0x42, 0x47, 0x37, 0xc1, 0x06, 0xd5, 0x36, 0x7a, 0xc2, 0x54, 0x36, 0x84, 0xe5, 0xc3, 0x35,
  0xf9, 0x99, 0x18, 0x36, 0x3b, 0xff, 0x75, 0x36, 0xf2, 0x75, 0x43, 0x36, 0x6b, 0xa0, 0x4c, 0x36,
  0xfe, 0x30, 0x6b, 0x37, 0x13, 0x08, 0x4c, 0x36, 0x41, 0x2f, 0x2c, 0x37, 0xfc, 0x87, 0xbe, 0x36,
  0xf6, 0x5c, 0x1f, 0x36, 0x4d, 0x74, 0x2a, 0x38, 0x3c, 0xfb, 0x80, 0x37, 0x8d, 0x97, 0x0d, 0x36,
  0x1a, 0xab, 0x10, 0x36, 0x6c, 0x3e, 0x8b, 0x36, 0x87, 0x08, 0x30, 0x36, 0x64, 0xee, 0x18, 0x36,
  0x24, 0xcb, 0x32, 0x36, 0x50, 0xeb, 0x6b, 0x36, 0x9c, 0xbc, 0x37, 0x37, 0x33, 0x7c, 0x01, 0x38,
  0xba, 0xe5, 0xfb, 0x36, 0xdd, 0xa5, 0x5a, 0x37, 0x27, 0x2e, 0x4a, 0x36, 0x35, 0xf0, 0x60, 0x36,
  0xc2, 0xa7, 0x84, 0x36, 0x78, 0x00, 0x00, 0x00, 0x65, 0x73, 0x70, 0x63, 0x6e, 0x5f, 0x6c, 0x69,
  0x67, 0x68, 0x74, 0x5f, 0x31, 0x2f, 0x63, 0x6f, 0x6e, 0x76, 0x31, 0x5f, 0x31, 0x2f, 0x52, 0x65,
  0x6c, 0x75, 0x3b, 0x65, 0x73, 0x70, 0x63, 0x6e, 0x5f, 0x6c, 0x69, 0x67, 0x68, 0x74, 0x5f, 0x31,
  0x2f, 0x63, 0x6f, 0x6e, 0x76, 0x31, 0x5f, 0x31, 0x2f, 0x42, 0x69, 0x61, 0x73, 0x41, 0x64, 0x64,
  0x3b, 0x65, 0x73, 0x70, 0x63, 0x6e, 0x5f, 0x6c, 0x69, 0x67, 0x68, 0x74, 0x5f, 0x31, 0x2f, 0x63,
  0x6f, 0x6e, 0x76, 0x31, 0x5f, 0x31, 0x2f, 0x63, 0x6f, 0x6e, 0x76, 0x6f, 0x6c, 0x75, 0x74, 0x69,
  0x6f, 0x6e, 0x3b, 0x65, 0x73, 0x70, 0x63, 0x6e, 0x5f, 0x6c, 0x69, 0x67, 0x68, 0x74, 0x5f, 0x31,
  0x2f, 0x63, 0x6f, 0x6e, 0x76, 0x31, 0x5f, 0x31, 0x2f, 0x53, 0x71, 0x75, 0x65, 0x65, 0x7a, 0x65,
  0x00, 0x00, 0x00, 0x00, 0x01, 0x00, 0x00, 0x00, 0x20, 0x00, 0x00, 0x00, 0xb6, 0xfc, 0xff, 0xff,
  0x00, 0x00, 0x00, 0x01, 0x14, 0x00, 0x00, 0x00, 0xe8, 0x00, 0x00, 0x00, 0x05, 0x00, 0x00, 0x00,
  0x00, 0x00, 0x00, 0x09, 0x04, 0x01, 0x00, 0x00, 0xa4, 0xfb, 0xff, 0xff, 0x08, 0x00, 0x00, 0x00,
  0x8c, 0x00, 0x00, 0x00, 0x10, 0x00, 0x00, 0x00, 0x00, 0x00, 0x00, 0x00, 0x00, 0x00, 0x00, 0x00,
  0x00, 0x00, 0x00, 0x00, 0x00, 0x00, 0x00, 0x00, 0x00, 0x00, 0x00, 0x00, 0x00, 0x00, 0x00, 0x00,
  0x00, 0x00, 0x00, 0x00, 0x00, 0x00, 0x00, 0x00, 0x00, 0x00, 0x00, 0x00, 0x00, 0x00, 0x00, 0x00,
  0x00, 0x00, 0x00, 0x00, 0x00, 0x00, 0x00, 0x00, 0x00, 0x00, 0x00, 0x00, 0x00, 0x00, 0x00, 0x00,
  0x00, 0x00, 0x00, 0x00, 0x00, 0x00, 0x00, 0x00, 0x00, 0x00, 0x00, 0x00, 0x00, 0x00, 0x00, 0x00,
  0x00, 0x00, 0x00, 0x00, 0x00, 0x00, 0x00, 0x00, 0x00, 0x00, 0x00, 0x00, 0x00, 0x00, 0x00, 0x00,
  0x00, 0x00, 0x00, 0x00, 0x00, 0x00, 0x00, 0x00, 0x00, 0x00, 0x00, 0x00, 0x00, 0x00, 0x00, 0x00,
  0x00, 0x00, 0x00, 0x00, 0x00, 0x00, 0x00, 0x00, 0x00, 0x00, 0x00, 0x00, 0x00, 0x00, 0x00, 0x00,
  0x00, 0x00, 0x00, 0x00, 0x00, 0x00, 0x00, 0x00, 0x00, 0x00, 0x00, 0x00, 0x10, 0x00, 0x00, 0x00,
  0xdf, 0x12, 0x03, 0x3c, 0x19, 0xe6, 0xab, 0x3b, 0xc9, 0xea, 0x06, 0x3c, 0xff, 0x0d, 0x6c, 0x3b,
  0xcb, 0xd1, 0xf7, 0x3b, 0xb0, 0xab, 0x4d, 0x3b, 0xac, 0xc3, 0x8e, 0x3b, 0x49, 0x15, 0x78, 0x3b,
  0x93, 0xec, 0x5d, 0x3b, 0x56, 0x7f, 0x96, 0x3b, 0xd7, 0xe1, 0x53, 0x3b, 0xd9, 0x86, 0x95, 0x3b,
  0x2a, 0xcd, 0xab, 0x3b, 0xef, 0xa4, 0xa1, 0x3b, 0xdc, 0x18, 0x41, 0x3b, 0xd9, 0xcd, 0xa6, 0x3b,
  0x21, 0x00, 0x00, 0x00, 0x65, 0x73, 0x70, 0x63, 0x6e, 0x5f, 0x6c, 0x69, 0x67, 0x68, 0x74, 0x5f,
  0x31, 0x2f, 0x63, 0x6f, 0x6e, 0x76, 0x32, 0x5f, 0x31, 0x2f, 0x63, 0x6f, 0x6e, 0x76, 0x6f, 0x6c,
  0x75, 0x74, 0x69, 0x6f, 0x6e, 0x00, 0x00, 0x00, 0x04, 0x00, 0x00, 0x00, 0x10, 0x00, 0x00, 0x00,
  0x03, 0x00, 0x00, 0x00, 0x03, 0x00, 0x00, 0x00, 0x20, 0x00, 0x00, 0x00, 0xe6, 0xfd, 0xff, 0xff,
  0x00, 0x00, 0x00, 0x01, 0x14, 0x00, 0x00, 0x00, 0xe4, 0x00, 0x00, 0x00, 0x04, 0x00, 0x00, 0x00,
  0x00, 0x00, 0x00, 0x02, 0x58, 0x01, 0x00, 0x00, 0xd4, 0xfc, 0xff, 0xff, 0x08, 0x00, 0x00, 0x00,
  0x88, 0x00, 0x00, 0x00, 0x10, 0x00, 0x00, 0x00, 0x00, 0x00, 0x00, 0x00, 0x00, 0x00, 0x00, 0x00,
  0x00, 0x00, 0x00, 0x00, 0x00, 0x00, 0x00, 0x00, 0x00, 0x00, 0x00, 0x00, 0x00, 0x00, 0x00, 0x00,
  0x00, 0x00, 0x00, 0x00, 0x00, 0x00, 0x00, 0x00, 0x00, 0x00, 0x00, 0x00, 0x00, 0x00, 0x00, 0x00,
  0x00, 0x00, 0x00, 0x00, 0x00, 0x00, 0x00, 0x00, 0x00, 0x00, 0x00, 0x00, 0x00, 0x00, 0x00, 0x00,
  0x00, 0x00, 0x00, 0x00, 0x00, 0x00, 0x00, 0x00, 0x00, 0x00, 0x00, 0x00, 0x00, 0x00, 0x00, 0x00,
  0x00, 0x00, 0x00, 0x00, 0x00, 0x00, 0x00, 0x00, 0x00, 0x00, 0x00, 0x00, 0x00, 0x00, 0x00, 0x00,
  0x00, 0x00, 0x00, 0x00, 0x00, 0x00, 0x00, 0x00, 0x00, 0x00, 0x00, 0x00, 0x00, 0x00, 0x00, 0x00,
  0x00, 0x00, 0x00, 0x00, 0x00, 0x00, 0x00, 0x00, 0x00, 0x00, 0x00, 0x00, 0x00, 0x00, 0x00, 0x00,
  0x00, 0x00, 0x00, 0x00, 0x00, 0x00, 0x00, 0x00, 0x10, 0x00, 0x00, 0x00, 0xc2, 0xe4, 0x9f, 0x37,
  0xf4, 0xb1, 0x51, 0x37, 0x03, 0x95, 0xa4, 0x37, 0x88, 0xfa, 0x0f, 0x37, 0x8a, 0x27, 0x97, 0x37,
  0x7f, 0xe4, 0xfa, 0x36, 0x9a, 0x27, 0x2e, 0x37, 0xb5, 0x50, 0x17, 0x37, 0x21, 0x5c, 0x07, 0x37,
  0x8c, 0x96, 0x37, 0x37, 0x24, 0x3c, 0x01, 0x37, 0x6c, 0x67, 0x36, 0x37, 0x8a, 0x93, 0x51, 0x37,
  0x95, 0x2f, 0x45, 0x37, 0xed, 0x8d, 0xeb, 0x36, 0xee, 0x7a, 0x4b, 0x37, 0x78, 0x00, 0x00, 0x00,
  0x65, 0x73, 0x70, 0x63, 0x6e, 0x5f, 0x6c, 0x69, 0x67, 0x68, 0x74, 0x5f, 0x31, 0x2f, 0x63, 0x6f,
  0x6e, 0x76, 0x32, 0x5f, 0x31, 0x2f, 0x52, 0x65, 0x6c, 0x75, 0x3b, 0x65, 0x73, 0x70, 0x63, 0x6e,
  0x5f, 0x6c, 0x69, 0x67, 0x68, 0x74, 0x5f, 0x31, 0x2f, 0x63, 0x6f, 0x6e, 0x76, 0x32, 0x5f, 0x31,
  0x2f, 0x42, 0x69, 0x61, 0x73, 0x41, 0x64, 0x64, 0x3b, 0x65, 0x73, 0x70, 0x63, 0x6e, 0x5f, 0x6c,
  0x69, 0x67, 0x68, 0x74, 0x5f, 0x31, 0x2f, 0x63, 0x6f, 0x6e, 0x76, 0x32, 0x5f, 0x31, 0x2f, 0x63,
  0x6f, 0x6e, 0x76, 0x6f, 0x6c, 0x75, 0x74, 0x69, 0x6f, 0x6e, 0x3b, 0x65, 0x73, 0x70, 0x63, 0x6e,
  0x5f, 0x6c, 0x69, 0x67, 0x68, 0x74, 0x5f, 0x31, 0x2f, 0x63, 0x6f, 0x6e, 0x76, 0x32, 0x5f, 0x31,
  0x2f, 0x53, 0x71, 0x75, 0x65, 0x65, 0x7a, 0x65, 0x00, 0x00, 0x00, 0x00, 0x01, 0x00, 0x00, 0x00,
  0x10, 0x00, 0x00, 0x00, 0x5e, 0xff, 0xff, 0xff, 0x00, 0x00, 0x00, 0x01, 0x14, 0x00, 0x00, 0x00,
  0x58, 0x00, 0x00, 0x00, 0x03, 0x00, 0x00, 0x00, 0x00, 0x00, 0x00, 0x09, 0x74, 0x00, 0x00, 0x00,
  0x4c, 0xfe, 0xff, 0xff, 0x08, 0x00, 0x00, 0x00, 0x2c, 0x00, 0x00, 0x00, 0x04, 0x00, 0x00, 0x00,
  0x00, 0x00, 0x00, 0x00, 0x00, 0x00, 0x00, 0x00, 0x00, 0x00, 0x00, 0x00, 0x00, 0x00, 0x00, 0x00,
  0x00, 0x00, 0x00, 0x00, 0x00, 0x00, 0x00, 0x00, 0x00, 0x00, 0x00, 0x00, 0x00, 0x00, 0x00, 0x00,
  0x00, 0x00, 0x00, 0x00, 0x04, 0x00, 0x00, 0x00, 0xca, 0x5b, 0x8c, 0x3b, 0xab, 0x04, 0xc4, 0x3b,
  0x8c, 0xbd, 0xe5, 0x3b, 0x74, 0x8c, 0x96, 0x3b, 0x21, 0x00, 0x00, 0x00, 0x65, 0x73, 0x70, 0x63,
  0x6e, 0x5f, 0x6c, 0x69, 0x67, 0x68, 0x74, 0x5f, 0x31, 0x2f, 0x63, 0x6f, 0x6e, 0x76, 0x33, 0x5f,
  0x31, 0x2f, 0x63, 0x6f, 0x6e, 0x76, 0x6f, 0x6c, 0x75, 0x74, 0x69, 0x6f, 0x6e, 0x00, 0x00, 0x00,
  0x04, 0x00, 0x00, 0x00, 0x04, 0x00, 0x00, 0x00, 0x03, 0x00, 0x00, 0x00, 0x03, 0x00, 0x00, 0x00,
  0x10, 0x00, 0x00, 0x00, 0x00, 0x00, 0x16, 0x00, 0x1c, 0x00, 0x18, 0x00, 0x17, 0x00, 0x10, 0x00,
  0x0c, 0x00, 0x08, 0x00, 0x00, 0x00, 0x00, 0x00, 0x00, 0x00, 0x07, 0x00, 0x16, 0x00, 0x00, 0x00,
  0x00, 0x00, 0x00, 0x01, 0x14, 0x00, 0x00, 0x00, 0x54, 0x00, 0x00, 0x00, 0x02, 0x00, 0x00, 0x00,
  0x00, 0x00, 0x00, 0x02, 0xac, 0x00, 0x00, 0x00, 0x04, 0xff, 0xff, 0xff, 0x08, 0x00, 0x00, 0x00,
  0x28, 0x00, 0x00, 0x00, 0x04, 0x00, 0x00, 0x00, 0x00, 0x00, 0x00, 0x00, 0x00, 0x00, 0x00, 0x00,
  0x00, 0x00, 0x00, 0x00, 0x00, 0x00, 0x00, 0x00, 0x00, 0x00, 0x00, 0x00, 0x00, 0x00, 0x00, 0x00,
  0x00, 0x00, 0x00, 0x00, 0x00, 0x00, 0x00, 0x00, 0x04, 0x00, 0x00, 0x00, 0x58, 0x74, 0xa8, 0x37,
  0x74, 0x41, 0xeb, 0x37, 0x33, 0xdd, 0x09, 0x38, 0x30, 0xaf, 0xb4, 0x37, 0x5d, 0x00, 0x00, 0x00,
  0x65, 0x73, 0x70, 0x63, 0x6e, 0x5f, 0x6c, 0x69, 0x67, 0x68, 0x74, 0x5f, 0x31, 0x2f, 0x63, 0x6f,
  0x6e, 0x76, 0x33, 0x5f, 0x31, 0x2f, 0x42, 0x69, 0x61, 0x73, 0x41, 0x64, 0x64, 0x3b, 0x65, 0x73,
  0x70, 0x63, 0x6e, 0x5f, 0x6c, 0x69, 0x67, 0x68, 0x74, 0x5f, 0x31, 0x2f, 0x63, 0x6f, 0x6e, 0x76,
  0x33, 0x5f, 0x31, 0x2f, 0x63, 0x6f, 0x6e, 0x76, 0x6f, 0x6c, 0x75, 0x74, 0x69, 0x6f, 0x6e, 0x3b,
  0x65, 0x73, 0x70, 0x63, 0x6e, 0x5f, 0x6c, 0x69, 0x67, 0x68, 0x74, 0x5f, 0x31, 0x2f, 0x63, 0x6f,
  0x6e, 0x76, 0x33, 0x5f, 0x31, 0x2f, 0x53, 0x71, 0x75, 0x65, 0x65, 0x7a, 0x65, 0x00, 0x00, 0x00,
  0x01, 0x00, 0x00, 0x00, 0x04, 0x00, 0x00, 0x00, 0x00, 0x00, 0x16, 0x00, 0x20, 0x00, 0x1c, 0x00,
  0x1b, 0x00, 0x14, 0x00, 0x10, 0x00, 0x0c, 0x00, 0x00, 0x00, 0x00, 0x00, 0x08, 0x00, 0x07, 0x00,
  0x16, 0x00, 0x00, 0x00, 0x00, 0x00, 0x00, 0x01, 0x18, 0x00, 0x00, 0x00, 0x34, 0x00, 0x00, 0x00,
  0x50, 0x00, 0x00, 0x00, 0x01, 0x00, 0x00, 0x00, 0x00, 0x00, 0x00, 0x09, 0x60, 0x00, 0x00, 0x00,
  0x04, 0x00, 0x00, 0x00, 0xff, 0xff, 0xff, 0xff, 0x18, 0x00, 0x00, 0x00, 0x20, 0x00, 0x00, 0x00,
  0x01, 0x00, 0x00, 0x00, 0x0c, 0x00, 0x0c, 0x00, 0x00, 0x00, 0x00, 0x00, 0x08, 0x00, 0x04, 0x00,
  0x0c, 0x00, 0x00, 0x00, 0x08, 0x00, 0x00, 0x00, 0x10, 0x00, 0x00, 0x00, 0x01, 0x00, 0x00, 0x00,
  0x80, 0xff, 0xff, 0xff, 0xff, 0xff, 0xff, 0xff, 0x01, 0x00, 0x00, 0x00, 0xda, 0xe6, 0x73, 0x3b,
  0x14, 0x00, 0x00, 0x00, 0x73, 0x65, 0x72, 0x76, 0x69, 0x6e, 0x67, 0x5f, 0x64, 0x65, 0x66, 0x61,
  0x75, 0x6c, 0x74, 0x5f, 0x6c, 0x72, 0x3a, 0x30, 0x00, 0x00, 0x00, 0x00, 0x04, 0x00, 0x00, 0x00,
  0x01, 0x00, 0x00, 0x00, 0x18, 0x00, 0x00, 0x00, 0x20, 0x00, 0x00, 0x00, 0x01, 0x00, 0x00, 0x00,
  0x02, 0x00, 0x00, 0x00, 0x24, 0x00, 0x00, 0x00, 0x04, 0x00, 0x00, 0x00, 0xf0, 0xff, 0xff, 0xff,
  0x05, 0x00, 0x00, 0x00, 0x02, 0x00, 0x00, 0x00, 0x00, 0x00, 0x00, 0x05, 0x0c, 0x00, 0x10, 0x00,
  0x0f, 0x00, 0x00, 0x00, 0x08, 0x00, 0x04, 0x00, 0x0c, 0x00, 0x00, 0x00, 0x03, 0x00, 0x00, 0x00,
  0x03, 0x00, 0x00, 0x00, 0x00, 0x00, 0x00, 0x03,
};
const size_t espcn_light_int8_tflite_len = 10392;
