#pragma once
#include <cstddef>
#include <cstdint>

alignas(16) const unsigned char fsrcnn_ds_int8_tflite[] = {
  0x1c, 0x00, 0x00, 0x00, 0x54, 0x46, 0x4c, 0x33, 0x14, 0x00, 0x20, 0x00, 0x1c, 0x00, 0x18, 0x00,
  0x14, 0x00, 0x10, 0x00, 0x0c, 0x00, 0x00, 0x00, 0x08, 0x00, 0x04, 0x00, 0x14, 0x00, 0x00, 0x00,
  0x1c, 0x00, 0x00, 0x00, 0x8c, 0x00, 0x00, 0x00, 0xe4, 0x00, 0x00, 0x00, 0x68, 0x2c, 0x00, 0x00,
  0x78, 0x2c, 0x00, 0x00, 0xac, 0x52, 0x00, 0x00, 0x03, 0x00, 0x00, 0x00, 0x01, 0x00, 0x00, 0x00,
  0x10, 0x00, 0x00, 0x00, 0x00, 0x00, 0x0a, 0x00, 0x10, 0x00, 0x0c, 0x00, 0x08, 0x00, 0x04, 0x00,
  0x0a, 0x00, 0x00, 0x00, 0x0c, 0x00, 0x00, 0x00, 0x1c, 0x00, 0x00, 0x00, 0x3c, 0x00, 0x00, 0x00,
  0x0f, 0x00, 0x00, 0x00, 0x73, 0x65, 0x72, 0x76, 0x69, 0x6e, 0x67, 0x5f, 0x64, 0x65, 0x66, 0x61,
  0x75, 0x6c, 0x74, 0x00, 0x01, 0x00, 0x00, 0x00, 0x04, 0x00, 0x00, 0x00, 0x9c, 0xff, 0xff, 0xff,
  0x19, 0x00, 0x00, 0x00, 0x04, 0x00, 0x00, 0x00, 0x08, 0x00, 0x00, 0x00, 0x6f, 0x75, 0x74, 0x70,
  0x75, 0x74, 0x5f, 0x30, 0x00, 0x00, 0x00, 0x00, 0x01, 0x00, 0x00, 0x00, 0x04, 0x00, 0x00, 0x00,
  0x6a, 0xd3, 0xff, 0xff, 0x04, 0x00, 0x00, 0x00, 0x02, 0x00, 0x00, 0x00, 0x6c, 0x72, 0x00, 0x00,
  0x02, 0x00, 0x00, 0x00, 0x34, 0x00, 0x00, 0x00, 0x04, 0x00, 0x00, 0x00, 0xdc, 0xff, 0xff, 0xff,
  0x1c, 0x00, 0x00, 0x00, 0x04, 0x00, 0x00, 0x00, 0x13, 0x00, 0x00, 0x00, 0x43, 0x4f, 0x4e, 0x56,
  0x45, 0x52, 0x53, 0x49, 0x4f, 0x4e, 0x5f, 0x4d, 0x45, 0x54, 0x41, 0x44, 0x41, 0x54, 0x41, 0x00,
  0x08, 0x00, 0x0c, 0x00, 0x08, 0x00, 0x04, 0x00, 0x08, 0x00, 0x00, 0x00, 0x1b, 0x00, 0x00, 0x00,
  0x04, 0x00, 0x00, 0x00, 0x13, 0x00, 0x00, 0x00, 0x6d, 0x69, 0x6e, 0x5f, 0x72, 0x75, 0x6e, 0x74,
  0x69, 0x6d, 0x65, 0x5f, 0x76, 0x65, 0x72, 0x73, 0x69, 0x6f, 0x6e, 0x00, 0x1d, 0x00, 0x00, 0x00,
  0x80, 0x2b, 0x00, 0x00, 0x74, 0x2b, 0x00, 0x00, 0x54, 0x2b, 0x00, 0x00, 0x64, 0x23, 0x00, 0x00,
  0x74, 0x22, 0x00, 0x00, 0xc4, 0x1f, 0x00, 0x00, 0x84, 0x1f, 0x00, 0x00, 0x64, 0x1a, 0x00, 0x00,
  0x24, 0x1a, 0x00, 0x00, 0x04, 0x15, 0x00, 0x00, 0xc4, 0x14, 0x00, 0x00, 0xa4, 0x0f, 0x00, 0x00,
  0x64, 0x0f, 0x00, 0x00, 0x44, 0x0a, 0x00, 0x00, 0x04, 0x0a, 0x00, 0x00, 0x54, 0x07, 0x00, 0x00,
  0x64, 0x06, 0x00, 0x00, 0xdc, 0x00, 0x00, 0x00, 0xd4, 0x00, 0x00, 0x00, 0xcc, 0x00, 0x00, 0x00,
  0xc4, 0x00, 0x00, 0x00, 0xbc, 0x00, 0x00, 0x00, 0xb4, 0x00, 0x00, 0x00, 0xac, 0x00, 0x00, 0x00,
  0xa4, 0x00, 0x00, 0x00, 0x9c, 0x00, 0x00, 0x00, 0x94, 0x00, 0x00, 0x00, 0x74, 0x00, 0x00, 0x00,
  0x04, 0x00, 0x00, 0x00, 0x4e, 0xd4, 0xff, 0xff, 0x04, 0x00, 0x00, 0x00, 0x60, 0x00, 0x00, 0x00,
  0x0c, 0x00, 0x00, 0x00, 0x08, 0x00, 0x0e, 0x00, 0x08, 0x00, 0x04, 0x00, 0x08, 0x00, 0x00, 0x00,
  0x10, 0x00, 0x00, 0x00, 0x28, 0x00, 0x00, 0x00, 0x00, 0x00, 0x06, 0x00, 0x08, 0x00, 0x04, 0x00,
  0x06, 0x00, 0x00, 0x00, 0x04, 0x00, 0x00, 0x00, 0x01, 0x00, 0x00, 0x00, 0xeb, 0x03, 0x00, 0x00,
  0x0c, 0x00, 0x18, 0x00, 0x14, 0x00, 0x10, 0x00, 0x0c, 0x00, 0x04, 0x00, 0x0c, 0x00, 0x00, 0x00,
  0x8b, 0x7e, 0x97, 0x7c, 0xc6, 0xd5, 0x1c, 0x2c, 0x02, 0x00, 0x00, 0x00, 0x02, 0x00, 0x00, 0x00,
  0x04, 0x00, 0x00, 0x00, 0x06, 0x00, 0x00, 0x00, 0x32, 0x2e, 0x32, 0x31, 0x2e, 0x30, 0x00, 0x00,
  0xba, 0xd4, 0xff, 0xff, 0x04, 0x00, 0x00, 0x00, 0x10, 0x00, 0x00, 0x00, 0x32, 0x2e, 0x35, 0x2e,
  0x30, 0x00, 0x00, 0x00, 0x00, 0x00, 0x00, 0x00, 0x00, 0x00, 0x00, 0x00, 0x80, 0xd5, 0xff, 0xff,
  0x84, 0xd5, 0xff, 0xff, 0x88, 0xd5, 0xff, 0xff, 0x8c, 0xd5, 0xff, 0xff, 0x90, 0xd5, 0xff, 0xff,
  0x94, 0xd5, 0xff, 0xff, 0x98, 0xd5, 0xff, 0xff, 0x9c, 0xd5, 0xff, 0xff, 0xa0, 0xd5, 0xff, 0xff,
  0xfa, 0xd4, 0xff, 0xff, 0x04, 0x00, 0x00, 0x00, 0x78, 0x05, 0x00, 0x00, 0x48, 0xfa, 0xf4, 0x30,
  0xda, 0x25, 0xe8, 0x75, 0x7f, 0xe5, 0x11, 0x58, 0x00, 0x64, 0xbf, 0x1f, 0x7d, 0x31, 0x01, 0x3c,
  0xdb, 0xf1, 0x1a, 0x39, 0x41, 0x39, 0xe6, 0x6c, 0xca, 0xd6, 0x3a, 0xf4, 0x1a, 0xf9, 0x71, 0xc3,
  0x60, 0x3b, 0x2b, 0x7c, 0xc7, 0xd8, 0x5a, 0x04, 0xd7, 0x1c, 0x7f, 0x50, 0xba, 0x5d, 0x02, 0xd0,
  0x14, 0xef, 0x15, 0x44, 0xe6, 0x08, 0x06, 0x3f, 0xe2, 0x41, 0x7f, 0x29, 0xe9, 0x45, 0x30, 0x54,
  0x49, 0x53, 0xc6, 0x01, 0x53, 0x14, 0x30, 0x1f, 0xef, 0x35, 0xf1, 0x0f, 0xa1, 0xec, 0xf6, 0xc6,
  0xc9, 0xfb, 0x3d, 0xe2, 0x31, 0x12, 0x10, 0x41, 0x81, 0xb9, 0xd1, 0xf4, 0x0a, 0xf7, 0x31, 0xf9,
  0xc2, 0x12, 0x0e, 0xe9, 0xe2, 0xc2, 0x25, 0x48, 0xe6, 0xe0, 0xe3, 0x69, 0x67, 0x04, 0xca, 0xf0,
  0xea, 0x7f, 0x29, 0xaf, 0x08, 0x44, 0x21, 0xcc, 0xff, 0xf2, 0x3e, 0xe3, 0xcb, 0xcd, 0x0c, 0x81,
  0x7f, 0x21, 0x23, 0xec, 0x03, 0x26, 0x38, 0x3e, 0x04, 0xb5, 0xd4, 0x57, 0x0d, 0x32, 0x1c, 0x3a,
  0x0e, 0x0d, 0x3d, 0xee, 0xa3, 0x0b, 0xf4, 0x19, 0xea, 0x4f, 0x81, 0x06, 0xd4, 0x1c, 0x0b, 0xb7,
  0x1d, 0xf0, 0xe3, 0x43, 0x25, 0x1b, 0xe6, 0x1c, 0x33, 0x9c, 0xf0, 0xdd, 0xdf, 0x0b, 0x6c, 0x25,
  0x32, 0xfe, 0x22, 0x31, 0xde, 0xc3, 0x98, 0xe8, 0x49, 0xca, 0x16, 0xdf, 0x76, 0x81, 0x2a, 0x18,
  0xd0, 0x00, 0x2f, 0xeb, 0x25, 0xf6, 0x05, 0x12, 0x02, 0x0d, 0xa4, 0x81, 0xb4, 0x0c, 0xe5, 0x25,
  0x59, 0x1f, 0xed, 0xfd, 0x00, 0x57, 0x0c, 0x0a, 0x01, 0xe3, 0x19, 0x0c, 0xf8, 0x28, 0x35, 0xc9,
  0x02, 0x04, 0x04, 0x17, 0xfd, 0xd7, 0x41, 0xab, 0xf9, 0xe7, 0x25, 0x12, 0xda, 0xbd, 0x76, 0xc1,
  0xde, 0x08, 0xbb, 0x31, 0xff, 0x7f, 0xb1, 0xd3, 0xb8, 0x3e, 0x01, 0x48, 0x19, 0x13, 0x53, 0xfd,
  0xe9, 0x6f, 0x4c, 0x7f, 0xb7, 0x44, 0xc0, 0xae, 0x53, 0x38, 0x28, 0x27, 0x1b, 0xcf, 0xe7, 0xf5,
  0x01, 0x30, 0xd0, 0xdc, 0xf4, 0x30, 0xc2, 0x2d, 0x23, 0x56, 0xef, 0xcc, 0x31, 0x34, 0x1f, 0x15,
  0x7f, 0xf2, 0xca, 0xef, 0xf0, 0xcc, 0x34, 0xf8, 0x25, 0x29, 0x1a, 0xf8, 0xfe, 0x07, 0xcc, 0x3b,
  0xff, 0x22, 0x14, 0xd7, 0x0b, 0xe4, 0x08, 0xcb, 0xff, 0xe6, 0x5f, 0x81, 0x0a, 0x1a, 0x08, 0xdf,
  0x10, 0x25, 0x5b, 0xca, 0x7f, 0x3a, 0xcb, 0x18, 0xca, 0xe0, 0xd2, 0xf0, 0x47, 0xc2, 0xe3, 0x01,
  0x0c, 0xbc, 0xeb, 0x3b, 0x0d, 0x1e, 0xcf, 0x3e, 0xd8, 0x0f, 0x12, 0x2e, 0x48, 0xd9, 0xdc, 0x2c,
  0x1c, 0x0b, 0xeb, 0x14, 0x49, 0x1c, 0x7f, 0x6d, 0xe2, 0xd6, 0x05, 0x03, 0xf4, 0x45, 0xdb, 0xf4,
  0xfa, 0xfb, 0xde, 0x0d, 0x1b, 0xc4, 0xff, 0x12, 0xf0, 0xf3, 0xc3, 0xac, 0xf3, 0xf3, 0xeb, 0x26,
  0x7f, 0xf4, 0x07, 0x20, 0x71, 0xe3, 0x05, 0x1d, 0xd3, 0xf2, 0x16, 0xff, 0xbd, 0x34, 0x21, 0xfb,
  0x14, 0x46, 0x5c, 0x1f, 0xc1, 0xef, 0xf1, 0x38, 0x7f, 0x43, 0x26, 0x2d, 0xe9, 0xd7, 0xdf, 0x33,
  0x29, 0x24, 0xf3, 0xf8, 0xf9, 0xdd, 0xd3, 0xd7, 0xfc, 0xeb, 0x16, 0xdc, 0x00, 0x20, 0xf9, 0xf6,
  0x40, 0x7f, 0x2f, 0x0e, 0x23, 0xc5, 0x5c, 0x5b, 0x2e, 0xf9, 0xcb, 0xe5, 0x35, 0x18, 0x10, 0x21,
  0x22, 0x03, 0x0a, 0x00, 0xff, 0x2b, 0xf7, 0xf9, 0xea, 0xdd, 0x81, 0x95, 0xcf, 0xee, 0x4d, 0xdf,
  0xeb, 0xe6, 0x03, 0x21, 0xef, 0x0d, 0xea, 0x9c, 0xa0, 0xa5, 0x81, 0x3e, 0x50, 0xcc, 0x39, 0x09,
  0x05, 0x93, 0xc6, 0xa3, 0xab, 0xc5, 0x85, 0x87, 0x3c, 0x24, 0xe4, 0x97, 0xb6, 0x93, 0x07, 0xfb,
  0xd6, 0x53, 0x14, 0xd2, 0x2a, 0x27, 0xba, 0xe5, 0x18, 0x2c, 0x1b, 0x14, 0x81, 0xbe, 0xe4, 0x1f,
  0x30, 0x26, 0x7a, 0x29, 0x24, 0xf6, 0x39, 0x24, 0x1f, 0x39, 0x16, 0xd6, 0xc4, 0x24, 0xfc, 0x27,
  0xea, 0xd6, 0x5b, 0xcd, 0x17, 0xfc, 0x7f, 0xe5, 0x25, 0xc8, 0xe7, 0x2f, 0x39, 0x49, 0x46, 0x42,
  0x5e, 0x0c, 0x41, 0x14, 0xf0, 0x17, 0xe3, 0x1e, 0xe0, 0x36, 0x47, 0x06, 0x22, 0x48, 0x7f, 0x2c,
  0xdd, 0x05, 0xd5, 0x64, 0xd2, 0xe3, 0x3b, 0xf1, 0x3a, 0xe0, 0xf8, 0xe4, 0xd7, 0xc5, 0xc1, 0x20,
  0xf9, 0xe3, 0x4b, 0xee, 0x2c, 0x1c, 0x4e, 0x7a, 0x5b, 0x36, 0x5a, 0x4b, 0x7f, 0x52, 0x25, 0x17,
  0x24, 0x2a, 0xed, 0x2f, 0x03, 0xe2, 0x0a, 0x29, 0x1f, 0x01, 0xdb, 0x0c, 0x1f, 0x24, 0xd9, 0x6c,
  0x73, 0x81, 0x36, 0x04, 0xfb, 0xbf, 0x18, 0x0e, 0xc0, 0x04, 0xf4, 0x16, 0x0e, 0xd9, 0x7a, 0x20,
  0x2c, 0xfa, 0xd5, 0x58, 0xbe, 0xf5, 0x0f, 0xe0, 0x00, 0xaf, 0x26, 0x22, 0x13, 0xb9, 0xe3, 0x28,
  0x23, 0x7f, 0x7e, 0x22, 0xc2, 0x14, 0xfc, 0xf1, 0x17, 0xf2, 0xf0, 0x15, 0x06, 0x43, 0xd1, 0x20,
  0x1f, 0x06, 0x81, 0x3c, 0x01, 0xf8, 0x4f, 0xfb, 0x34, 0x0f, 0xf6, 0x16, 0x36, 0xf9, 0xd0, 0x1a,
  0xf1, 0xeb, 0x48, 0x05, 0x61, 0xf2, 0xee, 0x58, 0x03, 0x14, 0x74, 0x39, 0x5b, 0x49, 0xfd, 0x7f,
  0x4e, 0x16, 0x11, 0x60, 0x59, 0xd9, 0x49, 0x35, 0x1e, 0xe4, 0xca, 0xed, 0xe7, 0x36, 0xce, 0x00,
  0x14, 0xc8, 0x43, 0x7f, 0x2e, 0xec, 0xfa, 0x27, 0x23, 0x68, 0x3e, 0x49, 0xd9, 0x25, 0x43, 0xb6,
  0xfb, 0x00, 0xd5, 0xd7, 0x0b, 0x81, 0x03, 0x17, 0x02, 0x0b, 0x0b, 0xfb, 0x00, 0x09, 0xf8, 0xeb,
  0x01, 0xf7, 0xf7, 0x0e, 0x0f, 0x02, 0xf8, 0xfe, 0x01, 0xff, 0xde, 0x5d, 0x16, 0x3f, 0x41, 0x2f,
  0xc7, 0x0b, 0x48, 0x48, 0x78, 0x70, 0x77, 0x60, 0xe2, 0x37, 0xf8, 0x7f, 0x72, 0x44, 0xce, 0xc8,
  0x78, 0x48, 0x50, 0xfc, 0x22, 0xf1, 0x1b, 0xee, 0xe7, 0xe8, 0x38, 0xd9, 0x11, 0x00, 0x0b, 0x81,
  0x58, 0x05, 0xcf, 0x9a, 0x72, 0xc5, 0xf6, 0xa0, 0xf4, 0xdd, 0x03, 0xf3, 0xb9, 0x20, 0x49, 0xd3,
  0x07, 0x4c, 0xd5, 0xd1, 0xb1, 0x0d, 0xc3, 0x5a, 0x34, 0x03, 0xd7, 0x7f, 0x18, 0x1a, 0x54, 0x17,
  0x3c, 0x10, 0x56, 0x2d, 0x1e, 0xfc, 0x03, 0x02, 0xfe, 0x01, 0xf9, 0xf6, 0xfd, 0xff, 0xfc, 0x05,
  0x0b, 0x25, 0x0b, 0x05, 0xfc, 0x08, 0xe7, 0xc6, 0x07, 0x02, 0x01, 0x0c, 0x81, 0x08, 0x0b, 0x16,
  0xfe, 0xf2, 0x10, 0x24, 0xd6, 0x0b, 0xd1, 0x15, 0xf1, 0xc0, 0xa0, 0xc8, 0xe9, 0x0a, 0x14, 0x90,
  0x4c, 0xfe, 0xf8, 0x01, 0x52, 0x7f, 0xf2, 0xd6, 0x26, 0x47, 0x24, 0x0b, 0x4a, 0x12, 0xed, 0x3a,
  0xfd, 0x43, 0xff, 0x7f, 0x4f, 0x04, 0x03, 0x4f, 0x14, 0x19, 0x14, 0x00, 0x32, 0xfc, 0x50, 0xe1,
  0x2f, 0xe8, 0xf8, 0xf7, 0x33, 0x3b, 0xed, 0xac, 0xee, 0xf1, 0x7f, 0xbb, 0x9b, 0x18, 0x1d, 0x6b,
  0x04, 0x81, 0xce, 0x07, 0x02, 0x04, 0xe5, 0xcb, 0xee, 0xf1, 0xf0, 0xe9, 0xf4, 0xdd, 0x15, 0x52,
  0xc6, 0x07, 0x29, 0x11, 0x47, 0x7f, 0xe7, 0x17, 0xfe, 0xd9, 0x4e, 0xc2, 0xd6, 0x2b, 0xf1, 0xe2,
  0x21, 0x22, 0x02, 0x08, 0xfd, 0xfe, 0x07, 0xff, 0x0b, 0xe9, 0xfa, 0x08, 0x04, 0x11, 0xe9, 0x81,
  0xba, 0xf4, 0x06, 0x00, 0x28, 0xf0, 0x03, 0x0a, 0xf9, 0x03, 0xfa, 0x33, 0x04, 0x4e, 0xf5, 0x02,
  0x29, 0x18, 0xdf, 0x3b, 0xc8, 0x39, 0xe7, 0x7f, 0xda, 0xda, 0x35, 0x6e, 0x5b, 0xde, 0x5b, 0x66,
  0x29, 0xee, 0x0e, 0xcc, 0x06, 0x12, 0x2a, 0x18, 0xe7, 0xc5, 0x11, 0x48, 0xcf, 0xea, 0x46, 0x22,
  0x81, 0x7b, 0x10, 0xf3, 0xe8, 0x12, 0x06, 0xb8, 0xe3, 0x23, 0x03, 0x04, 0x12, 0x12, 0x4d, 0xd8,
  0x1d, 0xef, 0x42, 0xff, 0x7f, 0x3a, 0x0e, 0x6e, 0xfc, 0xe6, 0x57, 0xd8, 0x21, 0x20, 0xd1, 0x2d,
  0xee, 0x1d, 0x0d, 0x29, 0xe0, 0xe4, 0x03, 0xe3, 0xdd, 0xf7, 0xc2, 0xf6, 0x0d, 0x19, 0x5d, 0x50,
  0x3f, 0xd1, 0x3a, 0x7f, 0x54, 0xee, 0xe2, 0x63, 0xcc, 0xe1, 0x10, 0x18, 0x4a, 0xcd, 0x0a, 0x08,
  0xce, 0xcc, 0xcd, 0x25, 0x1e, 0x60, 0xef, 0x0e, 0x50, 0x2f, 0xf5, 0x7f, 0x5f, 0x18, 0x1b, 0x5b,
  0x19, 0x4f, 0x58, 0x45, 0x3c, 0x72, 0xc9, 0xe8, 0x65, 0x73, 0x64, 0xd1, 0x56, 0xd9, 0xec, 0x76,
  0x60, 0x35, 0x10, 0x78, 0x7f, 0x5c, 0xcd, 0xe0, 0x76, 0x64, 0xd0, 0x64, 0x2a, 0x09, 0xcb, 0x0e,
  0x32, 0xf6, 0x16, 0xef, 0x2c, 0xe3, 0xf6, 0x0e, 0x19, 0x21, 0xeb, 0x0f, 0x1c, 0x7f, 0xf2, 0x1e,
  0xd4, 0xf3, 0x0e, 0xff, 0xf1, 0xea, 0x07, 0x15, 0xe9, 0x10, 0x06, 0xf6, 0x2b, 0xf5, 0x07, 0xe8,
  0xc4, 0xdc, 0xfe, 0xff, 0x0e, 0xd3, 0x7f, 0x0f, 0xfa, 0x09, 0xf3, 0x05, 0xe7, 0x05, 0xfe, 0x06,
  0x08, 0xff, 0xfd, 0xf9, 0xfc, 0x7e, 0xd3, 0x34, 0x7f, 0x45, 0xba, 0xf9, 0xed, 0x2a, 0xf2, 0xbf,
  0x9f, 0x3d, 0xe6, 0xe8, 0xdb, 0x0e, 0x00, 0x02, 0x1d, 0x1a, 0x6c, 0xd4, 0xb4, 0xe0, 0x17, 0xf3,
  0xf8, 0x77, 0x20, 0x7f, 0x70, 0x00, 0x0f, 0xd0, 0x4b, 0x25, 0x06, 0x68, 0x46, 0x0d, 0x5a, 0x3b,
  0x09, 0x56, 0xf6, 0xdc, 0x5d, 0x04, 0xf7, 0xf9, 0x00, 0x08, 0x05, 0x0f, 0x13, 0xc3, 0x27, 0x02,
  0x0a, 0x81, 0x03, 0x36, 0xfb, 0x05, 0xfd, 0x27, 0xf7, 0xfc, 0x0a, 0xf7, 0xf5, 0x09, 0x26, 0xc3,
  0xc8, 0x1c, 0x28, 0x67, 0x04, 0x7f, 0x1b, 0xcc, 0xf3, 0x1e, 0x2e, 0xf9, 0x34, 0x5a, 0x17, 0x52,
  0x53, 0xcf, 0x18, 0xc9, 0x75, 0x1d, 0x12, 0x14, 0xf2, 0x1d, 0xe7, 0x0a, 0xf7, 0xfa, 0xf8, 0x1a,
  0xf8, 0x08, 0xf9, 0x81, 0x2e, 0x0d, 0x04, 0x09, 0x38, 0xdf, 0x02, 0x00, 0xfa, 0x11, 0xfb, 0x05,
  0x12, 0xe6, 0xf3, 0x12, 0xf1, 0xda, 0x3f, 0xf8, 0xf9, 0x15, 0x81, 0xfc, 0xf4, 0xe7, 0xee, 0x03,
  0x03, 0xfa, 0x01, 0x01, 0x18, 0xf5, 0x07, 0xf8, 0x06, 0x05, 0xd2, 0x93, 0x81, 0x41, 0xe8, 0x1c,
  0x04, 0x40, 0x21, 0x41, 0xe5, 0x92, 0xe6, 0xfe, 0x21, 0x3e, 0xc5, 0x23, 0xcc, 0xf9, 0xf5, 0x06,
  0x30, 0xf8, 0x5a, 0xbc, 0x74, 0x58, 0x2f, 0x10, 0xd7, 0x20, 0x08, 0x40, 0x33, 0x0f, 0x21, 0x05,
  0x0d, 0xf1, 0x53, 0x7f, 0x51, 0xbd, 0x63, 0x4a, 0xf2, 0xca, 0xf1, 0x5f, 0x44, 0x26, 0xa8, 0x0a,
  0x4e, 0xde, 0x81, 0x71, 0x11, 0xcd, 0xc2, 0xde, 0x04, 0x6e, 0xe7, 0xb9, 0x66, 0xf5, 0x49, 0x4a,
  0x0b, 0xc5, 0x22, 0xe7, 0x7e, 0xda, 0xff, 0xff, 0x04, 0x00, 0x00, 0x00, 0xe0, 0x00, 0x00, 0x00,
  0x6f, 0xe2, 0xff, 0xff, 0xa1, 0xf4, 0xff, 0xff, 0x46, 0xf6, 0xff, 0xff, 0xb9, 0xfd, 0xff, 0xff,
  0x7f, 0x00, 0x00, 0x00, 0x9a, 0xfa, 0xff, 0xff, 0x3a, 0xfa, 0xff, 0xff, 0xe4, 0x28, 0x00, 0x00,
  0x4a, 0xea, 0xff, 0xff, 0x84, 0x59, 0x00, 0x00, 0x16, 0xfd, 0xff, 0xff, 0xcd, 0xf5, 0xff, 0xff,
  0x89, 0x28, 0x00, 0x00, 0x76, 0x26, 0x00, 0x00, 0x20, 0x17, 0x00, 0x00, 0xed, 0x12, 0x00, 0x00,
  0x06, 0xfd, 0xff, 0xff, 0x7e, 0x0c, 0x00, 0x00, 0xc8, 0xf8, 0xff, 0xff, 0xeb, 0xd1, 0xff, 0xff,
  0x25, 0x00, 0x00, 0x00, 0x23, 0xf9, 0xff, 0xff, 0x9d, 0xfc, 0xff, 0xff, 0x67, 0xec, 0xff, 0xff,
  0xab, 0x2c, 0x00, 0x00, 0x05, 0x0e, 0x00, 0x00, 0xb7, 0x11, 0x00, 0x00, 0xf4, 0xf0, 0xff, 0xff,
  0xba, 0xfd, 0xff, 0xff, 0xc1, 0xf9, 0xff, 0xff, 0xbd, 0xee, 0xff, 0xff, 0xc5, 0x11, 0x00, 0x00,
  0x1a, 0xe1, 0xff, 0xff, 0x47, 0xff, 0xff, 0xff, 0x64, 0xe7, 0xff, 0xff, 0x9d, 0xf7, 0xff, 0xff,
  0x0d, 0xf8, 0xff, 0xff, 0x1d, 0xfa, 0xff, 0xff, 0xba, 0x02, 0x00, 0x00, 0x40, 0xfc, 0xff, 0xff,
  0x69, 0x1e, 0x00, 0x00, 0x82, 0xec, 0xff, 0xff, 0xec, 0xfa, 0xff, 0xff, 0x79, 0xe9, 0xff, 0xff,
  0x84, 0xf3, 0xff, 0xff, 0xda, 0x00, 0x00, 0x00, 0x1c, 0x04, 0x00, 0x00, 0x78, 0x3c, 0x00, 0x00,
  0x14, 0xec, 0xff, 0xff, 0xb6, 0x00, 0x00, 0x00, 0x8c, 0xeb, 0xff, 0xff, 0xcc, 0xff, 0xff, 0xff,
  0xcc, 0x01, 0x00, 0x00, 0x6f, 0xfb, 0xff, 0xff, 0x8d, 0xcc, 0xff, 0xff, 0x60, 0x1e, 0x00, 0x00,
  0x6a, 0xdb, 0xff, 0xff, 0x04, 0x00, 0x00, 0x00, 0xa0, 0x02, 0x00, 0x00, 0x64, 0x13, 0x27, 0x89,
  0xc4, 0x3e, 0xb1, 0x41, 0x0a, 0x0e, 0x30, 0xe5, 0xc9, 0x58, 0x4c, 0x1b, 0xbb, 0x2a, 0x81, 0xc3,
  0x40, 0x5a, 0xdb, 0xdc, 0x15, 0x76, 0xfb, 0x2a, 0x12, 0xc6, 0xec, 0x54, 0x18, 0x2a, 0xcc, 0x62,
  0x08, 0xbc, 0xb1, 0xa6, 0xe0, 0xd2, 0x63, 0x66, 0x03, 0x1a, 0x72, 0xcd, 0x5c, 0xaf, 0x0a, 0x1d,
  0xb4, 0x0a, 0x12, 0x5a, 0xfe, 0x15, 0x45, 0xca, 0xd6, 0xc9, 0xf4, 0xde, 0xcd, 0xc2, 0xc7, 0x32,
  0xe3, 0xef, 0x38, 0xdd, 0x1d, 0xdd, 0x81, 0x1e, 0x17, 0xb8, 0x49, 0x23, 0xe0, 0xe2, 0x23, 0x40,
  0x04, 0xc6, 0x42, 0x66, 0x25, 0x37, 0xee, 0x10, 0xd2, 0x3e, 0x4e, 0x45, 0xde, 0x1a, 0x0f, 0x47,
  0x28, 0xb8, 0xb1, 0x40, 0x47, 0x06, 0x5b, 0x1c, 0xb1, 0x09, 0x36, 0xf2, 0x2c, 0x12, 0xfc, 0x7f,
  0x2a, 0xda, 0x2e, 0xe8, 0x02, 0xbe, 0xfa, 0x0c, 0xe5, 0x26, 0x19, 0x2d, 0xdd, 0xda, 0xe6, 0xef,
  0x14, 0x4c, 0xda, 0xe6, 0xda, 0x51, 0x14, 0xbe, 0xee, 0x2d, 0x2b, 0x21, 0xe7, 0x24, 0x16, 0x42,
  0x18, 0x44, 0x3f, 0x4d, 0xc9, 0x43, 0x2e, 0xf4, 0xbb, 0xe0, 0x1b, 0xc1, 0x02, 0x31, 0x04, 0x06,
  0x54, 0xe3, 0xe0, 0xc8, 0x3d, 0xe3, 0xf3, 0xe3, 0x12, 0x00, 0x24, 0x28, 0x81, 0x06, 0xed, 0x0d,
  0xde, 0x06, 0xfe, 0x1a, 0x0a, 0xed, 0xbf, 0x11, 0x28, 0x08, 0xf6, 0x09, 0xfd, 0xf7, 0x40, 0xf0,
  0x02, 0x32, 0x07, 0xdb, 0x1c, 0x3e, 0x06, 0xe7, 0xf2, 0xd6, 0x25, 0xfb, 0x1b, 0xe2, 0x22, 0xe8,
  0xf1, 0xf3, 0xb0, 0xfe, 0x02, 0x26, 0xf0, 0x46, 0x38, 0x16, 0x32, 0x21, 0x52, 0x34, 0x24, 0xb4,
  0x7d, 0x0d, 0x67, 0x00, 0x17, 0x16, 0x78, 0xb5, 0x40, 0x99, 0x68, 0x25, 0x4a, 0x12, 0xb7, 0x45,
  0x97, 0x71, 0x68, 0x10, 0x47, 0xc6, 0xbc, 0x0a, 0xfc, 0xfc, 0x68, 0xdd, 0x5f, 0x3e, 0x8b, 0x7f,
  0xfc, 0x0d, 0xe8, 0x49, 0x36, 0x5c, 0xcc, 0x6c, 0x46, 0x73, 0x00, 0x94, 0x9f, 0x1c, 0x39, 0xa1,
  0x97, 0xca, 0xd4, 0x8b, 0x9f, 0x52, 0x08, 0x70, 0x0d, 0x25, 0xac, 0xb2, 0xc7, 0x76, 0x8b, 0xa5,
  0x4e, 0xca, 0x89, 0xdd, 0x1b, 0xea, 0xe6, 0x46, 0xea, 0xa2, 0xdc, 0x9f, 0x81, 0xfd, 0xed, 0x36,
  0xb2, 0xef, 0xd6, 0x2c, 0xcf, 0x91, 0xb2, 0x68, 0x51, 0xcc, 0xc9, 0x63, 0xbd, 0xb4, 0x3b, 0xd7,
  0xce, 0x9c, 0x8f, 0x3e, 0xa0, 0xf9, 0x26, 0xed, 0x13, 0x83, 0x93, 0x32, 0x25, 0xd0, 0xe3, 0x6a,
  0x3d, 0x3f, 0x21, 0xe0, 0x3a, 0xcf, 0x0d, 0xe7, 0x3f, 0xf9, 0x05, 0x00, 0xbd, 0xd6, 0x1e, 0xd8,
  0x60, 0x12, 0xe1, 0x02, 0xdc, 0xf8, 0x7f, 0x49, 0xf8, 0x9a, 0x0e, 0x4c, 0xdd, 0x40, 0xe5, 0xee,
  0xfa, 0xcb, 0xca, 0xe1, 0x4c, 0x37, 0xee, 0xcd, 0xfd, 0xda, 0x0a, 0x06, 0x55, 0x15, 0x46, 0x2a,
  0xeb, 0x06, 0xe5, 0xeb, 0x0e, 0xf7, 0x07, 0x76, 0x29, 0xcd, 0xa6, 0x48, 0x1c, 0x35, 0x13, 0xf0,
  0xa6, 0xee, 0x29, 0x55, 0x4c, 0xe2, 0x2a, 0x2c, 0x81, 0xe6, 0x54, 0x08, 0x96, 0xea, 0x02, 0x40,
  0xc5, 0x26, 0xe9, 0x0c, 0x1a, 0xb5, 0x47, 0x2d, 0x2e, 0x27, 0xbb, 0xbf, 0x62, 0xc4, 0x29, 0xd3,
  0x37, 0xb0, 0x22, 0xe6, 0xa5, 0x48, 0x34, 0x52, 0x30, 0xc0, 0xd7, 0xb0, 0xc1, 0x23, 0x3b, 0x4f,
  0x03, 0x21, 0x20, 0xca, 0x57, 0xf5, 0xd3, 0x0c, 0x03, 0x3a, 0x0a, 0xf2, 0x0b, 0x22, 0x0e, 0xfc,
  0xc3, 0xbd, 0xc4, 0x36, 0xef, 0x02, 0xe5, 0x15, 0x3c, 0xea, 0x45, 0xfb, 0xf9, 0x7f, 0x09, 0x03,
  0x0a, 0xfd, 0xcf, 0x3a, 0x04, 0xea, 0xfe, 0x06, 0xc0, 0x2a, 0x62, 0x22, 0xc7, 0xd5, 0xf8, 0x24,
  0x0d, 0x32, 0x20, 0x2f, 0xc8, 0x70, 0x52, 0x66, 0x7a, 0xb7, 0xee, 0x74, 0xf9, 0x5a, 0xcc, 0x6c,
  0x63, 0x5d, 0x62, 0x74, 0xff, 0x7c, 0x15, 0x2e, 0x9d, 0x30, 0x0c, 0x7f, 0x97, 0x24, 0xc2, 0xd8,
  0x6a, 0x64, 0x5c, 0x05, 0x54, 0xbc, 0xcd, 0x23, 0x1f, 0xf4, 0x06, 0xba, 0xbc, 0x84, 0x03, 0x8d,
  0xc4, 0xdb, 0x17, 0x98, 0x2f, 0x10, 0x0f, 0xcc, 0xba, 0x88, 0x3c, 0x1d, 0xd3, 0x0a, 0xd5, 0x72,
  0x07, 0x49, 0x28, 0xee, 0xf9, 0xff, 0xf5, 0xd3, 0x1d, 0xd6, 0x3b, 0xe5, 0x15, 0xea, 0xc5, 0xfd,
  0xd5, 0xe7, 0x48, 0xf8, 0x38, 0xb2, 0xe6, 0x16, 0xfb, 0xd6, 0x0a, 0x06, 0x15, 0x4d, 0x7f, 0x4d,
  0x03, 0xec, 0xfa, 0x30, 0xb2, 0xf3, 0xb7, 0x03, 0x14, 0x3c, 0x3c, 0xbf, 0xec, 0x17, 0xdd, 0xfd,
  0xd4, 0xde, 0x14, 0xed, 0x0d, 0x31, 0xbf, 0xc2, 0xe2, 0xfc, 0x30, 0xdf, 0xb0, 0xd8, 0x00, 0x01,
  0xcb, 0x37, 0xdb, 0xcb, 0x0e, 0xd4, 0x1e, 0xcc, 0x27, 0x23, 0x39, 0xe3, 0xe9, 0x3d, 0x0c, 0xf5,
  0xfa, 0x7f, 0x48, 0xf2, 0xe5, 0x25, 0x09, 0xf8, 0x39, 0xe9, 0x6e, 0x05, 0xfe, 0x06, 0x03, 0xb8,
  0xc5, 0x0b, 0xa2, 0x07, 0x40, 0x2a, 0x2b, 0x4d, 0xb6, 0xa5, 0xd7, 0x0f, 0x16, 0xde, 0xff, 0xff,
  0x04, 0x00, 0x00, 0x00, 0x30, 0x00, 0x00, 0x00, 0xfa, 0xf6, 0xff, 0xff, 0xad, 0xfc, 0xff, 0xff,
  0x64, 0x0c, 0x00, 0x00, 0x34, 0xfd, 0xff, 0xff, 0x98, 0xfd, 0xff, 0xff, 0xdf, 0xf1, 0xff, 0xff,
  0x63, 0xfe, 0xff, 0xff, 0xe4, 0x02, 0x00, 0x00, 0x6e, 0xfb, 0xff, 0xff, 0x74, 0xf9, 0xff, 0xff,
  0xb7, 0x0a, 0x00, 0x00, 0xf3, 0x07, 0x00, 0x00, 0x52, 0xde, 0xff, 0xff, 0x04, 0x00, 0x00, 0x00,
  0x10, 0x05, 0x00, 0x00, 0x31, 0xec, 0xd7, 0x10, 0x1e, 0x35, 0x16, 0x0b, 0xd5, 0xf1, 0xc1, 0x17,
  0xed, 0xcc, 0x5a, 0x52, 0xda, 0xc6, 0x1d, 0x11, 0xff, 0xd4, 0xe4, 0x1b, 0x37, 0x40, 0x25, 0xfa,
  0xe9, 0x27, 0x66, 0x33, 0x06, 0xee, 0xda, 0xeb, 0x48, 0x13, 0xd6, 0x26, 0x2f, 0x16, 0xee, 0xd9,
  0x12, 0x39, 0xfd, 0xce, 0xf0, 0x2b, 0x1d, 0xfa, 0x13, 0xef, 0xfd, 0xe9, 0x2a, 0x31, 0x0e, 0x15,
  0x08, 0xea, 0x10, 0x81, 0x2a, 0x20, 0x34, 0xe8, 0x13, 0xfa, 0xe2, 0xf8, 0x1e, 0x07, 0xed, 0xfa,
  0xe1, 0xdd, 0xd0, 0xe2, 0x0d, 0xf8, 0x38, 0x12, 0x34, 0x13, 0xfe, 0x23, 0x43, 0xf8, 0xde, 0xf6,
  0x16, 0x24, 0x3d, 0xe0, 0x10, 0x18, 0x03, 0xd7, 0x0a, 0x26, 0x1a, 0x0a, 0x00, 0xe7, 0xee, 0xd7,
  0xea, 0x0b, 0xf8, 0xfa, 0x14, 0xfd, 0xdb, 0x1c, 0xfe, 0xf2, 0x02, 0x03, 0x1d, 0x0e, 0xdc, 0x0b,
  0x01, 0x0c, 0x07, 0x1e, 0x09, 0xcf, 0x26, 0x91, 0x06, 0xfb, 0x08, 0x25, 0xf7, 0x21, 0xfe, 0x1d,
  0x33, 0x0e, 0xdc, 0xf9, 0xe2, 0x0f, 0x27, 0x52, 0x0b, 0xe0, 0xd2, 0xb6, 0x45, 0x1d, 0x31, 0xe8,
  0xc7, 0x0c, 0x6a, 0x7f, 0xd1, 0x1e, 0x56, 0xde, 0xf4, 0xe3, 0xc0, 0xfc, 0xe9, 0x04, 0x2b, 0x39,
  0xf9, 0xef, 0x4a, 0x09, 0x07, 0x1b, 0xc0, 0xd7, 0xef, 0x05, 0x56, 0x24, 0xe8, 0x10, 0xc7, 0xf6,
  0x36, 0xf0, 0xa1, 0xdd, 0x10, 0x00, 0x25, 0x1a, 0xd2, 0xf0, 0xde, 0xe3, 0x43, 0x00, 0x02, 0x1d,
  0x23, 0xc3, 0x30, 0x35, 0xdc, 0x1f, 0x13, 0xed, 0x17, 0x03, 0xfd, 0x69, 0xf9, 0x15, 0x37, 0x13,
  0xb6, 0xf5, 0xbc, 0x40, 0x47, 0xe0, 0x40, 0x26, 0x0a, 0xe9, 0xe6, 0xbd, 0x45, 0x03, 0xe7, 0x09,
  0x1f, 0xbb, 0x06, 0xe1, 0xf0, 0x32, 0x76, 0x9c, 0xe1, 0xeb, 0x20, 0xe3, 0x0d, 0x30, 0xf8, 0xff,
  0x1a, 0xfd, 0xfc, 0x3d, 0x16, 0xb6, 0xe7, 0xc3, 0x07, 0x0d, 0x37, 0x07, 0xf1, 0xbf, 0xf3, 0xf8,
  0xe2, 0x57, 0x5a, 0xc8, 0xdd, 0x59, 0xcd, 0x7f, 0x4c, 0x10, 0x34, 0x1d, 0xbb, 0xc6, 0x6e, 0x05,
  0xeb, 0xf4, 0x3d, 0x4e, 0xfd, 0xee, 0xbe, 0xf1, 0x4a, 0xe9, 0x41, 0x37, 0xa7, 0xd9, 0x0a, 0x11,
  0x51, 0xbf, 0xbe, 0x19, 0x30, 0x55, 0xef, 0x32, 0xde, 0xca, 0xce, 0xff, 0x03, 0xf7, 0x6a, 0x6e,
  0xd2, 0xf0, 0x97, 0xf3, 0xf0, 0x4e, 0x76, 0xd3, 0xed, 0xf3, 0x02, 0x1a, 0xf9, 0xee, 0x0b, 0x18,
  0xf4, 0x25, 0x16, 0x19, 0x14, 0x19, 0x18, 0x05, 0xe7, 0x22, 0xfd, 0x14, 0x00, 0xfa, 0x20, 0xde,
  0xff, 0x18, 0xf1, 0x1c, 0xf1, 0xed, 0x0b, 0x29, 0x1b, 0x18, 0xe4, 0xf8, 0x1e, 0x17, 0xd0, 0xef,
  0xf3, 0x24, 0xfa, 0x23, 0x0f, 0xdf, 0x0f, 0xfc, 0x07, 0xe9, 0x17, 0x96, 0x1e, 0x07, 0xfe, 0x31,
  0x0b, 0xf5, 0xf0, 0x15, 0x11, 0xea, 0x13, 0xa7, 0x24, 0xf4, 0xe7, 0x08, 0xfe, 0xdc, 0x28, 0x04,
  0xcd, 0x14, 0x0e, 0xa4, 0x03, 0xf3, 0xd0, 0x81, 0x0e, 0xf4, 0xf6, 0xdb, 0xe1, 0x09, 0xf1, 0xf1,
  0xc2, 0x07, 0x3d, 0xd4, 0x0f, 0xce, 0xc6, 0x43, 0xfd, 0xfa, 0x6b, 0x50, 0x02, 0xf5, 0xe3, 0xc4,
  0x3f, 0xf4, 0x12, 0xb1, 0x01, 0xf8, 0x50, 0x00, 0xee, 0xdb, 0xe8, 0x09, 0x20, 0xed, 0x03, 0x63,
  0x02, 0xef, 0x91, 0xef, 0xfd, 0xee, 0x4a, 0xc7, 0x1d, 0xe3, 0xdb, 0xf4, 0x1f, 0x0c, 0x1f, 0xf2,
  0xed, 0xfc, 0xdf, 0x3b, 0xf7, 0xe4, 0x30, 0xf6, 0x01, 0x0e, 0xc2, 0xd5, 0xd7, 0xd5, 0x41, 0x84,
  0xd0, 0xbb, 0xf2, 0xe2, 0x02, 0x17, 0x77, 0x06, 0xda, 0x2b, 0x7e, 0x46, 0xeb, 0xf3, 0x0b, 0xce,
  0xfd, 0x37, 0x3e, 0x87, 0x3a, 0xeb, 0xcb, 0x1f, 0xe2, 0x26, 0x4a, 0xfe, 0xde, 0x05, 0x7f, 0xcc,
  0xe8, 0xf8, 0xe6, 0x0a, 0x2b, 0xd5, 0x15, 0xcc, 0x16, 0xc4, 0x3b, 0xe6, 0xef, 0x01, 0xe1, 0xda,
  0xce, 0xd4, 0xd4, 0xfe, 0x0b, 0x22, 0xd7, 0x31, 0x0b, 0xfd, 0x40, 0xfb, 0x30, 0xf2, 0xfd, 0xd1,
  0x4e, 0x00, 0xb2, 0x70, 0x08, 0xa2, 0xf8, 0xfd, 0x85, 0xa5, 0xe5, 0xbb, 0x31, 0xe9, 0x30, 0x5e,
  0xdf, 0xb5, 0x47, 0x97, 0xda, 0xb3, 0x88, 0xe9, 0xb7, 0xfe, 0xf2, 0x01, 0x94, 0xf6, 0x49, 0xe2,
  0x8f, 0x56, 0xe8, 0xc1, 0x33, 0xce, 0xfb, 0x4f, 0x47, 0x4d, 0x41, 0x61, 0x63, 0xa2, 0x0e, 0xae,
  0xca, 0x86, 0xf0, 0x95, 0x84, 0x4c, 0x4a, 0xce, 0x81, 0x97, 0x6c, 0xf5, 0x09, 0x56, 0xa6, 0x18,
  0x17, 0xa6, 0x14, 0x00, 0x4b, 0xb4, 0xa8, 0x71, 0x2f, 0x30, 0x0c, 0x95, 0xdb, 0x31, 0xf8, 0xfd,
  0x08, 0x08, 0xb5, 0xda, 0xee, 0x92, 0xf0, 0x8c, 0x5d, 0x10, 0xbc, 0xd8, 0x15, 0x14, 0x8c, 0xfc,
  0xb3, 0xdb, 0x94, 0xc8, 0x8f, 0x0f, 0x98, 0x0a, 0x43, 0xa5, 0xf8, 0xae, 0xc9, 0xef, 0x30, 0x00,
  0xe6, 0xc5, 0x43, 0xc0, 0xfd, 0xf0, 0x20, 0x13, 0x23, 0x23, 0xec, 0x8e, 0xc7, 0xfb, 0x0f, 0xe9,
  0x31, 0x0a, 0x07, 0xdb, 0xb7, 0x3e, 0x2a, 0xca, 0x30, 0x1a, 0xb6, 0x05, 0xc3, 0x4c, 0x2b, 0x0b,
  0xdb, 0x27, 0x99, 0x7f, 0x0a, 0xb7, 0x9c, 0x63, 0x33, 0x36, 0xfa, 0x48, 0x13, 0x31, 0xfa, 0x24,
  0x43, 0xf9, 0x28, 0xe4, 0xfa, 0xe0, 0x21, 0x1a, 0xc2, 0x49, 0xae, 0x47, 0x3f, 0xdf, 0x97, 0x2f,
  0x06, 0xec, 0x1b, 0xdf, 0x10, 0x24, 0xa0, 0x05, 0xf9, 0xdc, 0x0b, 0xbf, 0xb0, 0xf5, 0xbc, 0xf2,
  0x1c, 0x23, 0xe1, 0xce, 0x3f, 0xca, 0x03, 0x56, 0xda, 0xbe, 0xe5, 0x2c, 0xb9, 0x4a, 0xe6, 0x3d,
  0xf2, 0xd6, 0xe1, 0xdf, 0x08, 0xfd, 0x1c, 0x38, 0x1b, 0x09, 0x2b, 0x57, 0xd2, 0x0d, 0x39, 0x16,
  0xe7, 0x39, 0x27, 0xfd, 0x02, 0x0c, 0x74, 0x6a, 0x48, 0xde, 0x7f, 0x6e, 0xef, 0xa3, 0xcc, 0x36,
  0x53, 0xec, 0x5e, 0x3f, 0xdf, 0x27, 0xee, 0x2a, 0x0c, 0xf9, 0xdb, 0x3a, 0xfe, 0xbb, 0x73, 0x07,
  0x26, 0xd5, 0xfa, 0xfd, 0x00, 0xb6, 0xad, 0x02, 0xf7, 0x22, 0xd5, 0x91, 0xb8, 0xf1, 0x55, 0x43,
  0xeb, 0x0b, 0xfd, 0x41, 0x2b, 0xe5, 0x43, 0xf7, 0x09, 0x43, 0x56, 0xf0, 0xf3, 0x3b, 0x2a, 0x36,
  0x0b, 0xfc, 0xf9, 0xfd, 0xc8, 0xe9, 0x17, 0xad, 0xdf, 0x06, 0x0c, 0x00, 0xf6, 0x18, 0xbf, 0x1d,
  0x49, 0xc8, 0xe6, 0x25, 0x04, 0xc0, 0xd4, 0x75, 0xe3, 0xdf, 0x42, 0x32, 0xda, 0xed, 0xf9, 0xec,
  0x16, 0x1d, 0x10, 0x25, 0xda, 0x00, 0x9d, 0x17, 0x22, 0x3c, 0x27, 0xd5, 0x0b, 0x10, 0xd2, 0xcc,
  0xf7, 0x07, 0x2c, 0x3c, 0x23, 0xeb, 0x9d, 0x3a, 0xfc, 0x09, 0x0a, 0x24, 0x3f, 0xbd, 0x05, 0xfe,
  0xcc, 0xbd, 0x4d, 0xde, 0xfa, 0xfa, 0x04, 0x2c, 0xfe, 0x01, 0x3c, 0x64, 0x28, 0xdd, 0xf7, 0x6d,
  0x06, 0x36, 0x19, 0x15, 0x31, 0xea, 0xb0, 0x2c, 0x44, 0x3a, 0xaf, 0xa6, 0x76, 0xf5, 0x7f, 0x00,
  0xca, 0x1b, 0x12, 0x6c, 0xb6, 0x25, 0x43, 0xe8, 0xed, 0xf0, 0xed, 0x04, 0x03, 0xd1, 0xdb, 0xfa,
  0x0b, 0x1f, 0x51, 0xf6, 0xde, 0x22, 0xea, 0x25, 0xcb, 0x0f, 0xeb, 0x20, 0x0d, 0xf3, 0x30, 0x09,
  0xcb, 0x2e, 0x24, 0x17, 0xfb, 0xf5, 0x28, 0xf2, 0xf6, 0x02, 0xe0, 0xbc, 0x17, 0x23, 0xfb, 0x4b,
  0xf4, 0x18, 0x12, 0x61, 0xee, 0xff, 0xf5, 0xf5, 0x02, 0x0f, 0x23, 0xe3, 0x01, 0x00, 0xf9, 0x7f,
  0xf8, 0xe1, 0x31, 0xef, 0x0a, 0xf4, 0x1c, 0xfc, 0x1f, 0xf4, 0x1a, 0x36, 0xe7, 0xf6, 0xf3, 0x2d,
  0x1e, 0x21, 0xfb, 0x00, 0xf4, 0xee, 0xe9, 0x43, 0x26, 0x0e, 0x00, 0xf4, 0x1f, 0x04, 0x28, 0x1c,
  0x23, 0xe1, 0xf1, 0x31, 0xfe, 0x0e, 0x0d, 0x24, 0xea, 0x16, 0xe6, 0x1e, 0x09, 0xf8, 0xe9, 0x1f,
  0x04, 0x04, 0x04, 0x13, 0x02, 0xfc, 0xfc, 0x49, 0x01, 0xf6, 0x00, 0xfd, 0xfd, 0x02, 0x11, 0xfe,
  0xee, 0x14, 0x0a, 0x0c, 0xf9, 0xfa, 0x19, 0x0f, 0x13, 0xf5, 0xf4, 0xfc, 0x0f, 0xee, 0xfa, 0x17,
  0xfa, 0xf7, 0x0c, 0xeb, 0xec, 0xf1, 0x28, 0x14, 0x08, 0x0c, 0xfb, 0x50, 0xe8, 0xd5, 0x4b, 0x71,
  0x18, 0x22, 0x03, 0xe6, 0xd3, 0xd5, 0x0d, 0xf9, 0xee, 0x12, 0x30, 0x7f, 0xe5, 0x35, 0xf3, 0x43,
  0x40, 0x19, 0xc9, 0xf8, 0xcd, 0x22, 0x03, 0x3d, 0x06, 0x0a, 0xe3, 0xfe, 0xeb, 0xc5, 0x35, 0x37,
  0x3a, 0x07, 0x40, 0x38, 0xd8, 0x21, 0x39, 0x14, 0x24, 0x1a, 0xd2, 0x25, 0x1b, 0xe9, 0x64, 0x91,
  0x24, 0x35, 0xea, 0xf6, 0x1c, 0x3d, 0x35, 0x4e, 0x3c, 0x3f, 0x19, 0xf3, 0xcf, 0x38, 0xf8, 0x42,
  0x33, 0x33, 0xc8, 0x50, 0x3a, 0xda, 0xec, 0xc7, 0xe8, 0xeb, 0x0e, 0x00, 0xc5, 0xd5, 0xf0, 0xea,
  0x3d, 0x12, 0xcc, 0x15, 0xd7, 0x1f, 0xcc, 0x06, 0x22, 0x2b, 0xe5, 0x1d, 0xd4, 0xdf, 0x3d, 0xd4,
  0x2d, 0xd1, 0xce, 0x3b, 0xcd, 0x0f, 0xf4, 0x5b, 0x0e, 0xd7, 0x28, 0x69, 0x0b, 0xd3, 0xc5, 0xfe,
  0xf3, 0xdf, 0x42, 0x0b, 0xe6, 0xf5, 0xff, 0x27, 0x32, 0xba, 0x4e, 0x66, 0x25, 0xe2, 0xd9, 0x3b,
  0x22, 0x09, 0x09, 0x05, 0xcf, 0xf5, 0x11, 0x14, 0xfd, 0x19, 0xfe, 0xe6, 0x3a, 0xcf, 0x16, 0x48,
  0xe4, 0xfb, 0x4e, 0x02, 0x81, 0x01, 0x13, 0x12, 0xf9, 0xc3, 0x03, 0x5e, 0x38, 0xe3, 0xfc, 0xe3,
  0x77, 0xe2, 0xfb, 0xec, 0x3d, 0xd6, 0x02, 0x21, 0xe8, 0x2a, 0x33, 0x63, 0x2c, 0xd9, 0x12, 0xf7,
  0xcb, 0x33, 0xef, 0x24, 0x0b, 0x16, 0xc7, 0x0c, 0x4b, 0xd7, 0x5e, 0x46, 0x2f, 0xcc, 0xc7, 0x25,
  0x41, 0x0a, 0x29, 0x13, 0xd2, 0x3b, 0x22, 0x42, 0x42, 0xf5, 0x63, 0xe1, 0xd0, 0x11, 0xdc, 0x00,
  0xee, 0xfe, 0xd7, 0x1a, 0x6e, 0xe3, 0xff, 0xff, 0x04, 0x00, 0x00, 0x00, 0x30, 0x00, 0x00, 0x00,
  0xb6, 0xfe, 0xff, 0xff, 0xee, 0x03, 0x00, 0x00, 0xf1, 0xff, 0xff, 0xff, 0xdd, 0xff, 0xff, 0xff,
  0x5d, 0xfc, 0xff, 0xff, 0xff, 0xe5, 0xff, 0xff, 0xae, 0x00, 0x00, 0x00, 0xb8, 0xff, 0xff, 0xff,
  0xb3, 0x00, 0x00, 0x00, 0xed, 0xff, 0xff, 0xff, 0x97, 0x03, 0x00, 0x00, 0x56, 0xf8, 0xff, 0xff,
  0xaa, 0xe3, 0xff, 0xff, 0x04, 0x00, 0x00, 0x00, 0x10, 0x05, 0x00, 0x00, 0x32, 0x07, 0xa8, 0x7a,
  0x45, 0x39, 0xc2, 0xb6, 0x06, 0x3e, 0x34, 0xe1, 0x41, 0xa3, 0xd8, 0x7f, 0x12, 0xe3, 0xcd, 0xed,
  0x2b, 0x08, 0x3a, 0x28, 0x3b, 0xe3, 0x08, 0xca, 0xba, 0x06, 0x07, 0xe9, 0xdd, 0x1e, 0x0e, 0xbe,
  0xd5, 0xf9, 0x08, 0xd2, 0xe0, 0xc4, 0xfd, 0x3d, 0xf0, 0x1d, 0x22, 0x56, 0xde, 0xf0, 0x10, 0xf1,
  0x66, 0xdd, 0x24, 0x45, 0xd6, 0xf3, 0xce, 0xeb, 0xf8, 0x41, 0xca, 0x2e, 0xbc, 0xe2, 0x36, 0x03,
  0x06, 0xa5, 0x06, 0x2d, 0xfa, 0xf2, 0xfd, 0x2c, 0x3a, 0x06, 0xf5, 0x30, 0xcf, 0x33, 0x34, 0xf2,
  0xec, 0x21, 0xef, 0xfa, 0x11, 0x40, 0x0b, 0x11, 0x0e, 0x11, 0xeb, 0x28, 0x20, 0x39, 0xc6, 0xf3,
  0xec, 0xea, 0xd2, 0x23, 0x29, 0x00, 0x02, 0xde, 0x0c, 0x81, 0x16, 0xff, 0xfa, 0x20, 0x3c, 0xaf,
  0xc4, 0x12, 0xf8, 0x1f, 0x1a, 0xf0, 0xfd, 0x2f, 0x4b, 0x38, 0xf0, 0xfe, 0x57, 0x21, 0x42, 0xf1,
  0x00, 0xe9, 0x0f, 0xae, 0x3a, 0x30, 0xdf, 0xd2, 0xbb, 0xe3, 0xf5, 0xed, 0xdd, 0xd9, 0xc7, 0x1e,
  0x11, 0xd0, 0x30, 0x3c, 0xf0, 0x34, 0x3a, 0x08, 0xe9, 0xb0, 0xdd, 0x41, 0x05, 0x22, 0x38, 0xc6,
  0x7b, 0x0f, 0xfd, 0x0c, 0x1d, 0x16, 0x19, 0xe2, 0xf0, 0x33, 0xcd, 0xff, 0x15, 0x24, 0xfe, 0x0c,
  0x1a, 0xea, 0x77, 0xe6, 0xea, 0x1d, 0x1b, 0xcf, 0x18, 0x26, 0x27, 0xf2, 0xd4, 0xe6, 0x39, 0xfa,
  0x0f, 0x19, 0xc1, 0x42, 0xc2, 0x00, 0x01, 0x28, 0xe2, 0x00, 0x1e, 0x32, 0x05, 0x1a, 0x0e, 0xf0,
  0xef, 0xee, 0x12, 0xe7, 0x0b, 0xf4, 0x36, 0x2f, 0x53, 0x0f, 0xd6, 0xdc, 0xdd, 0xe4, 0x02, 0xe7,
  0x02, 0x35, 0x26, 0x81, 0xf8, 0xd0, 0x02, 0x0f, 0xe7, 0x18, 0x1c, 0xf4, 0x2e, 0xf7, 0x3a, 0xe9,
  0xd1, 0x0b, 0x2e, 0xf7, 0xf2, 0x15, 0xff, 0x26, 0x1d, 0xc5, 0xce, 0x3e, 0x1d, 0xfa, 0x31, 0x23,
  0xc7, 0x2a, 0xd4, 0x37, 0xfe, 0xcb, 0xf6, 0x39, 0x28, 0xf2, 0x35, 0xe0, 0x06, 0x05, 0x2b, 0x12,
  0x19, 0x43, 0xe8, 0xef, 0xbf, 0x33, 0xd4, 0xde, 0x36, 0xea, 0xc6, 0xf0, 0x28, 0x04, 0x2c, 0x11,
  0x35, 0xd7, 0xdf, 0x00, 0x15, 0xfb, 0xf1, 0x3c, 0xde, 0x16, 0xca, 0xd4, 0xee, 0x0b, 0x01, 0x1e,
  0xd1, 0xfe, 0xf3, 0xf0, 0xe0, 0xe5, 0x26, 0xd5, 0xfe, 0x13, 0xe3, 0x0c, 0xde, 0x33, 0xef, 0x1a,
  0x0f, 0xbb, 0xf0, 0x48, 0xe6, 0xe2, 0x21, 0xf7, 0x06, 0x10, 0x0a, 0x28, 0xf0, 0xd2, 0xdc, 0x16,
  0x41, 0x24, 0xf1, 0xbe, 0xf6, 0x12, 0xe6, 0x08, 0xe6, 0x00, 0xe7, 0x4e, 0x03, 0xf8, 0xf5, 0x11,
  0x0a, 0x0c, 0xe0, 0xf7, 0xe6, 0xac, 0x1f, 0xed, 0x02, 0xed, 0xfe, 0xeb, 0xe1, 0x13, 0x3b, 0x14,
  0x1e, 0x08, 0x20, 0x1b, 0xf0, 0x29, 0x28, 0x43, 0x35, 0x1e, 0x24, 0x0e, 0x14, 0x1a, 0x07, 0x0c,
  0x1c, 0x26, 0xec, 0xea, 0xde, 0xf7, 0xfc, 0x1b, 0xf3, 0xc4, 0xf2, 0xfe, 0x39, 0x00, 0x2b, 0xec,
  0xdd, 0x01, 0x25, 0x00, 0xff, 0xe9, 0xfd, 0x06, 0x20, 0xd6, 0xdf, 0xc4, 0x16, 0x13, 0xf3, 0xf0,
  0x05, 0x1c, 0xd8, 0xfd, 0xf2, 0xd5, 0xf7, 0x7f, 0x11, 0xf1, 0xf6, 0x00, 0x48, 0x83, 0x5b, 0x04,
  0x7d, 0xeb, 0x1d, 0xe0, 0xbd, 0xae, 0x31, 0xe2, 0xf2, 0xe7, 0xca, 0xaa, 0xe8, 0xcd, 0xfc, 0xf2,
  0x65, 0x22, 0x0c, 0x15, 0x33, 0xa5, 0xef, 0xb7, 0xc1, 0x44, 0x1f, 0x0e, 0x37, 0x01, 0x12, 0xdb,
  0x5e, 0xd8, 0xee, 0x11, 0x2b, 0x29, 0x08, 0x10, 0x1e, 0x3f, 0x1e, 0x59, 0x18, 0x05, 0xf2, 0xc6,
  0xb5, 0x2b, 0x29, 0xe1, 0x27, 0xf7, 0xf9, 0x23, 0x43, 0x36, 0x23, 0xe8, 0x92, 0xf5, 0x4c, 0xcf,
  0x60, 0x01, 0xe7, 0xfa, 0xea, 0x0f, 0xda, 0xfd, 0x60, 0x19, 0x3a, 0xd4, 0x9f, 0xe9, 0x17, 0xbe,
  0x09, 0xc2, 0x28, 0x5e, 0xc2, 0xb6, 0x25, 0x81, 0xf5, 0x8d, 0xff, 0x25, 0xc2, 0x13, 0x3f, 0x32,
  0xfc, 0xf2, 0x26, 0x42, 0x1a, 0x33, 0xc5, 0xef, 0x08, 0x0b, 0x13, 0x1c, 0x04, 0x0d, 0x0a, 0xd7,
  0xf8, 0xf1, 0xe3, 0x05, 0xef, 0x5c, 0xdf, 0x35, 0x10, 0x2b, 0xe1, 0xce, 0xfb, 0x09, 0x2e, 0xdd,
  0x20, 0xc2, 0xee, 0xf3, 0x03, 0x27, 0x23, 0x06, 0x16, 0xe6, 0x19, 0x27, 0x14, 0x7f, 0x1a, 0xfe,
  0x19, 0xe0, 0xec, 0x08, 0x08, 0x1e, 0x11, 0xdc, 0xee, 0x1b, 0x19, 0xed, 0x4b, 0xe9, 0xf1, 0x14,
  0x38, 0xe2, 0xe7, 0x20, 0xef, 0x3e, 0xf0, 0xec, 0xdd, 0x0e, 0x1d, 0xe8, 0x2d, 0xff, 0x38, 0x08,
  0xeb, 0x14, 0x1f, 0xd3, 0x23, 0xd8, 0xf3, 0x07, 0x10, 0x14, 0xed, 0x01, 0x1e, 0xe3, 0xc5, 0xf6,
  0xfd, 0x03, 0xe9, 0xdc, 0x0c, 0x15, 0x36, 0x01, 0xfb, 0x10, 0x27, 0x0e, 0xf9, 0xe2, 0x03, 0x29,
  0x14, 0xd9, 0xf3, 0xea, 0x34, 0xc2, 0x20, 0x1f, 0x36, 0xee, 0xca, 0xfd, 0xfd, 0xe8, 0xee, 0x08,
  0x20, 0xb5, 0xe4, 0xfe, 0x02, 0xc3, 0xe6, 0xcc, 0x44, 0xeb, 0x35, 0xe8, 0x36, 0x22, 0xde, 0xa6,
  0xd5, 0xe0, 0x1c, 0x01, 0xdf, 0x29, 0xff, 0x1c, 0xf9, 0xaf, 0xe8, 0xed, 0x16, 0xd2, 0xf7, 0x3e,
  0x13, 0xd4, 0xd9, 0xf0, 0x2a, 0xa6, 0x38, 0xf3, 0xf0, 0xe7, 0xde, 0x24, 0xdc, 0x1a, 0x18, 0xc5,
  0xcd, 0x7f, 0x23, 0x1f, 0x04, 0x30, 0x2b, 0xe3, 0xdc, 0x16, 0xdd, 0x05, 0x25, 0x0e, 0xf2, 0x05,
  0x1c, 0xd8, 0xce, 0x66, 0xc2, 0x17, 0xf0, 0xe2, 0xe8, 0xc6, 0xea, 0x00, 0x10, 0x28, 0x21, 0x53,
  0xe1, 0xe6, 0x02, 0xce, 0x3a, 0x54, 0xf5, 0x1b, 0xfe, 0x0c, 0x3a, 0xf0, 0x12, 0xe6, 0xda, 0xe0,
  0x16, 0xc7, 0xff, 0x3d, 0x06, 0x25, 0x14, 0xfc, 0xf5, 0x1a, 0xd0, 0xe3, 0xf2, 0xa4, 0x1c, 0x50,
  0x1e, 0xfe, 0xe1, 0xb7, 0x0e, 0x02, 0x1c, 0x33, 0x0b, 0xe4, 0xda, 0x86, 0x03, 0x2b, 0x26, 0xf2,
  0xd0, 0x02, 0xd9, 0x38, 0x11, 0x1d, 0x32, 0xf9, 0x15, 0x28, 0xe3, 0xfd, 0x25, 0xe4, 0x12, 0xfc,
  0xd0, 0x81, 0xe4, 0x01, 0x08, 0x13, 0xfe, 0x1a, 0x18, 0xe8, 0x3c, 0x41, 0xed, 0xe2, 0x40, 0x29,
  0x05, 0x1c, 0x11, 0xec, 0x02, 0x6c, 0xf3, 0x14, 0x0d, 0x0a, 0xeb, 0x0e, 0x2e, 0xd5, 0xff, 0xef,
  0x02, 0x14, 0x10, 0xfa, 0x0c, 0xdc, 0x0f, 0x05, 0xee, 0xfe, 0xfe, 0x09, 0x33, 0xea, 0x09, 0xe2,
  0xfe, 0x28, 0x0c, 0x00, 0x0d, 0xe5, 0x06, 0xbe, 0x1c, 0x0c, 0x00, 0x02, 0xd9, 0x8c, 0xdf, 0xb0,
  0xd0, 0xeb, 0x13, 0xd3, 0xcb, 0x33, 0x41, 0xee, 0xfa, 0xc8, 0x00, 0xaa, 0xaf, 0xbf, 0x41, 0x1a,
  0x47, 0x01, 0x23, 0x3e, 0xe8, 0x81, 0x11, 0x7c, 0x1e, 0xd8, 0x37, 0x0f, 0x12, 0x32, 0xfd, 0xaf,
  0x23, 0x40, 0x22, 0xef, 0x0b, 0x06, 0xf2, 0x3c, 0xfc, 0x1b, 0xbd, 0xf5, 0xb7, 0x4d, 0xd9, 0x1c,
  0x25, 0x10, 0x26, 0x9b, 0x45, 0xea, 0x2f, 0x07, 0x1f, 0x3b, 0x08, 0x03, 0x2a, 0xbf, 0xc2, 0xf6,
  0x27, 0x14, 0xf1, 0x5e, 0x0d, 0x03, 0xd3, 0x25, 0x4b, 0x16, 0x24, 0x0e, 0x07, 0xc6, 0xc7, 0x21,
  0x09, 0x08, 0xfc, 0xdb, 0x20, 0xc7, 0xf3, 0x34, 0xf8, 0x30, 0x1c, 0xfe, 0xe2, 0xc5, 0xf3, 0xe5,
  0x0a, 0x3a, 0x05, 0xd7, 0xe0, 0x3a, 0x27, 0x0b, 0x0a, 0xfa, 0x9b, 0x30, 0x01, 0x05, 0xfc, 0xf2,
  0x16, 0xd1, 0xc5, 0x55, 0xd1, 0xff, 0xf8, 0xc3, 0xfe, 0xe9, 0x0d, 0x25, 0x26, 0x22, 0xcb, 0xc7,
  0xe0, 0x14, 0xd0, 0xee, 0x54, 0xfb, 0x05, 0xf7, 0xe5, 0xfd, 0x1b, 0x0f, 0xee, 0x18, 0x24, 0x58,
  0x07, 0x1a, 0xf4, 0x1d, 0xf4, 0x21, 0xdc, 0xd5, 0xf7, 0xf4, 0xe4, 0x2d, 0xed, 0x26, 0x20, 0x93,
  0x06, 0xbc, 0x32, 0x3d, 0x04, 0x06, 0x0a, 0x7f, 0x05, 0xe4, 0x1f, 0x25, 0x36, 0xe9, 0x3a, 0xeb,
  0x18, 0xf6, 0xd7, 0x04, 0x49, 0x1d, 0xd9, 0xf3, 0xdc, 0x22, 0x04, 0xe2, 0x10, 0xc7, 0x0d, 0x02,
  0xbe, 0xde, 0x08, 0xaf, 0x1a, 0x01, 0xd8, 0xf3, 0x08, 0xed, 0x12, 0xde, 0x15, 0xfe, 0x11, 0x14,
  0x07, 0xec, 0xe6, 0xfb, 0xeb, 0xf8, 0x50, 0x32, 0xf2, 0xc0, 0xe7, 0x12, 0x2e, 0xe6, 0x59, 0x9e,
  0x1e, 0x2f, 0xb4, 0x67, 0x64, 0x20, 0xee, 0x21, 0x03, 0xef, 0xcb, 0xec, 0xd1, 0xc6, 0x08, 0x33,
  0xff, 0xd8, 0xc4, 0x14, 0x39, 0xf9, 0xc0, 0x20, 0x6c, 0xf8, 0xe5, 0x33, 0x7d, 0xed, 0x3d, 0xf6,
  0xc4, 0xc8, 0x03, 0xd9, 0x19, 0x8c, 0xa7, 0x47, 0x14, 0x21, 0x6e, 0xb4, 0x7f, 0x0f, 0x7d, 0x73,
  0xef, 0xb7, 0x57, 0x0e, 0x35, 0x3d, 0x02, 0x06, 0x26, 0x2f, 0x2e, 0xc2, 0xd5, 0x10, 0xe2, 0x08,
  0x0b, 0xcb, 0x0e, 0x06, 0x00, 0xf2, 0xff, 0x35, 0x1c, 0xed, 0xca, 0xe7, 0x10, 0x26, 0x0b, 0xcf,
  0x60, 0xba, 0xef, 0x4e, 0xd4, 0xc9, 0x08, 0x20, 0x3c, 0x31, 0xce, 0xee, 0xcc, 0x1d, 0x30, 0x29,
  0x0a, 0xe9, 0x01, 0xf8, 0x1a, 0x09, 0x0e, 0x01, 0xf6, 0x0d, 0x0a, 0xff, 0xe9, 0x20, 0xf6, 0x48,
  0xf0, 0xea, 0x11, 0x0f, 0x07, 0x0d, 0xf3, 0xf8, 0xef, 0xcf, 0xba, 0x21, 0x41, 0xf2, 0xd5, 0xe9,
  0xfb, 0xfd, 0xf4, 0x15, 0x1b, 0xc9, 0x14, 0x04, 0x0a, 0xfc, 0xfb, 0x24, 0x04, 0xe6, 0xff, 0x08,
  0x1a, 0x0d, 0x04, 0x4c, 0x50, 0x12, 0x09, 0xd7, 0x03, 0x1b, 0x07, 0x23, 0xe1, 0xdc, 0xf3, 0xee,
  0x41, 0x1e, 0x04, 0xbd, 0x22, 0xe0, 0x24, 0xf1, 0xe7, 0x03, 0xdb, 0x29, 0x18, 0x0a, 0x06, 0xfb,
  0xf0, 0x13, 0x05, 0xed, 0xf1, 0x91, 0xa6, 0x08, 0x1b, 0x07, 0xef, 0xbd, 0x39, 0xa2, 0x0e, 0x0a,
  0x0a, 0xb9, 0x13, 0xf6, 0x1a, 0x02, 0xf5, 0x81, 0xe5, 0xf2, 0xfc, 0xfe, 0xc6, 0xe8, 0xff, 0xff,
  0x04, 0x00, 0x00, 0x00, 0x30, 0x00, 0x00, 0x00, 0xa9, 0xfc, 0xff, 0xff, 0x03, 0x02, 0x00, 0x00,
  0x71, 0x02, 0x00, 0x00, 0xc3, 0x00, 0x00, 0x00, 0x69, 0x02, 0x00, 0x00, 0xe7, 0xfd, 0xff, 0xff,
  0x5c, 0x01, 0x00, 0x00, 0xf9, 0x00, 0x00, 0x00, 0x92, 0x03, 0x00, 0x00, 0x11, 0x01, 0x00, 0x00,
  0x49, 0x06, 0x00, 0x00, 0xda, 0x00, 0x00, 0x00, 0x02, 0xe9, 0xff, 0xff, 0x04, 0x00, 0x00, 0x00,
  0x10, 0x05, 0x00, 0x00, 0x52, 0xfc, 0xdd, 0x18, 0xe5, 0xec, 0x1c, 0x1c, 0x14, 0x03, 0xe8, 0xe5,
  0xd1, 0xf0, 0x0e, 0xd3, 0x11, 0x30, 0xea, 0x1c, 0xea, 0x48, 0x2a, 0xf0, 0x3c, 0xe0, 0xc5, 0x43,
  0x4e, 0xe2, 0x02, 0x14, 0x22, 0x0d, 0x34, 0x4b, 0x18, 0x0a, 0xd9, 0xa3, 0x4e, 0xe5, 0x09, 0xee,
  0xb6, 0x27, 0x81, 0xee, 0x05, 0x12, 0x07, 0xef, 0x11, 0x0d, 0x25, 0x26, 0x05, 0xef, 0x10, 0x66,
  0x1e, 0x37, 0xdd, 0xe7, 0x04, 0x43, 0x4c, 0x23, 0xe9, 0xe7, 0x3e, 0x53, 0xdb, 0x1f, 0xc8, 0x02,
  0x11, 0x0d, 0x32, 0x36, 0xf1, 0xe2, 0xb2, 0x0d, 0xf0, 0x2a, 0x40, 0x0e, 0x00, 0x42, 0xd3, 0xd9,
  0x57, 0x93, 0x28, 0x42, 0x14, 0xe1, 0x20, 0xfb, 0x2a, 0xdf, 0x4c, 0xd8, 0x2b, 0xaf, 0x3b, 0xe0,
  0xfd, 0x02, 0xf7, 0x00, 0x0a, 0x13, 0x08, 0xf7, 0xf9, 0x1f, 0xf1, 0x47, 0x03, 0xf4, 0xfb, 0x0d,
  0x03, 0xf0, 0x1b, 0x0a, 0xfa, 0xfe, 0x1a, 0x34, 0xf9, 0x05, 0xfc, 0x0e, 0x02, 0xe9, 0xfe, 0xf1,
  0xff, 0x0b, 0xee, 0xf4, 0x08, 0x09, 0x06, 0xf3, 0xf0, 0xf6, 0x12, 0x19, 0xf6, 0x0c, 0x03, 0x7f,
  0xf2, 0x0e, 0xfe, 0x19, 0xf2, 0xf7, 0xfd, 0x17, 0x08, 0x09, 0x19, 0xe2, 0x0d, 0xf3, 0x03, 0x19,
  0x0b, 0xf3, 0x02, 0x07, 0x00, 0xff, 0xf9, 0x0d, 0x03, 0xf6, 0xea, 0x05, 0x04, 0x0b, 0xe3, 0xde,
  0x0c, 0xec, 0x17, 0xea, 0xfa, 0x1b, 0xf0, 0xfa, 0x04, 0xd1, 0x1b, 0x19, 0x1f, 0xdf, 0xe4, 0xe4,
  0xea, 0xe1, 0xf3, 0xf2, 0xfd, 0x0b, 0xf3, 0xf5, 0xbc, 0x08, 0x0b, 0x35, 0x0c, 0x0d, 0x08, 0xc3,
  0xf6, 0xe1, 0xf9, 0x00, 0xf2, 0xfd, 0xef, 0xad, 0xfd, 0xf7, 0xf2, 0xf2, 0x1c, 0x1d, 0xe8, 0x13,
  0xe8, 0x35, 0xff, 0x7f, 0x13, 0x01, 0xfa, 0x25, 0x08, 0xf9, 0xed, 0xf3, 0xf6, 0xe4, 0xf5, 0xec,
  0x1b, 0x09, 0xf4, 0xdd, 0xe2, 0xde, 0xdd, 0xf5, 0x12, 0x10, 0xf3, 0x56, 0x10, 0xf6, 0x3a, 0xf3,
  0xff, 0xf6, 0x2b, 0x24, 0x11, 0x2e, 0x0e, 0x52, 0xe8, 0x04, 0xe5, 0x19, 0x23, 0xf4, 0x18, 0x0e,
  0xf3, 0xbe, 0x1f, 0x1e, 0xf5, 0xce, 0xdd, 0xf1, 0xea, 0x18, 0x1f, 0x14, 0xb0, 0x16, 0x34, 0xbe,
  0x27, 0x20, 0x03, 0xef, 0xe6, 0xea, 0x0c, 0x01, 0x2b, 0x19, 0x06, 0xf4, 0x13, 0x00, 0xf5, 0x18,
  0x0b, 0xf6, 0xe9, 0xe7, 0xff, 0xdf, 0xcd, 0x05, 0xce, 0xf2, 0x01, 0x2b, 0x3e, 0xf6, 0x16, 0x38,
  0xd8, 0x33, 0xf4, 0xe5, 0x2c, 0xc2, 0x2e, 0x32, 0x04, 0x1a, 0xdd, 0xf9, 0xf8, 0xfa, 0x13, 0x3e,
  0xf9, 0xed, 0xf7, 0xf6, 0x43, 0x10, 0xfc, 0x1e, 0xf7, 0x1a, 0x4d, 0x14, 0x33, 0xe7, 0x2a, 0xbf,
  0x29, 0x2b, 0x35, 0xdc, 0xdc, 0xeb, 0xf0, 0x27, 0x21, 0xeb, 0x3f, 0x29, 0x17, 0x1c, 0xe9, 0xdf,
  0x36, 0xcf, 0xd2, 0x0d, 0x3a, 0x10, 0x3e, 0xe0, 0x42, 0xce, 0x2b, 0xf9, 0xf4, 0x1f, 0x37, 0x36,
  0xf6, 0xe4, 0x15, 0xff, 0xdf, 0xd1, 0x09, 0x11, 0xf4, 0xee, 0xb4, 0x81, 0xe5, 0x38, 0xda, 0x11,
  0xc9, 0xea, 0x07, 0xe8, 0xd8, 0xe1, 0xe3, 0x36, 0xd1, 0x05, 0x2e, 0x0b, 0x34, 0xd9, 0x33, 0xd4,
  0x3b, 0xef, 0x0a, 0xe6, 0x1b, 0x07, 0xfc, 0xce, 0x0c, 0x15, 0xda, 0xd6, 0xfc, 0xea, 0xe5, 0x9e,
  0x1c, 0xfa, 0xf6, 0xef, 0xfe, 0xd3, 0xdb, 0xf4, 0x07, 0x0c, 0x45, 0x0c, 0x06, 0xf4, 0xd0, 0x3c,
  0x32, 0x1e, 0xec, 0x10, 0xff, 0xe3, 0xca, 0xc5, 0x1a, 0xe7, 0x31, 0xd6, 0x12, 0x07, 0x0a, 0xd2,
  0x0d, 0x77, 0x1b, 0x5b, 0xd9, 0x4e, 0xd6, 0x15, 0x22, 0xc2, 0x0d, 0x33, 0x2a, 0xde, 0x28, 0x53,
  0x20, 0xd8, 0x05, 0x2a, 0x0f, 0xfb, 0xdc, 0x07, 0x12, 0x9c, 0x06, 0xea, 0xec, 0xb3, 0x21, 0x0f,
  0xdd, 0xfd, 0x03, 0x9a, 0xcb, 0x81, 0x41, 0x56, 0xfa, 0x4d, 0x02, 0xf7, 0xda, 0xf8, 0xdb, 0xf3,
  0xf7, 0x0d, 0x14, 0x1f, 0xf5, 0xd1, 0xf7, 0xf9, 0x10, 0xd9, 0xf2, 0x35, 0xcc, 0xe9, 0xfc, 0xf3,
  0xf1, 0xfc, 0x14, 0x08, 0x0c, 0x04, 0xea, 0x11, 0x03, 0xef, 0xea, 0xd3, 0x16, 0x05, 0xfe, 0xf2,
  0xe9, 0xf9, 0x07, 0xfe, 0x03, 0x26, 0x01, 0xd8, 0x02, 0xf3, 0xf1, 0xf7, 0x14, 0xfe, 0xee, 0x18,
  0xf5, 0xe4, 0x0e, 0xf4, 0xf7, 0xf1, 0x0e, 0x19, 0xf9, 0xff, 0x02, 0x00, 0x16, 0xf6, 0xfc, 0x81,
  0x07, 0xf7, 0x19, 0x02, 0x07, 0x12, 0xfe, 0x0c, 0x13, 0x23, 0xf7, 0x23, 0x0f, 0x17, 0x1d, 0x09,
  0x04, 0x02, 0xfa, 0x06, 0x03, 0xef, 0x01, 0x02, 0xf1, 0x0c, 0xf6, 0x02, 0xed, 0xe7, 0x03, 0x04,
  0xfd, 0x22, 0xf3, 0x04, 0x1a, 0x05, 0xee, 0xf8, 0x14, 0x06, 0x0e, 0xf7, 0x09, 0xe9, 0xfa, 0x14,
  0xf4, 0x14, 0xf1, 0xf0, 0xf6, 0x01, 0x08, 0xfb, 0xf5, 0x0c, 0x02, 0xfd, 0xc9, 0xe9, 0xf8, 0xc3,
  0x95, 0xc9, 0xb8, 0x51, 0xca, 0xbf, 0xcd, 0x0f, 0xd1, 0x68, 0x20, 0xf2, 0x81, 0x99, 0x43, 0xea,
  0xcd, 0x81, 0x18, 0x96, 0x14, 0xbc, 0xb5, 0x16, 0x5c, 0xba, 0x8a, 0x3f, 0xce, 0x24, 0x02, 0x9b,
  0xcb, 0x2f, 0xa6, 0xf7, 0x9e, 0xf6, 0x21, 0x8d, 0xff, 0x3d, 0xc7, 0xf6, 0x1f, 0x93, 0x35, 0x0e,
  0x4f, 0x89, 0xc8, 0xe8, 0xb8, 0xb9, 0xf2, 0xcf, 0x2b, 0x43, 0xb1, 0x89, 0x14, 0x27, 0xce, 0xb1,
  0x20, 0xae, 0x8a, 0xfe, 0xc3, 0x49, 0xe1, 0x22, 0x35, 0x07, 0xa6, 0xdc, 0x8e, 0x45, 0xcf, 0xa8,
  0x1d, 0xf2, 0xb1, 0x02, 0x9c, 0x92, 0xed, 0x30, 0xa4, 0x9d, 0x29, 0x27, 0xa8, 0x38, 0xfe, 0xfe,
  0x58, 0x92, 0xf1, 0x8f, 0x3e, 0xb9, 0x50, 0x6d, 0x11, 0xff, 0xee, 0x19, 0x05, 0x0e, 0xfc, 0xf4,
  0x15, 0x08, 0x10, 0x3a, 0xf5, 0xf7, 0x00, 0xe2, 0xf0, 0x04, 0xf3, 0xfd, 0xfb, 0x14, 0x0c, 0xd3,
  0xea, 0xfe, 0x08, 0x17, 0x08, 0x15, 0x16, 0xee, 0x19, 0x13, 0x0a, 0xf9, 0xfd, 0x0b, 0x13, 0x09,
  0x00, 0xf9, 0xe8, 0x13, 0x04, 0x01, 0x0b, 0xf8, 0x2b, 0x1c, 0xfb, 0x19, 0xce, 0x05, 0x01, 0xd4,
  0x26, 0xc6, 0x04, 0xfa, 0x22, 0xf5, 0x18, 0xcf, 0xf0, 0x25, 0xfc, 0x2d, 0x33, 0x7f, 0xea, 0x25,
  0xef, 0x1a, 0xfb, 0x13, 0xfe, 0x18, 0xfa, 0x1f, 0x08, 0x02, 0xfe, 0x1a, 0x04, 0xe7, 0xed, 0x04,
  0xff, 0x1c, 0xfb, 0xfc, 0xe3, 0xf4, 0x37, 0x20, 0x04, 0xf0, 0x44, 0x1b, 0x26, 0x24, 0xee, 0x11,
  0xf4, 0xe3, 0x16, 0x0a, 0x21, 0x13, 0xfd, 0xd1, 0xe9, 0x34, 0xf7, 0xdf, 0xda, 0x65, 0xc0, 0xd9,
  0x3b, 0xe8, 0xec, 0x45, 0x33, 0xb7, 0x32, 0xee, 0x1a, 0x3b, 0x9d, 0x65, 0xc5, 0x04, 0xff, 0x22,
  0x02, 0xc6, 0x25, 0xcc, 0x21, 0x39, 0xdd, 0xf8, 0x37, 0x02, 0x22, 0xaa, 0xdd, 0xba, 0xd7, 0x05,
  0xc1, 0x3b, 0x41, 0x75, 0x0f, 0x75, 0x06, 0x01, 0xe9, 0x3c, 0xce, 0x2c, 0x01, 0x2e, 0x7f, 0x08,
  0x0d, 0x16, 0x36, 0x3e, 0x39, 0xd9, 0x2c, 0xd0, 0x03, 0x32, 0x2c, 0x37, 0x10, 0xa9, 0x3d, 0xe7,
  0x24, 0x5c, 0x45, 0xd7, 0xf8, 0xb0, 0x0c, 0x2e, 0x44, 0x60, 0xd9, 0xc2, 0x25, 0x07, 0xb7, 0x43,
  0x0a, 0x0d, 0xd7, 0x6e, 0x0c, 0xef, 0x0c, 0x1b, 0x09, 0x0b, 0xb9, 0xf8, 0x40, 0x27, 0xbc, 0x12,
  0xde, 0x15, 0xfa, 0x2d, 0xe5, 0x04, 0x14, 0x12, 0xed, 0x25, 0xfb, 0x7f, 0x1c, 0x07, 0x0d, 0xf1,
  0x1f, 0xfa, 0xe7, 0x19, 0xdd, 0x12, 0xe8, 0x1a, 0xd4, 0x0b, 0x0c, 0x10, 0xd6, 0x19, 0x21, 0x1a,
  0xf0, 0x11, 0x19, 0xdc, 0x1a, 0x10, 0xe5, 0x0a, 0x14, 0xf4, 0x1c, 0xec, 0xf4, 0x0d, 0xf5, 0xf6,
  0x1b, 0xe5, 0xe7, 0x2c, 0x20, 0xfb, 0x18, 0xf4, 0x06, 0xf8, 0xe3, 0x0c, 0x10, 0x0d, 0x07, 0x00,
  0xe7, 0x15, 0xf5, 0x17, 0xe6, 0xe3, 0x0e, 0x28, 0xe1, 0x02, 0xf5, 0x10, 0x0f, 0x3d, 0xe5, 0xdc,
  0xf9, 0x09, 0x05, 0xf1, 0x25, 0x18, 0xdd, 0xfd, 0x1f, 0xe6, 0xec, 0xff, 0x26, 0xbf, 0x19, 0x0d,
  0xd5, 0xe9, 0x15, 0xc5, 0xe7, 0xe6, 0x21, 0xf6, 0xe9, 0x33, 0x01, 0xf9, 0x18, 0x0a, 0x32, 0x04,
  0xf5, 0xf6, 0xe5, 0xec, 0x01, 0x17, 0xdf, 0x81, 0xf5, 0x00, 0x10, 0x13, 0x06, 0x05, 0x1e, 0xf9,
  0xf6, 0x1b, 0x35, 0x4c, 0x20, 0x07, 0xe4, 0x0a, 0x28, 0xf2, 0xe4, 0x1c, 0xe6, 0xcc, 0x01, 0x16,
  0x19, 0xcb, 0x19, 0xe4, 0x18, 0x0a, 0x0c, 0x0e, 0xdb, 0x09, 0x00, 0x93, 0xf0, 0x33, 0x17, 0xf2,
  0xf2, 0xe4, 0xea, 0x11, 0x46, 0xed, 0xed, 0xaf, 0x18, 0x04, 0x2e, 0xdb, 0xf4, 0x3c, 0xea, 0xf0,
  0xf2, 0x12, 0x0b, 0xfc, 0xf6, 0x13, 0x00, 0x04, 0x11, 0x09, 0xef, 0xf1, 0xfb, 0x6c, 0x20, 0xb6,
  0x1b, 0xe0, 0xeb, 0x50, 0xd1, 0x3c, 0x1e, 0x1b, 0xc9, 0xcf, 0x0a, 0x22, 0xfc, 0xfd, 0xe9, 0xee,
  0xf5, 0xfd, 0x11, 0x1d, 0x0e, 0x5b, 0x19, 0x18, 0x13, 0xee, 0xe3, 0x10, 0x0a, 0x04, 0xe4, 0x02,
  0xeb, 0x0f, 0x1e, 0x3a, 0xf7, 0xe8, 0xf9, 0xfa, 0x05, 0xff, 0x12, 0xdc, 0x28, 0x1f, 0xee, 0x01,
  0xe9, 0x06, 0x15, 0x02, 0x2b, 0xf1, 0xe5, 0x10, 0x0b, 0xfd, 0x03, 0x36, 0x24, 0x0f, 0x06, 0xfe,
  0xec, 0x12, 0x21, 0x35, 0x0e, 0x3b, 0x07, 0x2c, 0x13, 0x2e, 0x38, 0x03, 0xfb, 0x08, 0xfa, 0x13,
  0xe4, 0x39, 0x7f, 0x00, 0x0f, 0x62, 0x08, 0x15, 0xed, 0x01, 0x26, 0xe3, 0x11, 0x0e, 0x04, 0xed,
  0xe1, 0x20, 0x00, 0x14, 0xe0, 0xfb, 0xfe, 0x03, 0x07, 0x28, 0x1a, 0xf9, 0x01, 0xbb, 0xd3, 0xeb,
  0xe7, 0x21, 0x19, 0x11, 0x26, 0xf5, 0xfb, 0x1e, 0xfd, 0x00, 0xde, 0xf6, 0xfa, 0x09, 0xfc, 0xf4,
  0x12, 0x32, 0xed, 0xd9, 0x1e, 0xee, 0xff, 0xff, 0x04, 0x00, 0x00, 0x00, 0x30, 0x00, 0x00, 0x00,
  0xe0, 0xff, 0xff, 0xff, 0x83, 0xff, 0xff, 0xff, 0x43, 0x00, 0x00, 0x00, 0x56, 0x02, 0x00, 0x00,
  0x51, 0xfa, 0xff, 0xff, 0xd0, 0xfe, 0xff, 0xff, 0xef, 0xf1, 0xff, 0xff, 0x08, 0x01, 0x00, 0x00,
  0x96, 0xfe, 0xff, 0xff, 0xf6, 0x04, 0x00, 0x00, 0xaa, 0x04, 0x00, 0x00, 0x47, 0xfc, 0xff, 0xff,
  0x5a, 0xee, 0xff, 0xff, 0x04, 0x00, 0x00, 0x00, 0x10, 0x05, 0x00, 0x00, 0x34, 0xcf, 0x17, 0x00,
  0x35, 0xe5, 0x01, 0xfb, 0xfc, 0x14, 0xda, 0xee, 0x22, 0xd0, 0x00, 0xd9, 0x0c, 0xc4, 0x23, 0xcc,
  0xee, 0x04, 0xfc, 0xe2, 0xcf, 0xc0, 0x15, 0x11, 0x1c, 0xcb, 0xd3, 0x3e, 0xfd, 0x18, 0x50, 0xe0,
  0x1f, 0x07, 0xf2, 0xe6, 0x21, 0x0a, 0x06, 0xee, 0x20, 0xff, 0xf8, 0x2a, 0xd9, 0x38, 0x25, 0x1c,
  0xff, 0x1e, 0xe0, 0xb3, 0x34, 0xe8, 0xbb, 0x47, 0x01, 0xe3, 0xef, 0x1e, 0x49, 0x05, 0x25, 0x15,
  0x1c, 0xd1, 0xda, 0x36, 0x0d, 0x74, 0xe5, 0xb7, 0xcf, 0xba, 0xe8, 0x1d, 0xe5, 0x99, 0x09, 0x17,
  0x1c, 0x48, 0xe2, 0xf7, 0x81, 0xc5, 0xd2, 0xd5, 0xf0, 0xed, 0x2f, 0x1d, 0x58, 0x16, 0xfb, 0xd2,
  0xb4, 0x13, 0x28, 0xa0, 0x19, 0xa3, 0x0f, 0xe6, 0xdc, 0xee, 0x05, 0xc0, 0xa2, 0x24, 0x10, 0xde,
  0xe7, 0x02, 0xce, 0x40, 0x21, 0xde, 0x26, 0x03, 0x3a, 0xfb, 0x06, 0xc4, 0xe2, 0x52, 0xc4, 0xfe,
  0xda, 0xf4, 0xec, 0x10, 0x22, 0xdf, 0x16, 0x0c, 0x0f, 0x20, 0x21, 0xe2, 0xf3, 0xba, 0xde, 0xc7,
  0xf9, 0xdf, 0x1a, 0x81, 0xd6, 0x0e, 0x8c, 0x04, 0xf0, 0x79, 0x08, 0x26, 0x36, 0x15, 0xfe, 0xe8,
  0xeb, 0xb8, 0x03, 0x30, 0xf3, 0x0a, 0xe3, 0x2c, 0x1e, 0x00, 0xf0, 0x01, 0x0c, 0x1c, 0x1a, 0x1a,
  0xdf, 0x20, 0xfe, 0xe0, 0x01, 0x06, 0x04, 0xfb, 0x22, 0x23, 0xaf, 0xbe, 0xf9, 0x17, 0x47, 0xf4,
  0x6e, 0x1a, 0xe6, 0xf6, 0x0f, 0xe8, 0x3f, 0xce, 0x05, 0xf3, 0x10, 0x20, 0x21, 0xed, 0xed, 0x06,
  0x0f, 0x02, 0xf4, 0x0f, 0xe5, 0x21, 0xfb, 0xd8, 0xce, 0xe1, 0xbb, 0x05, 0xf0, 0xd9, 0xbf, 0xfc,
  0xdc, 0x1a, 0xd5, 0x39, 0x56, 0xd6, 0xcc, 0x0c, 0x02, 0xc0, 0x14, 0x2d, 0xf4, 0x16, 0xfd, 0x1e,
  0xf8, 0x15, 0xb1, 0x15, 0xf5, 0xd9, 0xfb, 0x06, 0x44, 0xba, 0x25, 0x08, 0xda, 0x56, 0xee, 0xb2,
  0x1f, 0xe9, 0x2f, 0x6b, 0xb2, 0x7f, 0xf7, 0xb8, 0x49, 0x19, 0xef, 0x00, 0xf4, 0xd9, 0xa6, 0x07,
  0x0d, 0x05, 0x05, 0x26, 0x08, 0xf6, 0xfb, 0x1f, 0x35, 0xfe, 0xd8, 0xc7, 0x2e, 0xe5, 0x07, 0x3d,
  0xdd, 0x15, 0x18, 0x07, 0xdd, 0xf5, 0x03, 0x27, 0xf1, 0x2a, 0x0e, 0x22, 0x4b, 0x1a, 0xdf, 0x09,
  0xfa, 0x31, 0x0a, 0x3b, 0x2e, 0x30, 0xe4, 0xe4, 0x22, 0xc2, 0xbf, 0xdc, 0x1d, 0xd9, 0xdb, 0x2a,
  0x0d, 0x2e, 0x05, 0x01, 0xbd, 0x43, 0xf1, 0x2d, 0x09, 0x13, 0x01, 0xe2, 0x19, 0xaa, 0xc7, 0xd3,
  0xfc, 0x01, 0xce, 0xc7, 0xeb, 0xbc, 0x96, 0xe5, 0x24, 0xe1, 0x5a, 0xe2, 0xf9, 0x55, 0xea, 0xf1,
  0xf1, 0x2c, 0x20, 0xea, 0x12, 0x19, 0x0f, 0x14, 0xb2, 0xdf, 0x21, 0xf2, 0x31, 0xdb, 0xf8, 0x03,
  0x39, 0x59, 0x05, 0xfd, 0x7f, 0xd4, 0xc8, 0xd1, 0x6e, 0xea, 0xfd, 0x29, 0xdd, 0xc4, 0xf3, 0xef,
  0xf1, 0xf3, 0xc3, 0x10, 0xfe, 0xd6, 0xf9, 0x0b, 0x36, 0x39, 0xf7, 0x1e, 0xd5, 0x43, 0xe2, 0x33,
  0xdc, 0x06, 0xc2, 0x33, 0xcd, 0x29, 0xf6, 0x0c, 0x22, 0x10, 0xc3, 0x11, 0xe1, 0xbc, 0x3e, 0xb8,
  0xee, 0xec, 0x1c, 0xfc, 0x24, 0x07, 0xca, 0x01, 0xdf, 0xdd, 0x00, 0xd7, 0x26, 0x00, 0xfd, 0xe9,
  0xf4, 0x0a, 0x35, 0x00, 0x1c, 0x2c, 0x32, 0xce, 0xd3, 0x26, 0x15, 0x14, 0xdb, 0xed, 0x15, 0x3b,
  0x0b, 0x05, 0x24, 0xf5, 0x43, 0x7d, 0x7f, 0x18, 0x36, 0xe5, 0xf7, 0xbc, 0x39, 0x10, 0x9f, 0xd2,
  0x0b, 0x2f, 0xfd, 0xcb, 0x18, 0xeb, 0xe1, 0x50, 0xb2, 0x4a, 0xe4, 0xdf, 0xd2, 0xe2, 0xc2, 0xd3,
  0x12, 0xe7, 0x05, 0x3d, 0xfb, 0xf8, 0x00, 0x15, 0x05, 0x3f, 0x78, 0x01, 0x1a, 0x41, 0xc9, 0xfd,
  0x28, 0xfd, 0x05, 0x12, 0xe3, 0x34, 0x0a, 0x16, 0xff, 0x20, 0x20, 0xea, 0x09, 0xad, 0x27, 0x89,
  0xe9, 0x22, 0xe3, 0x2a, 0x12, 0xc2, 0xe5, 0x37, 0xda, 0xbe, 0xd6, 0x0b, 0xdc, 0x29, 0x18, 0x40,
  0xf1, 0x2c, 0x07, 0x0c, 0xe6, 0xf5, 0x12, 0x04, 0x02, 0x01, 0x0b, 0xfc, 0x1d, 0xde, 0xfe, 0x10,
  0x01, 0x01, 0x09, 0xf3, 0x1e, 0xfe, 0x0d, 0x1d, 0x06, 0x25, 0xea, 0x41, 0x24, 0x1c, 0x09, 0xdf,
  0xef, 0xc2, 0x26, 0xe0, 0xe4, 0xe4, 0xe2, 0xb3, 0xf9, 0xfd, 0xf8, 0x0e, 0x23, 0x23, 0x11, 0xff,
  0xf0, 0xfd, 0xe9, 0x3c, 0xf3, 0x01, 0xfd, 0xfc, 0x05, 0xd8, 0x10, 0xe2, 0x27, 0x04, 0xff, 0x22,
  0xf2, 0x13, 0x10, 0x11, 0x1e, 0xea, 0x7f, 0xf8, 0x02, 0xc5, 0x21, 0xbd, 0x16, 0xde, 0x24, 0xd4,
  0xf2, 0x0a, 0xfd, 0x0d, 0xfd, 0xdb, 0x09, 0xf5, 0x03, 0xd4, 0x17, 0xf9, 0x02, 0x04, 0x0b, 0x0d,
  0x0b, 0xfd, 0xf6, 0xfb, 0x19, 0x17, 0xc8, 0x31, 0xf0, 0xe8, 0x1e, 0xe5, 0xe9, 0xf6, 0xff, 0xfc,
  0x02, 0xcf, 0xfc, 0xe2, 0x4e, 0xfe, 0xf5, 0x42, 0xed, 0xee, 0x3c, 0x72, 0xbd, 0xba, 0xdc, 0x95,
  0xb3, 0x36, 0xf7, 0xe8, 0xf7, 0xbd, 0x08, 0x51, 0x23, 0x21, 0xf8, 0xf4, 0xed, 0xfa, 0xee, 0x31,
  0x49, 0xbe, 0xe6, 0xfa, 0x01, 0x04, 0xfb, 0x9a, 0x40, 0x19, 0xe8, 0xf1, 0x0f, 0x39, 0xfc, 0x46,
  0x32, 0x33, 0xb2, 0xe6, 0x02, 0x00, 0xb4, 0x4f, 0x30, 0xeb, 0xd4, 0xe8, 0x42, 0x24, 0xfc, 0xc4,
  0x46, 0x7f, 0xd1, 0x06, 0xe3, 0x13, 0x13, 0xe3, 0xbe, 0x30, 0xec, 0x2d, 0x51, 0xa6, 0x4a, 0x25,
  0x07, 0x01, 0xdc, 0xfd, 0x52, 0xbb, 0xdc, 0x4f, 0x11, 0x17, 0x56, 0x4e, 0x0c, 0x2c, 0x42, 0x2a,
  0x33, 0xe5, 0x22, 0x53, 0xf4, 0xd6, 0xdc, 0x1c, 0x44, 0x06, 0xcd, 0xd2, 0xf6, 0x43, 0xef, 0x4a,
  0x61, 0x91, 0xf0, 0x04, 0x04, 0xb0, 0xcb, 0xe6, 0x12, 0x3b, 0xaa, 0xcf, 0x1e, 0xd5, 0x43, 0x2d,
  0x2d, 0x5a, 0xa6, 0x16, 0xaf, 0x1f, 0xa6, 0x94, 0xda, 0xf1, 0x10, 0xa2, 0xaf, 0x02, 0x10, 0xf2,
  0xf2, 0x55, 0x5d, 0x0d, 0xe6, 0xe0, 0x64, 0x2b, 0x13, 0xeb, 0xd2, 0xa3, 0x6d, 0x1b, 0x1b, 0x49,
  0xe0, 0x55, 0x7f, 0x15, 0xcd, 0x12, 0xd0, 0xb8, 0xd2, 0x42, 0xe0, 0x55, 0x00, 0xe9, 0x25, 0x5c,
  0x32, 0x2f, 0x14, 0xe4, 0x48, 0xf6, 0x23, 0x2e, 0x38, 0x07, 0xff, 0x56, 0x08, 0x26, 0xe8, 0x22,
  0xff, 0x09, 0x21, 0xf4, 0xc6, 0xf3, 0xfd, 0x66, 0x05, 0xc0, 0x26, 0x19, 0xcf, 0xf9, 0x6d, 0xfa,
  0x16, 0x1e, 0x3a, 0xba, 0xb1, 0x30, 0xb2, 0x09, 0xd2, 0x4a, 0xed, 0xb5, 0xeb, 0xb4, 0x22, 0x00,
  0x1a, 0xdc, 0xee, 0xb5, 0xf2, 0x1e, 0x13, 0xff, 0x0a, 0x07, 0xcc, 0x03, 0x35, 0x15, 0xdc, 0x21,
  0x16, 0xfd, 0x15, 0x2e, 0x05, 0x1a, 0x2a, 0x00, 0xf8, 0xe4, 0xf4, 0xe1, 0xef, 0x0b, 0xd8, 0x12,
  0xdc, 0xf0, 0x18, 0x12, 0x1e, 0xf0, 0x20, 0x07, 0xf0, 0x3a, 0x1b, 0xe3, 0xde, 0x0f, 0xa8, 0xd3,
  0xe9, 0xeb, 0x1d, 0x7f, 0x01, 0xf3, 0xcc, 0xf2, 0xf2, 0x37, 0x47, 0x2b, 0x0b, 0x03, 0xfe, 0xc2,
  0x34, 0xf6, 0x0e, 0x1a, 0x26, 0xca, 0x07, 0xdb, 0xf8, 0xd6, 0x2e, 0xd9, 0xd5, 0xf1, 0x46, 0xf7,
  0xef, 0x00, 0xfd, 0x1f, 0x31, 0x05, 0x1b, 0xe0, 0x13, 0x40, 0x9d, 0x55, 0x26, 0x04, 0xfc, 0xf4,
  0xf1, 0x05, 0xf8, 0xff, 0x2f, 0xe8, 0x1f, 0xe2, 0x41, 0xe8, 0x3e, 0x2c, 0xd3, 0x49, 0x19, 0x27,
  0x17, 0xd4, 0xae, 0xad, 0x1b, 0x0e, 0x4a, 0xe5, 0x18, 0xc5, 0xdb, 0xac, 0x4f, 0x59, 0x05, 0xfd,
  0x50, 0x0a, 0xbe, 0xb9, 0xcc, 0x11, 0x44, 0xfe, 0xb0, 0xc2, 0xeb, 0xfa, 0xee, 0x07, 0x0d, 0x66,
  0xa8, 0x4c, 0xbb, 0xe7, 0x18, 0xbb, 0x57, 0x7f, 0x62, 0x2e, 0x10, 0x30, 0x4b, 0xd5, 0xa9, 0x37,
  0xd1, 0xb2, 0x4b, 0xf9, 0xb8, 0xcc, 0xb7, 0x35, 0xd5, 0xdb, 0xac, 0x0e, 0x24, 0xcf, 0xc1, 0x32,
  0xb7, 0x1b, 0x17, 0x4d, 0x05, 0xdc, 0x07, 0xe2, 0x1b, 0x02, 0xf1, 0x23, 0x44, 0x16, 0xcc, 0xcd,
  0x1a, 0x17, 0x41, 0xf2, 0x54, 0xa1, 0x4d, 0x04, 0x3d, 0x23, 0x0a, 0xd0, 0x26, 0xec, 0x4c, 0xc5,
  0xb7, 0x1f, 0x11, 0xcc, 0xe4, 0x7f, 0xa0, 0x1a, 0xdc, 0xf0, 0x22, 0x11, 0xda, 0xc9, 0xaa, 0x4e,
  0xb7, 0x69, 0x17, 0x0b, 0x03, 0x1b, 0xdb, 0x19, 0xf3, 0xbc, 0x96, 0x16, 0xab, 0x24, 0x27, 0x30,
  0xd1, 0x13, 0xe4, 0x0e, 0xc8, 0xb6, 0xec, 0x1a, 0xd6, 0x48, 0xf2, 0xc9, 0xfd, 0x1e, 0x14, 0x9b,
  0x39, 0x2f, 0xd8, 0x2b, 0x43, 0x0c, 0x33, 0xcc, 0x70, 0x36, 0xe7, 0x99, 0x77, 0xe8, 0x24, 0x50,
  0xdb, 0x20, 0x1c, 0x1e, 0xf0, 0xd2, 0x44, 0xb9, 0x3b, 0x0d, 0xf1, 0x28, 0xe8, 0xd0, 0x0b, 0xe0,
  0x02, 0xf5, 0xea, 0xec, 0x13, 0xf6, 0xee, 0x23, 0x32, 0xee, 0x36, 0x44, 0x37, 0xfb, 0xd1, 0x09,
  0x31, 0x4d, 0x10, 0x43, 0x26, 0x0e, 0xe2, 0x12, 0xf6, 0xc7, 0xf6, 0x02, 0x0d, 0x50, 0x1f, 0xff,
  0x39, 0xdc, 0x0b, 0x24, 0x08, 0x09, 0xf5, 0xe1, 0xf7, 0xfe, 0xf4, 0xd0, 0xd3, 0x05, 0x29, 0x03,
  0xf1, 0x10, 0xdb, 0x1a, 0x33, 0x1a, 0x18, 0x17, 0xce, 0xf7, 0x6e, 0x23, 0xed, 0xd7, 0xee, 0x12,
  0x09, 0x13, 0x08, 0xf3, 0x2e, 0x81, 0x22, 0x2f, 0x79, 0xde, 0xdf, 0xe6, 0x24, 0x3a, 0xb8, 0x3d,
  0xe3, 0xc0, 0x5f, 0xd2, 0xf4, 0xe4, 0xff, 0x41, 0xd8, 0x03, 0x0b, 0xdf, 0xc6, 0xf6, 0x54, 0xed,
  0x00, 0xf8, 0x1a, 0x2b, 0xa3, 0x43, 0xd6, 0x28, 0x27, 0x00, 0xf6, 0xf6, 0x1f, 0xf4, 0xca, 0x0c,
  0xea, 0x07, 0x1b, 0x19, 0xc8, 0x11, 0x21, 0x24, 0xdd, 0xf9, 0x38, 0xd2, 0x4c, 0x10, 0x02, 0xfe,
  0xf9, 0xe2, 0xf1, 0x14, 0x1b, 0x19, 0x17, 0x2e, 0x14, 0x20, 0xdd, 0x04, 0x76, 0xf3, 0xff, 0xff,
  0x04, 0x00, 0x00, 0x00, 0x30, 0x00, 0x00, 0x00, 0xbb, 0x01, 0x00, 0x00, 0x3c, 0x00, 0x00, 0x00,
  0x4e, 0x06, 0x00, 0x00, 0xa2, 0x06, 0x00, 0x00, 0x4b, 0xff, 0xff, 0xff, 0x93, 0xff, 0xff, 0xff,
  0x68, 0xff, 0xff, 0xff, 0x08, 0x07, 0x00, 0x00, 0x0a, 0x03, 0x00, 0x00, 0x40, 0x01, 0x00, 0x00,
  0xfa, 0x02, 0x00, 0x00, 0x83, 0x03, 0x00, 0x00, 0xb2, 0xf3, 0xff, 0xff, 0x04, 0x00, 0x00, 0x00,
  0xa0, 0x02, 0x00, 0x00, 0xf3, 0x06, 0x65, 0xf8, 0x12, 0xf4, 0x61, 0x51, 0x25, 0x3b, 0x93, 0x7f,
  0x48, 0x7f, 0xea, 0x16, 0x24, 0x14, 0xc7, 0x05, 0x93, 0x2f, 0x4a, 0xc9, 0x7f, 0x38, 0x50, 0x7b,
  0x10, 0x03, 0xc9, 0xf7, 0x24, 0x49, 0xbb, 0x3e, 0x81, 0xb5, 0x19, 0x0e, 0xfe, 0xf6, 0x03, 0xfd,
  0x3a, 0x62, 0xa7, 0xbc, 0xe5, 0x81, 0xdc, 0x16, 0x06, 0x06, 0x0c, 0xeb, 0xec, 0x08, 0x14, 0xfb,
  0x7f, 0x76, 0x4e, 0x69, 0xeb, 0x21, 0xab, 0xe5, 0xb8, 0x11, 0x51, 0xfc, 0x7f, 0x0c, 0x6c, 0x9e,
  0xe7, 0xea, 0xee, 0xef, 0xf6, 0x64, 0x37, 0x44, 0x37, 0x84, 0xdb, 0x4f, 0xf0, 0xfa, 0x05, 0xea,
  0x34, 0x52, 0x9e, 0x7f, 0xe1, 0x6e, 0x3f, 0x7f, 0xe7, 0xd0, 0xca, 0xf3, 0x44, 0xc1, 0x70, 0xbc,
  0xa9, 0xb2, 0xbe, 0x2a, 0x67, 0xa3, 0x85, 0x79, 0xd1, 0x7f, 0x59, 0xdf, 0x33, 0x4e, 0x1d, 0x31,
  0xed, 0x1b, 0x3a, 0x64, 0xa3, 0x74, 0xdc, 0x81, 0x62, 0x4f, 0x3b, 0xa0, 0xe2, 0x01, 0x66, 0x11,
  0x64, 0x7f, 0x48, 0x48, 0x1f, 0x7d, 0xa7, 0xc9, 0xf9, 0xe1, 0x7f, 0x77, 0xf6, 0xa0, 0x0f, 0x6d,
  0xdd, 0xf8, 0xf4, 0x81, 0xfd, 0x0c, 0xf2, 0xe2, 0x43, 0x2d, 0x05, 0x11, 0xd7, 0xfe, 0xee, 0x34,
  0x08, 0x41, 0x11, 0x40, 0xd1, 0xbb, 0x4c, 0x81, 0x9a, 0xf1, 0xe1, 0xc3, 0xcd, 0x9f, 0x66, 0x7f,
  0xc2, 0x32, 0x14, 0xa3, 0x20, 0x7f, 0x2a, 0xe7, 0x08, 0xe8, 0x16, 0xc2, 0x01, 0x0f, 0x12, 0x55,
  0xed, 0x7a, 0x6f, 0xc2, 0xe4, 0x5f, 0x81, 0x77, 0xc6, 0x79, 0x3c, 0x0a, 0x41, 0xe5, 0xd2, 0x15,
  0xfa, 0x68, 0x4d, 0x3a, 0x7f, 0x6b, 0x91, 0xc2, 0xef, 0x81, 0x0e, 0xfb, 0xff, 0x0b, 0xf9, 0x0c,
  0xdf, 0x0a, 0x01, 0xda, 0x23, 0x24, 0x34, 0x36, 0xec, 0xaa, 0x58, 0x3d, 0x96, 0x7f, 0xd0, 0x81,
  0xfa, 0x5d, 0xef, 0x99, 0x08, 0x2c, 0xe4, 0x3a, 0x0b, 0x7f, 0xc1, 0x7c, 0x1d, 0x14, 0x7f, 0x77,
  0x2d, 0x1f, 0x00, 0x17, 0x3b, 0xd4, 0x27, 0xe4, 0x66, 0x39, 0xee, 0xff, 0xf1, 0x22, 0x3c, 0xb4,
  0x71, 0xde, 0x81, 0xf7, 0xf9, 0xf7, 0xfd, 0x2c, 0x3c, 0x81, 0xfe, 0xef, 0x40, 0x0d, 0xe7, 0x10,
  0xe0, 0x7f, 0xf4, 0x47, 0xf9, 0xac, 0xee, 0x4a, 0xf2, 0xb7, 0x72, 0xed, 0xc2, 0xc4, 0xb6, 0x54,
  0xf0, 0x52, 0x11, 0x7f, 0xc0, 0x30, 0x30, 0x97, 0x75, 0x74, 0xb9, 0x49, 0x49, 0x81, 0xbe, 0x31,
  0xb5, 0xaa, 0xbc, 0x69, 0x81, 0xc9, 0x1a, 0x9b, 0x27, 0x05, 0xbf, 0x24, 0xe1, 0x53, 0x0f, 0xe1,
  0x64, 0x49, 0x7e, 0x7f, 0xee, 0xa8, 0x13, 0x47, 0x08, 0x0e, 0x13, 0x0a, 0xeb, 0x38, 0x98, 0x81,
  0x02, 0x0d, 0xff, 0xd9, 0x0f, 0x45, 0x00, 0xe9, 0xac, 0x7f, 0xeb, 0x54, 0x21, 0x0d, 0xd4, 0x56,
  0xc6, 0x55, 0x09, 0xcf, 0x2e, 0x1c, 0xcb, 0x09, 0xb7, 0x34, 0x79, 0xfd, 0x1a, 0x7f, 0x59, 0xba,
  0xbf, 0xfb, 0x50, 0xe7, 0xc3, 0xeb, 0xda, 0x10, 0x46, 0x81, 0x69, 0xf3, 0x58, 0xd8, 0xd0, 0xb6,
  0xc2, 0x3b, 0xde, 0xd0, 0x9b, 0xcb, 0x7f, 0x2d, 0x4b, 0xd0, 0xf6, 0x95, 0x0c, 0x33, 0x2b, 0x3f,
  0x81, 0x8d, 0x3a, 0xe0, 0x44, 0x22, 0x3d, 0xdf, 0xd6, 0xf5, 0x3e, 0xe9, 0xfc, 0x91, 0xd3, 0x7f,
  0x7f, 0x11, 0xd9, 0xd0, 0x34, 0xcc, 0x08, 0x9b, 0xb8, 0x55, 0x65, 0x5c, 0xe3, 0x46, 0xdf, 0xd7,
  0x12, 0x03, 0xb0, 0x1a, 0xce, 0x7f, 0x5d, 0x68, 0xdc, 0x35, 0x9a, 0x99, 0x50, 0xf7, 0x5d, 0xe3,
  0xcc, 0x7f, 0x3f, 0xab, 0xd5, 0xeb, 0x7f, 0x6e, 0xf4, 0x08, 0xff, 0x50, 0xdc, 0xaa, 0x2a, 0xb2,
  0x7f, 0x40, 0x3a, 0x01, 0x50, 0x14, 0x07, 0x04, 0xff, 0xe4, 0xb6, 0xf2, 0x92, 0x48, 0x35, 0x7f,
  0x1e, 0x6e, 0xda, 0x76, 0x1d, 0x6b, 0x59, 0xca, 0x29, 0x40, 0x27, 0xa2, 0xdb, 0xba, 0xe1, 0x2f,
  0x98, 0xf0, 0x81, 0x69, 0xf2, 0x33, 0x4b, 0x70, 0x0e, 0xf2, 0xe3, 0xfc, 0xcf, 0x81, 0x3a, 0xc4,
  0x05, 0x7f, 0xeb, 0x06, 0xd8, 0xc5, 0xe1, 0x34, 0x03, 0x84, 0x70, 0xef, 0x50, 0xb5, 0x7f, 0xb2,
  0xcb, 0xe6, 0x73, 0x4c, 0x26, 0x27, 0xe4, 0x27, 0x57, 0x12, 0x3b, 0xa3, 0xa2, 0xac, 0x05, 0x43,
  0x81, 0x94, 0xd6, 0x78, 0x5b, 0x58, 0x5c, 0xf2, 0x0d, 0xe8, 0x09, 0xbc, 0xc2, 0xfc, 0xda, 0x7f,
  0xfa, 0xc1, 0xd6, 0x5e, 0x4a, 0x2a, 0x87, 0x81, 0x47, 0xd9, 0x05, 0x40, 0x73, 0x7f, 0x77, 0x46,
  0xa4, 0x24, 0xec, 0xd3, 0x17, 0xb0, 0xf2, 0x3e, 0x6d, 0x24, 0xf5, 0xb9, 0xf5, 0x0b, 0x49, 0xfd,
  0x67, 0x81, 0x54, 0x93, 0x5d, 0x7f, 0xa1, 0x04, 0xe8, 0xbe, 0x54, 0x48, 0xd8, 0x52, 0x7a, 0x46,
  0xb5, 0x44, 0x90, 0x7f, 0xdf, 0x31, 0xd7, 0x03, 0x15, 0x51, 0x42, 0x65, 0xd6, 0x81, 0x9a, 0x0d,
  0xf4, 0x0a, 0x49, 0xf2, 0x1d, 0x43, 0xa9, 0xe3, 0x99, 0x18, 0xed, 0xd1, 0xf5, 0x7f, 0xfc, 0x54,
  0x22, 0xc0, 0xc4, 0x61, 0x5e, 0xf6, 0xff, 0xff, 0x04, 0x00, 0x00, 0x00, 0xe0, 0x00, 0x00, 0x00,
  0xb1, 0xfe, 0xff, 0xff, 0xd7, 0xfe, 0xff, 0xff, 0xc3, 0xff, 0xff, 0xff, 0x58, 0x03, 0x00, 0x00,
  0xf9, 0x00, 0x00, 0x00, 0x14, 0xfe, 0xff, 0xff, 0x19, 0x01, 0x00, 0x00, 0xdc, 0x01, 0x00, 0x00,
  0xd5, 0xfd, 0xff, 0xff, 0x77, 0xfc, 0xff, 0xff, 0x84, 0x01, 0x00, 0x00, 0x2f, 0xff, 0xff, 0xff,
  0x88, 0xff, 0xff, 0xff, 0x3d, 0xfe, 0xff, 0xff, 0xfd, 0xfe, 0xff, 0xff, 0x05, 0xfc, 0xff, 0xff,
  0xb2, 0x00, 0x00, 0x00, 0x02, 0x00, 0x00, 0x00, 0xac, 0xfe, 0xff, 0xff, 0x2a, 0x01, 0x00, 0x00,
  0x13, 0x02, 0x00, 0x00, 0x5a, 0xfd, 0xff, 0xff, 0xa4, 0xfe, 0xff, 0xff, 0x19, 0xfe, 0xff, 0xff,
  0x46, 0xfe, 0xff, 0xff, 0xa0, 0xfd, 0xff, 0xff, 0x73, 0xff, 0xff, 0xff, 0x96, 0x00, 0x00, 0x00,
  0xbf, 0xfd, 0xff, 0xff, 0xaa, 0xfb, 0xff, 0xff, 0x16, 0x00, 0x00, 0x00, 0xe9, 0x02, 0x00, 0x00,
  0xf6, 0xff, 0xff, 0xff, 0xc8, 0xfe, 0xff, 0xff, 0x79, 0xff, 0xff, 0xff, 0xd8, 0x03, 0x00, 0x00,
  0x3b, 0x01, 0x00, 0x00, 0x03, 0x01, 0x00, 0x00, 0xea, 0xff, 0xff, 0xff, 0xf4, 0xff, 0xff, 0xff,
  0x04, 0x03, 0x00, 0x00, 0x7e, 0xff, 0xff, 0xff, 0xe3, 0xfd, 0xff, 0xff, 0xe7, 0xfc, 0xff, 0xff,
  0x76, 0xff, 0xff, 0xff, 0x7b, 0xfe, 0xff, 0xff, 0xc0, 0xff, 0xff, 0xff, 0xbb, 0xfb, 0xff, 0xff,
  0xe0, 0x02, 0x00, 0x00, 0x35, 0x05, 0x00, 0x00, 0x6c, 0xfd, 0xff, 0xff, 0x5f, 0xff, 0xff, 0xff,
  0x08, 0xfe, 0xff, 0xff, 0xbf, 0xfe, 0xff, 0xff, 0xf8, 0xfd, 0xff, 0xff, 0x61, 0xfd, 0xff, 0xff,
  0x4a, 0xf7, 0xff, 0xff, 0x04, 0x00, 0x00, 0x00, 0xe0, 0x07, 0x00, 0x00, 0x03, 0xfe, 0xf5, 0x00,
  0xff, 0xf7, 0x09, 0x01, 0x0a, 0xe0, 0xfd, 0xfe, 0xfc, 0x07, 0xf5, 0xfd, 0x02, 0xf4, 0x01, 0xfa,
  0x0d, 0xfc, 0xf8, 0xfc, 0xf9, 0xfa, 0x07, 0x0d, 0x07, 0x0b, 0xf7, 0x04, 0x0d, 0x1b, 0x08, 0x05,
  0x04, 0xfb, 0xfd, 0x03, 0x04, 0xff, 0x05, 0xf5, 0x08, 0xff, 0xfd, 0x08, 0x0e, 0xf0, 0xed, 0x13,
  0x0c, 0xf7, 0xf5, 0x0c, 0xf7, 0x02, 0xfb, 0xf7, 0x04, 0xfc, 0x08, 0x22, 0xf8, 0xe1, 0xf9, 0xf9,
  0x07, 0xfc, 0xf7, 0xf7, 0x16, 0x06, 0x10, 0x07, 0x01, 0xf9, 0xf9, 0xf7, 0xff, 0x05, 0xfc, 0xf4,
  0x03, 0x10, 0xff, 0x0c, 0x04, 0x0f, 0x07, 0x03, 0x07, 0xff, 0x00, 0xfd, 0x06, 0x04, 0x00, 0x06,
  0x0b, 0x04, 0x04, 0x29, 0xff, 0xee, 0x29, 0x06, 0x01, 0x02, 0xfb, 0x02, 0x0e, 0xe2, 0x07, 0x07,
  0xf3, 0x03, 0xf8, 0xfa, 0x08, 0xfe, 0x0d, 0xfe, 0x08, 0xfe, 0x04, 0x04, 0x06, 0xf7, 0x07, 0x08,
  0xfb, 0xfb, 0x02, 0xfc, 0xff, 0xf8, 0xfd, 0xfe, 0x04, 0xf9, 0x02, 0xff, 0x0b, 0xf8, 0x1f, 0xfc,
  0xff, 0x09, 0xfd, 0xf5, 0x03, 0x02, 0x00, 0x05, 0xf1, 0xf5, 0x04, 0xfc, 0xfe, 0xfe, 0xf1, 0xfc,
  0x0a, 0x0b, 0xfb, 0xff, 0x0b, 0xff, 0xe5, 0x07, 0x08, 0xfe, 0x05, 0x00, 0x12, 0x0a, 0x0a, 0xfa,
  0x06, 0x0d, 0x39, 0x04, 0x05, 0xfb, 0x0a, 0x07, 0x06, 0x04, 0xf4, 0x0e, 0xce, 0x0a, 0x0c, 0xfb,
  0xf7, 0x06, 0x1d, 0x06, 0x08, 0x20, 0x1d, 0x07, 0xfb, 0x02, 0xf5, 0x02, 0xff, 0x0e, 0x0c, 0xf6,
  0xff, 0x0b, 0xfe, 0xe8, 0xff, 0xf6, 0xf0, 0xfb, 0x04, 0xf2, 0x0e, 0x00, 0xfa, 0x3a, 0xf6, 0x11,
  0xf4, 0x19, 0x03, 0x0e, 0x1a, 0xf7, 0x03, 0x0f, 0x0e, 0xe3, 0x03, 0x11, 0xff, 0x0a, 0x06, 0x06,
  0x12, 0x0d, 0x10, 0x3f, 0xfe, 0x2d, 0x0a, 0x06, 0x7b, 0x11, 0xde, 0x0e, 0x07, 0x0a, 0x61, 0xf7,
  0xfc, 0x0d, 0x16, 0x00, 0xfc, 0xf2, 0x03, 0x7f, 0x39, 0x17, 0xf6, 0xe3, 0xf8, 0xce, 0xf5, 0xe5,
  0x02, 0x06, 0x06, 0x07, 0x00, 0xf1, 0xff, 0xfc, 0xef, 0xfc, 0x06, 0xf9, 0x0e, 0x02, 0xf4, 0x0c,
  0x06, 0x02, 0xf8, 0xfd, 0xf3, 0x0c, 0x02, 0xf7, 0x0d, 0x10, 0x05, 0xf6, 0x05, 0x04, 0x09, 0xf7,
  0x07, 0x06, 0xf2, 0xf9, 0xf3, 0x25, 0xf0, 0xf8, 0x01, 0xff, 0x07, 0x00, 0x09, 0xfc, 0x0a, 0x01,
  0x05, 0x16, 0x0b, 0xed, 0x0e, 0xf5, 0xff, 0xf7, 0xf4, 0xf3, 0x05, 0x03, 0xff, 0xfb, 0x03, 0x08,
  0xfc, 0xfe, 0xf4, 0x01, 0x0a, 0x03, 0xf5, 0xf9, 0x04, 0xfc, 0xfc, 0xf5, 0xfa, 0x00, 0xff, 0x0a,
  0x08, 0xf8, 0x01, 0xf7, 0xff, 0xfe, 0x06, 0x03, 0x03, 0x06, 0xff, 0x06, 0x0b, 0xee, 0xeb, 0x0f,
  0x0b, 0x04, 0xed, 0xf3, 0xf2, 0xfb, 0xfe, 0x05, 0x04, 0x02, 0x05, 0x04, 0xf8, 0x06, 0xfa, 0x07,
  0xf3, 0x02, 0x00, 0xfb, 0x09, 0xf9, 0x00, 0x04, 0x06, 0x03, 0x02, 0x16, 0x06, 0x01, 0xf5, 0x0d,
  0xf5, 0x0a, 0xf4, 0x0d, 0xff, 0x00, 0xf6, 0xf5, 0x01, 0x09, 0x03, 0xf6, 0xfe, 0x08, 0x0b, 0xef,
  0xe2, 0xf8, 0x0b, 0xf8, 0x09, 0x00, 0xc9, 0xef, 0xf8, 0x13, 0x16, 0x08, 0xf2, 0x09, 0xfd, 0xfc,
  0xe5, 0x04, 0x02, 0x09, 0x08, 0xf8, 0xf9, 0x00, 0xf5, 0xf8, 0xfe, 0x02, 0xff, 0xf2, 0x08, 0x00,
  0xf5, 0x01, 0x00, 0xfc, 0xfe, 0x03, 0xfd, 0x0b, 0xfb, 0xfe, 0x01, 0x07, 0xf9, 0xf8, 0xfb, 0x06,
  0x08, 0x07, 0xf3, 0x07, 0xfd, 0xf9, 0x0b, 0x04, 0xfe, 0x03, 0x04, 0x00, 0xf4, 0xf8, 0xfd, 0x03,
  0xff, 0x07, 0xf1, 0xfa, 0xf2, 0x05, 0x09, 0x00, 0xfb, 0xed, 0x02, 0xff, 0xfe, 0xfa, 0xfc, 0x00,
  0xff, 0x0b, 0x05, 0xfb, 0x02, 0x05, 0xf5, 0x0d, 0xee, 0xfd, 0xfd, 0xfa, 0x08, 0xe7, 0xf9, 0x0e,
  0x0d, 0x00, 0xf7, 0xf9, 0xe9, 0x05, 0x09, 0xfa, 0x06, 0xf1, 0x04, 0x09, 0x0f, 0x00, 0xf9, 0xfd,
  0x0b, 0x03, 0xfd, 0x09, 0x13, 0x18, 0xfa, 0xf9, 0xfe, 0x03, 0xfe, 0x09, 0x03, 0xff, 0xf2, 0x02,
  0x0a, 0xfc, 0x03, 0x05, 0x11, 0xf7, 0xe4, 0x0b, 0x05, 0x05, 0xf3, 0xfc, 0x0c, 0xf7, 0x1c, 0x0d,
  0x14, 0x01, 0x01, 0x0b, 0x07, 0xd0, 0x0a, 0x08, 0x16, 0xf8, 0xfb, 0xf6, 0x0c, 0xfe, 0xf6, 0x03,
  0x10, 0x09, 0x01, 0xe5, 0x03, 0x05, 0xff, 0x08, 0x06, 0x01, 0xf5, 0xf5, 0xff, 0x06, 0xf8, 0x15,
  0x02, 0x08, 0xf9, 0xfa, 0x05, 0xff, 0x03, 0xde, 0xfd, 0x09, 0x11, 0x16, 0xef, 0xf4, 0x40, 0x06,
  0x05, 0xfc, 0xf8, 0xfe, 0x0a, 0xbe, 0xfd, 0xfc, 0x01, 0xf2, 0x06, 0x08, 0x0d, 0xfc, 0x0b, 0x07,
  0xf6, 0xf5, 0xff, 0xf8, 0x06, 0xeb, 0xfd, 0x0f, 0x03, 0xff, 0x11, 0x02, 0x00, 0xf2, 0x06, 0xfa,
  0xf8, 0x01, 0x08, 0x04, 0xf5, 0xf2, 0x44, 0x04, 0x0b, 0x0c, 0xfe, 0xfc, 0x05, 0xfd, 0x09, 0xf9,
  0xfc, 0xea, 0x03, 0x0f, 0xf7, 0xef, 0x0a, 0x07, 0x0f, 0x04, 0x11, 0x10, 0x10, 0x0a, 0xe9, 0x0a,
  0xfa, 0xf9, 0x0b, 0xeb, 0x17, 0xf5, 0xfc, 0x10, 0x11, 0xf7, 0x03, 0xf0, 0xf5, 0x0f, 0x01, 0x04,
  0x0d, 0xf5, 0x11, 0x11, 0x27, 0x0b, 0x01, 0xe5, 0x04, 0xf7, 0x04, 0xf4, 0x06, 0x1a, 0x18, 0xf5,
  0xeb, 0xef, 0xea, 0x11, 0xfc, 0x1a, 0xf3, 0x01, 0x03, 0x00, 0xfd, 0x0d, 0xf5, 0x0b, 0xe4, 0x04,
  0x0c, 0x0a, 0x0c, 0xf7, 0x0f, 0x1a, 0xfd, 0xfb, 0x08, 0x1f, 0xfb, 0x14, 0x2d, 0x22, 0x16, 0x03,
  0x02, 0xaf, 0x4e, 0x16, 0x1a, 0xfd, 0xfc, 0x1b, 0x0a, 0x00, 0x01, 0x14, 0xfb, 0x2f, 0x10, 0x0d,
  0x65, 0x0f, 0x3b, 0x13, 0x14, 0x16, 0x7f, 0x03, 0xfd, 0x05, 0x09, 0x01, 0xf4, 0x06, 0x18, 0xe4,
  0x39, 0x06, 0x03, 0x8a, 0xe7, 0xc4, 0x08, 0xd2, 0xfa, 0xf9, 0x06, 0x00, 0xfc, 0x08, 0xfd, 0x0f,
  0x02, 0x06, 0x11, 0xf3, 0x0e, 0xfc, 0x12, 0xf5, 0x0f, 0x09, 0xf9, 0x0c, 0x01, 0x09, 0x0e, 0xf6,
  0xf5, 0x13, 0xfb, 0x12, 0x07, 0x13, 0x03, 0xfd, 0x44, 0x09, 0xc2, 0xf6, 0xf4, 0x36, 0x09, 0x00,
  0xfa, 0xfc, 0x0c, 0xf2, 0x02, 0xf2, 0xfe, 0x1f, 0x17, 0x2b, 0x07, 0xed, 0x0c, 0xe4, 0x06, 0xf4,
  0x00, 0x00, 0x03, 0x08, 0x06, 0x04, 0xf8, 0xfb, 0xfc, 0xfe, 0xf0, 0xf5, 0x00, 0x03, 0x0e, 0x09,
  0xf4, 0x03, 0xe7, 0xfd, 0xee, 0xf2, 0x02, 0x03, 0x05, 0x01, 0x00, 0x06, 0x0c, 0x10, 0x06, 0xfa,
  0xfd, 0xee, 0x0e, 0xfd, 0xf2, 0xfb, 0xfc, 0x06, 0x06, 0xf9, 0xf5, 0xf4, 0xfd, 0x07, 0xfc, 0x0a,
  0x0c, 0x02, 0x0c, 0xf6, 0x02, 0x04, 0xff, 0x04, 0x0d, 0xfd, 0xfb, 0xfd, 0xff, 0xf9, 0x02, 0xf3,
  0x0a, 0xf3, 0x0f, 0x10, 0x05, 0x0d, 0x03, 0x00, 0xfa, 0x0a, 0x09, 0x03, 0x1c, 0x09, 0x0e, 0xf9,
  0xfc, 0xf4, 0xea, 0xe7, 0x02, 0x00, 0x03, 0xf9, 0xf3, 0xf0, 0xf1, 0xf0, 0x01, 0xec, 0x1c, 0xf5,
  0xf8, 0xfc, 0x0e, 0xf8, 0xf8, 0x04, 0x02, 0xe4, 0xd0, 0x10, 0x0b, 0x13, 0xff, 0x12, 0x04, 0x03,
  0x00, 0x06, 0xfa, 0xf2, 0x03, 0xfb, 0x0c, 0x04, 0x0b, 0x02, 0xff, 0xf0, 0xea, 0x01, 0xfb, 0x0e,
  0xf9, 0xfa, 0x02, 0xf7, 0x09, 0xf3, 0x11, 0xfe, 0x12, 0x07, 0xfa, 0xfd, 0xfe, 0x07, 0xf8, 0x01,
  0xf2, 0xf4, 0x0a, 0x07, 0xfd, 0xfa, 0x21, 0xf7, 0xf8, 0xfe, 0x11, 0x0c, 0xf2, 0xfa, 0xff, 0xed,
  0x11, 0xf0, 0xf5, 0x12, 0x07, 0xfc, 0x00, 0xfc, 0xf9, 0xfd, 0x08, 0xf9, 0x0c, 0x02, 0xed, 0x00,
  0x04, 0xf3, 0xfb, 0xf7, 0x00, 0x0c, 0x01, 0x0b, 0xfa, 0x00, 0x09, 0xfc, 0x01, 0xf3, 0x06, 0x04,
  0x06, 0x03, 0x09, 0x08, 0xff, 0x03, 0x02, 0xf1, 0x00, 0x04, 0x09, 0x04, 0x01, 0x05, 0x0a, 0xff,
  0x0d, 0x07, 0xfd, 0x03, 0xff, 0xfd, 0x04, 0x04, 0xf8, 0x13, 0x0d, 0xf3, 0x07, 0x04, 0x04, 0x06,
  0x03, 0xf8, 0xfd, 0xfc, 0x0c, 0x0c, 0xe1, 0x0c, 0xfe, 0xf8, 0xf8, 0x10, 0xf8, 0x0f, 0x02, 0xfc,
  0x00, 0xfd, 0x05, 0x01, 0x12, 0xfc, 0xf4, 0xfe, 0xfc, 0x06, 0x02, 0x0a, 0x00, 0x04, 0x00, 0xee,
  0x01, 0xfe, 0x04, 0xf6, 0xfa, 0x0b, 0xe9, 0xfd, 0x0a, 0x00, 0x03, 0xfb, 0x01, 0xfa, 0x08, 0x0b,
  0xef, 0x02, 0x0c, 0xec, 0xfc, 0xf9, 0x1e, 0x04, 0x02, 0x01, 0x0c, 0x05, 0x0b, 0x00, 0x00, 0xf8,
  0x01, 0xfb, 0xfb, 0xfd, 0x0d, 0xfd, 0x05, 0x03, 0xf9, 0x01, 0x04, 0xf3, 0xf0, 0xf7, 0xfe, 0xf5,
  0x09, 0x00, 0xf9, 0x09, 0x03, 0x02, 0x02, 0x07, 0x04, 0xf2, 0xfb, 0xf4, 0x07, 0xfe, 0xd4, 0xfe,
  0x04, 0x05, 0xff, 0x05, 0x06, 0xfe, 0x00, 0x04, 0xf1, 0xfc, 0xfd, 0x02, 0xfd, 0x04, 0xf7, 0xfe,
  0xff, 0x0f, 0xf7, 0xf9, 0xf5, 0xf9, 0xfd, 0x04, 0x06, 0x08, 0xf5, 0x08, 0x10, 0x09, 0x0a, 0x0c,
  0x0e, 0x20, 0xfa, 0xfe, 0xfc, 0xfd, 0xff, 0x03, 0x08, 0xf4, 0x07, 0xe2, 0xd8, 0xf6, 0x0d, 0x09,
  0xdd, 0xfa, 0xee, 0x03, 0x07, 0x0a, 0x0c, 0x0b, 0x03, 0xfc, 0x05, 0x00, 0xfe, 0xf2, 0xfc, 0xf1,
  0x17, 0x15, 0x02, 0xfc, 0xfe, 0xec, 0xe1, 0x1d, 0x06, 0xef, 0xfe, 0xfa, 0xf8, 0x3f, 0x16, 0xfc,
  0xfa, 0x1f, 0x01, 0x16, 0x0e, 0xfb, 0x10, 0xfe, 0x11, 0x11, 0xf2, 0x0b, 0x04, 0x09, 0xf9, 0xfa,
  0x03, 0x09, 0x0a, 0xe2, 0xfb, 0x17, 0x01, 0x12, 0x90, 0x08, 0xe1, 0x04, 0x0f, 0x01, 0x17, 0xfb,
  0xfc, 0x04, 0x10, 0x02, 0x0f, 0x0e, 0x09, 0x08, 0x16, 0x26, 0x01, 0x7f, 0xfa, 0xdb, 0x1c, 0x0a,
  0x00, 0x0e, 0x0a, 0xf9, 0x0a, 0xde, 0x0f, 0xfd, 0xfa, 0x06, 0x07, 0xf4, 0x03, 0x0b, 0xf9, 0xff,
  0xf8, 0xfc, 0x02, 0x0d, 0xf7, 0x07, 0x0e, 0xf7, 0x05, 0x05, 0x00, 0xf3, 0x00, 0xf7, 0xfa, 0xf4,
  0xfc, 0x03, 0x0e, 0xf6, 0x09, 0x04, 0xf7, 0xfe, 0x05, 0xfa, 0x02, 0xf9, 0x04, 0x08, 0x02, 0xf7,
  0xf4, 0xff, 0x01, 0xfa, 0x08, 0xed, 0xfe, 0xfb, 0x0c, 0xf7, 0xfe, 0xfc, 0xf6, 0xfd, 0xfa, 0xf9,
  0x09, 0xfc, 0x0a, 0x0b, 0xff, 0xfe, 0x0b, 0x00, 0x08, 0x00, 0x1b, 0x00, 0xfc, 0xfd, 0x03, 0xfb,
  0x07, 0xfe, 0x03, 0x09, 0xee, 0xf2, 0x0d, 0x00, 0x07, 0xff, 0x04, 0x0f, 0xfc, 0xfe, 0xfa, 0x00,
  0x03, 0xf2, 0xf5, 0xfe, 0x07, 0x02, 0xf9, 0xfb, 0x07, 0x06, 0xfc, 0xff, 0xfb, 0x09, 0xfc, 0x04,
  0xfb, 0xf3, 0xfe, 0x0e, 0x03, 0x28, 0xff, 0x05, 0xfd, 0xfa, 0x04, 0x0e, 0xfc, 0xfb, 0x0c, 0xf6,
  0xfc, 0x15, 0xce, 0x08, 0x12, 0xfa, 0x0f, 0x09, 0xfd, 0x05, 0xf0, 0xfd, 0x05, 0xe0, 0xfb, 0xf0,
  0x18, 0xf8, 0x19, 0xf9, 0x08, 0xf9, 0xcf, 0xf7, 0xf9, 0x0c, 0x1d, 0x0a, 0x05, 0xef, 0x0b, 0x33,
  0x03, 0x23, 0x02, 0xec, 0x0a, 0xd8, 0xf5, 0xfb, 0x0d, 0x0c, 0x0d, 0x02, 0x0b, 0x06, 0xff, 0x0a,
  0xf8, 0xfa, 0xfc, 0xfd, 0x0c, 0x01, 0xfc, 0x0d, 0x04, 0x02, 0x04, 0x00, 0xf7, 0x0b, 0xfc, 0xf6,
  0x00, 0x0b, 0xf3, 0x06, 0xfd, 0x00, 0xfa, 0x08, 0xf9, 0x0a, 0xf3, 0x09, 0xf6, 0x01, 0x0c, 0x02,
  0xf3, 0x01, 0xfa, 0x03, 0x06, 0x01, 0xfc, 0x02, 0xdd, 0x16, 0x07, 0xf9, 0x01, 0x02, 0xfa, 0xf7,
  0xfa, 0xfd, 0x00, 0x04, 0x0f, 0x14, 0xf6, 0xfd, 0xfc, 0xf2, 0x0d, 0xf8, 0x0d, 0x08, 0x12, 0x12,
  0xfd, 0xfe, 0x06, 0xfb, 0xfd, 0xfa, 0xf5, 0xff, 0xfb, 0x03, 0xf6, 0x0b, 0x05, 0x04, 0x0a, 0xf6,
  0xfc, 0xf2, 0x02, 0xf8, 0x07, 0x04, 0xfe, 0xf4, 0x05, 0xfa, 0xf7, 0x0d, 0x0f, 0x08, 0x06, 0x0a,
  0xf3, 0x0a, 0xf6, 0xf7, 0xf4, 0x01, 0xf4, 0x02, 0xf4, 0x0f, 0xfb, 0xf6, 0xfc, 0xfe, 0xf6, 0x0c,
  0x01, 0xf0, 0xf6, 0x12, 0xf8, 0x15, 0x02, 0x02, 0x10, 0xf6, 0x09, 0x00, 0x15, 0x00, 0xfd, 0x07,
  0x01, 0x0a, 0x12, 0x0b, 0x01, 0x10, 0xf1, 0xf3, 0x03, 0xf9, 0xff, 0xf3, 0x0c, 0x0c, 0x08, 0x0d,
  0x15, 0x02, 0xf9, 0x10, 0x08, 0xfd, 0x03, 0x06, 0xe0, 0x01, 0x0c, 0xe7, 0x00, 0xf6, 0x3c, 0xfa,
  0xfd, 0xf8, 0xfe, 0x07, 0x07, 0x06, 0xfd, 0x0b, 0x06, 0xfe, 0xf1, 0x00, 0x02, 0x02, 0x0a, 0x05,
  0x04, 0x01, 0x06, 0x0f, 0xf0, 0x0a, 0xf2, 0xfd, 0xf2, 0xfa, 0x0a, 0x05, 0x01, 0xfe, 0xef, 0xf0,
  0x01, 0x00, 0xfd, 0xf5, 0xf6, 0x00, 0x2c, 0xfd, 0x0f, 0x00, 0xfe, 0x0c, 0xf5, 0xf8, 0x09, 0x06,
  0xee, 0x00, 0xf4, 0xeb, 0x06, 0xfb, 0x03, 0xfc, 0x08, 0x0a, 0x11, 0x07, 0xfb, 0xf8, 0xf6, 0x0e,
  0x05, 0x08, 0x0a, 0xef, 0x18, 0xf2, 0x02, 0x09, 0x0e, 0xfd, 0xe3, 0x01, 0xef, 0x08, 0x0d, 0xf7,
  0xfb, 0xfb, 0xfc, 0x1f, 0x26, 0xfa, 0xf7, 0xf3, 0x05, 0x11, 0xf8, 0xf3, 0xf9, 0x03, 0x1e, 0x04,
  0x03, 0xfa, 0x00, 0x08, 0xfb, 0xf8, 0xf8, 0x06, 0x06, 0x0d, 0x0d, 0x0c, 0xf4, 0xf0, 0xe4, 0x15,
  0xfe, 0x07, 0xfb, 0xed, 0x0a, 0x29, 0x24, 0x05, 0x14, 0x2c, 0xfb, 0x1c, 0x15, 0x1e, 0x13, 0xf8,
  0x04, 0xee, 0x08, 0x10, 0x09, 0x05, 0x01, 0xf8, 0x17, 0x04, 0xfa, 0xa3, 0xfb, 0x10, 0x12, 0x17,
  0x8c, 0x0a, 0xea, 0x07, 0xfe, 0xfd, 0x18, 0x19, 0xfc, 0xfd, 0x06, 0x10, 0x11, 0x03, 0x08, 0x81,
  0x37, 0x15, 0x13, 0x10, 0xe9, 0xd4, 0x20, 0x13, 0x15, 0xfb, 0xf6, 0x04, 0xfb, 0xed, 0x1b, 0xf8,
  0x08, 0x0a, 0x0e, 0xec, 0x01, 0x06, 0x0b, 0x0e, 0x06, 0xfc, 0xf6, 0x0b, 0xff, 0x04, 0x05, 0x02,
  0x02, 0xfa, 0x03, 0xf2, 0x01, 0xf8, 0xfd, 0xf2, 0xc0, 0xf8, 0x17, 0xff, 0x07, 0x01, 0xde, 0xf6,
  0x0a, 0x0a, 0xf9, 0xf7, 0x01, 0x08, 0x0e, 0xef, 0x05, 0x0e, 0xf8, 0x33, 0x0e, 0xdf, 0x17, 0x0b,
  0x07, 0x00, 0x10, 0x04, 0xf7, 0x0f, 0xef, 0x06, 0xfd, 0xfb, 0x0c, 0xfe, 0x09, 0xfb, 0xf9, 0x08,
  0x08, 0xff, 0xf6, 0x00, 0xe8, 0x0b, 0xfa, 0x02, 0x02, 0xf9, 0x0a, 0x05, 0x11, 0xfc, 0x08, 0xf1,
  0x09, 0x07, 0x00, 0x01, 0xf5, 0xfb, 0xf8, 0x00, 0xf4, 0xef, 0xdd, 0x0f, 0xfc, 0x12, 0x01, 0x03,
  0x0f, 0x04, 0x0d, 0xfe, 0x0b, 0x04, 0xee, 0x08, 0x0e, 0xf5, 0x13, 0x07, 0x02, 0x15, 0x0b, 0x11,
  0x13, 0xfb, 0x0f, 0x1c, 0x0e, 0x0f, 0x01, 0x0a, 0xfd, 0xf9, 0x02, 0xfd, 0x01, 0x09, 0x02, 0x06,
  0xf8, 0xf9, 0xfa, 0xf8, 0x00, 0xeb, 0x04, 0xf6, 0x14, 0xf4, 0x1b, 0x09, 0x0a, 0xf6, 0x18, 0x0d,
  0xf5, 0xf6, 0x0c, 0x15, 0xfd, 0xef, 0xfd, 0xf0, 0xfe, 0x14, 0xfc, 0xee, 0x0a, 0xe9, 0x03, 0xef,
  0xff, 0x0e, 0x07, 0xed, 0x0c, 0x19, 0xff, 0x06, 0xf3, 0xf1, 0x00, 0x01, 0xf3, 0xf5, 0x0c, 0x05,
  0xfd, 0x11, 0xf5, 0x02, 0x00, 0xfa, 0xfa, 0xf8, 0xfc, 0x07, 0x00, 0x03, 0x03, 0xdb, 0xfa, 0x05,
  0x0c, 0x00, 0xf1, 0x14, 0x09, 0xfa, 0xe2, 0x04, 0xf0, 0xf2, 0x0f, 0x06, 0xf6, 0xf9, 0xf5, 0x0b,
  0x09, 0xed, 0xfe, 0xf5, 0x0b, 0xef, 0xf9, 0xf7, 0x06, 0xfc, 0x04, 0x0b, 0x36, 0xff, 0xff, 0xff,
  0x04, 0x00, 0x00, 0x00, 0x10, 0x00, 0x00, 0x00, 0xa7, 0x03, 0x00, 0x00, 0x28, 0x05, 0x00, 0x00,
  0xff, 0x02, 0x00, 0x00, 0x1c, 0x04, 0x00, 0x00, 0xfc, 0xff, 0xff, 0xff, 0x04, 0x00, 0x04, 0x00,
  0x04, 0x00, 0x00, 0x00, 0x0f, 0x00, 0x00, 0x00, 0x4d, 0x4c, 0x49, 0x52, 0x20, 0x43, 0x6f, 0x6e,
  0x76, 0x65, 0x72, 0x74, 0x65, 0x64, 0x2e, 0x00, 0x01, 0x00, 0x00, 0x00, 0x14, 0x00, 0x00, 0x00,
  0x00, 0x00, 0x0e, 0x00, 0x18, 0x00, 0x14, 0x00, 0x10, 0x00, 0x0c, 0x00, 0x08, 0x00, 0x04, 0x00,
  0x0e, 0x00, 0x00, 0x00, 0x14, 0x00, 0x00, 0x00, 0x1c, 0x00, 0x00, 0x00, 0x9c, 0x02, 0x00, 0x00,
  0xa0, 0x02, 0x00, 0x00, 0xa4, 0x02, 0x00, 0x00, 0x04, 0x00, 0x00, 0x00, 0x6d, 0x61, 0x69, 0x6e,
  0x00, 0x00, 0x00, 0x00, 0x09, 0x00, 0x00, 0x00, 0x38, 0x02, 0x00, 0x00, 0xe8, 0x01, 0x00, 0x00,
  0xa8, 0x01, 0x00, 0x00, 0x68, 0x01, 0x00, 0x00, 0x28, 0x01, 0x00, 0x00, 0xe8, 0x00, 0x00, 0x00,
  0xa8, 0x00, 0x00, 0x00, 0x60, 0x00, 0x00, 0x00, 0x14, 0x00, 0x00, 0x00, 0x00, 0x00, 0x0e, 0x00,
  0x1a, 0x00, 0x14, 0x00, 0x10, 0x00, 0x0c, 0x00, 0x0b, 0x00, 0x04, 0x00, 0x0e, 0x00, 0x00, 0x00,
  0x1c, 0x00, 0x00, 0x00, 0x00, 0x00, 0x00, 0x5e, 0x1c, 0x00, 0x00, 0x00, 0x20, 0x00, 0x00, 0x00,
  0x01, 0x00, 0x00, 0x00, 0x00, 0x00, 0x06, 0x00, 0x08, 0x00, 0x04, 0x00, 0x06, 0x00, 0x00, 0x00,
  0x02, 0x00, 0x00, 0x00, 0x01, 0x00, 0x00, 0x00, 0x19, 0x00, 0x00, 0x00, 0x01, 0x00, 0x00, 0x00,
  0x18, 0x00, 0x00, 0x00, 0x00, 0x00, 0x0e, 0x00, 0x16, 0x00, 0x00, 0x00, 0x10, 0x00, 0x0c, 0x00,
  0x0b, 0x00, 0x04, 0x00, 0x0e, 0x00, 0x00, 0x00, 0x1c, 0x00, 0x00, 0x00, 0x00, 0x00, 0x00, 0x01,
  0x20, 0x00, 0x00, 0x00, 0x24, 0x00, 0x00, 0x00, 0x00, 0x00, 0x0a, 0x00, 0x0c, 0x00, 0x00, 0x00,
  0x08, 0x00, 0x04, 0x00, 0x0a, 0x00, 0x00, 0x00, 0x01, 0x00, 0x00, 0x00, 0x01, 0x00, 0x00, 0x00,
  0x01, 0x00, 0x00, 0x00, 0x18, 0x00, 0x00, 0x00, 0x03, 0x00, 0x00, 0x00, 0x17, 0x00, 0x00, 0x00,
  0x02, 0x00, 0x00, 0x00, 0x01, 0x00, 0x00, 0x00, 0x96, 0xfe, 0xff, 0xff, 0x10, 0x00, 0x00, 0x00,
  0x00, 0x00, 0x00, 0x01, 0x18, 0x00, 0x00, 0x00, 0x1c, 0x00, 0x00, 0x00, 0x88, 0xfe, 0xff, 0xff,
  0x00, 0x00, 0x00, 0x01, 0x01, 0x00, 0x00, 0x00, 0x01, 0x00, 0x00, 0x00, 0x01, 0x00, 0x00, 0x00,
  0x17, 0x00, 0x00, 0x00, 0x03, 0x00, 0x00, 0x00, 0x16, 0x00, 0x00, 0x00, 0x04, 0x00, 0x00, 0x00,
  0x03, 0x00, 0x00, 0x00, 0xd2, 0xfe, 0xff, 0xff, 0x10, 0x00, 0x00, 0x00, 0x00, 0x00, 0x00, 0x01,
  0x18, 0x00, 0x00, 0x00, 0x1c, 0x00, 0x00, 0x00, 0xc4, 0xfe, 0xff, 0xff, 0x00, 0x00, 0x00, 0x01,
  0x01, 0x00, 0x00, 0x00, 0x01, 0x00, 0x00, 0x00, 0x01, 0x00, 0x00, 0x00, 0x16, 0x00, 0x00, 0x00,
  0x03, 0x00, 0x00, 0x00, 0x15, 0x00, 0x00, 0x00, 0x06, 0x00, 0x00, 0x00, 0x05, 0x00, 0x00, 0x00,
  0x0e, 0xff, 0xff, 0xff, 0x10, 0x00, 0x00, 0x00, 0x00, 0x00, 0x00, 0x01, 0x18, 0x00, 0x00, 0x00,
  0x1c, 0x00, 0x00, 0x00, 0x00, 0xff, 0xff, 0xff, 0x00, 0x00, 0x00, 0x01, 0x01, 0x00, 0x00, 0x00,
  0x01, 0x00, 0x00, 0x00, 0x01, 0x00, 0x00, 0x00, 0x15, 0x00, 0x00, 0x00, 0x03, 0x00, 0x00, 0x00,
  0x14, 0x00, 0x00, 0x00, 0x08, 0x00, 0x00, 0x00, 0x07, 0x00, 0x00, 0x00, 0x4a, 0xff, 0xff, 0xff,
  0x10, 0x00, 0x00, 0x00, 0x00, 0x00, 0x00, 0x01, 0x18, 0x00, 0x00, 0x00, 0x1c, 0x00, 0x00, 0x00,
  0x3c, 0xff, 0xff, 0xff, 0x00, 0x00, 0x00, 0x01, 0x01, 0x00, 0x00, 0x00, 0x01, 0x00, 0x00, 0x00,
  0x01, 0x00, 0x00, 0x00, 0x14, 0x00, 0x00, 0x00, 0x03, 0x00, 0x00, 0x00, 0x13, 0x00, 0x00, 0x00,
  0x0a, 0x00, 0x00, 0x00, 0x09, 0x00, 0x00, 0x00, 0x86, 0xff, 0xff, 0xff, 0x10, 0x00, 0x00, 0x00,
  0x00, 0x00, 0x00, 0x01, 0x18, 0x00, 0x00, 0x00, 0x1c, 0x00, 0x00, 0x00, 0x78, 0xff, 0xff, 0xff,
  0x00, 0x00, 0x00, 0x01, 0x01, 0x00, 0x00, 0x00, 0x01, 0x00, 0x00, 0x00, 0x01, 0x00, 0x00, 0x00,
  0x13, 0x00, 0x00, 0x00, 0x03, 0x00, 0x00, 0x00, 0x12, 0x00, 0x00, 0x00, 0x0c, 0x00, 0x00, 0x00,
  0x0b, 0x00, 0x00, 0x00, 0xc2, 0xff, 0xff, 0xff, 0x10, 0x00, 0x00, 0x00, 0x00, 0x00, 0x00, 0x01,
  0x18, 0x00, 0x00, 0x00, 0x1c, 0x00, 0x00, 0x00, 0xb4, 0xff, 0xff, 0xff, 0x00, 0x00, 0x00, 0x01,
  0x01, 0x00, 0x00, 0x00, 0x01, 0x00, 0x00, 0x00, 0x01, 0x00, 0x00, 0x00, 0x12, 0x00, 0x00, 0x00,
  0x03, 0x00, 0x00, 0x00, 0x11, 0x00, 0x00, 0x00, 0x0e, 0x00, 0x00, 0x00, 0x0d, 0x00, 0x00, 0x00,
  0x00, 0x00, 0x0e, 0x00, 0x14, 0x00, 0x00, 0x00, 0x10, 0x00, 0x0c, 0x00, 0x0b, 0x00, 0x04, 0x00,
  0x0e, 0x00, 0x00, 0x00, 0x1c, 0x00, 0x00, 0x00, 0x00, 0x00, 0x00, 0x01, 0x24, 0x00, 0x00, 0x00,
  0x28, 0x00, 0x00, 0x00, 0x0c, 0x00, 0x10, 0x00, 0x00, 0x00, 0x0c, 0x00, 0x08, 0x00, 0x07, 0x00,
  0x0c, 0x00, 0x00, 0x00, 0x00, 0x00, 0x00, 0x01, 0x01, 0x00, 0x00, 0x00, 0x01, 0x00, 0x00, 0x00,
  0x01, 0x00, 0x00, 0x00, 0x11, 0x00, 0x00, 0x00, 0x03, 0x00, 0x00, 0x00, 0x00, 0x00, 0x00, 0x00,
  0x10, 0x00, 0x00, 0x00, 0x0f, 0x00, 0x00, 0x00, 0x01, 0x00, 0x00, 0x00, 0x19, 0x00, 0x00, 0x00,
  0x01, 0x00, 0x00, 0x00, 0x00, 0x00, 0x00, 0x00, 0x1a, 0x00, 0x00, 0x00, 0xd4, 0x22, 0x00, 0x00,
  0xdc, 0x21, 0x00, 0x00, 0x20, 0x21, 0x00, 0x00, 0xbc, 0x1d, 0x00, 0x00, 0xa8, 0x1a, 0x00, 0x00,
  0x54, 0x19, 0x00, 0x00, 0x50, 0x18, 0x00, 0x00, 0xfc, 0x16, 0x00, 0x00, 0xf8, 0x15, 0x00, 0x00,
  0xa4, 0x14, 0x00, 0x00, 0xa0, 0x13, 0x00, 0x00, 0x4c, 0x12, 0x00, 0x00, 0x48, 0x11, 0x00, 0x00,
  0xf4, 0x0f, 0x00, 0x00, 0xf0, 0x0e, 0x00, 0x00, 0x64, 0x0b, 0x00, 0x00, 0x48, 0x08, 0x00, 0x00,
  0x2c, 0x07, 0x00, 0x00, 0x38, 0x06, 0x00, 0x00, 0x44, 0x05, 0x00, 0x00, 0x50, 0x04, 0x00, 0x00,
  0x5c, 0x03, 0x00, 0x00, 0x68, 0x02, 0x00, 0x00, 0x74, 0x01, 0x00, 0x00, 0x90, 0x00, 0x00, 0x00,
  0x04, 0x00, 0x00, 0x00, 0xaa, 0xdd, 0xff, 0xff, 0x00, 0x00, 0x00, 0x01, 0x18, 0x00, 0x00, 0x00,
  0x28, 0x00, 0x00, 0x00, 0x44, 0x00, 0x00, 0x00, 0x1a, 0x00, 0x00, 0x00, 0x00, 0x00, 0x00, 0x09,
  0x58, 0x00, 0x00, 0x00, 0x04, 0x00, 0x00, 0x00, 0xff, 0xff, 0xff, 0xff, 0x30, 0x00, 0x00, 0x00,
  0x40, 0x00, 0x00, 0x00, 0x01, 0x00, 0x00, 0x00, 0x94, 0xdd, 0xff, 0xff, 0x08, 0x00, 0x00, 0x00,
  0x10, 0x00, 0x00, 0x00, 0x01, 0x00, 0x00, 0x00, 0x81, 0xff, 0xff, 0xff, 0xff, 0xff, 0xff, 0xff,
  0x01, 0x00, 0x00, 0x00, 0x39, 0x8a, 0x8c, 0x3b, 0x1b, 0x00, 0x00, 0x00, 0x53, 0x74, 0x61, 0x74,
  0x65, 0x66, 0x75, 0x6c, 0x50, 0x61, 0x72, 0x74, 0x69, 0x74, 0x69, 0x6f, 0x6e, 0x65, 0x64, 0x43,
  0x61, 0x6c, 0x6c, 0x5f, 0x31, 0x3a, 0x30, 0x00, 0x04, 0x00, 0x00, 0x00, 0x01, 0x00, 0x00, 0x00,
  0x30, 0x00, 0x00, 0x00, 0x40, 0x00, 0x00, 0x00, 0x01, 0x00, 0x00, 0x00, 0x32, 0xde, 0xff, 0xff,
  0x00, 0x00, 0x00, 0x01, 0x18, 0x00, 0x00, 0x00, 0x28, 0x00, 0x00, 0x00, 0x44, 0x00, 0x00, 0x00,
  0x19, 0x00, 0x00, 0x00, 0x00, 0x00, 0x00, 0x09, 0xb0, 0x00, 0x00, 0x00, 0x04, 0x00, 0x00, 0x00,
  0xff, 0xff, 0xff, 0xff, 0x18, 0x00, 0x00, 0x00, 0x20, 0x00, 0x00, 0x00, 0x04, 0x00, 0x00, 0x00,
  0x1c, 0xde, 0xff, 0xff, 0x08, 0x00, 0x00, 0x00, 0x10, 0x00, 0x00, 0x00, 0x01, 0x00, 0x00, 0x00,
  0x81, 0xff, 0xff, 0xff, 0xff, 0xff, 0xff, 0xff, 0x01, 0x00, 0x00, 0x00, 0x39, 0x8a, 0x8c, 0x3b,
  0x70, 0x00, 0x00, 0x00, 0x66, 0x73, 0x72, 0x63, 0x6e, 0x6e, 0x5f, 0x64, 0x73, 0x5f, 0x31, 0x2f,
  0x73, 0x75, 0x62, 0x70, 0x69, 0x78, 0x65, 0x6c, 0x5f, 0x63, 0x6f, 0x6e, 0x76, 0x5f, 0x31, 0x2f,
  0x42, 0x69, 0x61, 0x73, 0x41, 0x64, 0x64, 0x3b, 0x66, 0x73, 0x72, 0x63, 0x6e, 0x6e, 0x5f, 0x64,
  0x73, 0x5f, 0x31, 0x2f, 0x73, 0x75, 0x62, 0x70, 0x69, 0x78, 0x65, 0x6c, 0x5f, 0x63, 0x6f, 0x6e,
  0x76, 0x5f, 0x31, 0x2f, 0x63, 0x6f, 0x6e, 0x76, 0x6f, 0x6c, 0x75, 0x74, 0x69, 0x6f, 0x6e, 0x3b,
  0x66, 0x73, 0x72, 0x63, 0x6e, 0x6e, 0x5f, 0x64, 0x73, 0x5f, 0x31, 0x2f, 0x73, 0x75, 0x62, 0x70,
  0x69, 0x78, 0x65, 0x6c, 0x5f, 0x63, 0x6f, 0x6e, 0x76, 0x5f, 0x31, 0x2f, 0x53, 0x71, 0x75, 0x65,
  0x65, 0x7a, 0x65, 0x31, 0x00, 0x00, 0x00, 0x00, 0x04, 0x00, 0x00, 0x00, 0x01, 0x00, 0x00, 0x00,
  0x18, 0x00, 0x00, 0x00, 0x20, 0x00, 0x00, 0x00, 0x04, 0x00, 0x00, 0x00, 0x12, 0xdf, 0xff, 0xff,
  0x00, 0x00, 0x00, 0x01, 0x18, 0x00, 0x00, 0x00, 0x28, 0x00, 0x00, 0x00, 0x44, 0x00, 0x00, 0x00,
  0x18, 0x00, 0x00, 0x00, 0x00, 0x00, 0x00, 0x09, 0xc0, 0x00, 0x00, 0x00, 0x04, 0x00, 0x00, 0x00,
  0xff, 0xff, 0xff, 0xff, 0x18, 0x00, 0x00, 0x00, 0x20, 0x00, 0x00, 0x00, 0x38, 0x00, 0x00, 0x00,
  0xfc, 0xde, 0xff, 0xff, 0x08, 0x00, 0x00, 0x00, 0x10, 0x00, 0x00, 0x00, 0x01, 0x00, 0x00, 0x00,
  0x80, 0xff, 0xff, 0xff, 0xff, 0xff, 0xff, 0xff, 0x01, 0x00, 0x00, 0x00, 0x3b, 0x45, 0x25, 0x3b,
  0x81, 0x00, 0x00, 0x00, 0x66, 0x73, 0x72, 0x63, 0x6e, 0x6e, 0x5f, 0x64, 0x73, 0x5f, 0x31, 0x2f,
  0x65, 0x78, 0x70, 0x61, 0x6e, 0x64, 0x69, 0x6e, 0x67, 0x5f, 0x31, 0x2f, 0x52, 0x65, 0x6c, 0x75,
  0x3b, 0x66, 0x73, 0x72, 0x63, 0x6e, 0x6e, 0x5f, 0x64, 0x73, 0x5f, 0x31, 0x2f, 0x65, 0x78, 0x70,
  0x61, 0x6e, 0x64, 0x69, 0x6e, 0x67, 0x5f, 0x31, 0x2f, 0x42, 0x69, 0x61, 0x73, 0x41, 0x64, 0x64,
  0x3b, 0x66, 0x73, 0x72, 0x63, 0x6e, 0x6e, 0x5f, 0x64, 0x73, 0x5f, 0x31, 0x2f, 0x65, 0x78, 0x70,
  0x61, 0x6e, 0x64, 0x69, 0x6e, 0x67, 0x5f, 0x31, 0x2f, 0x63, 0x6f, 0x6e, 0x76, 0x6f, 0x6c, 0x75,
  0x74, 0x69, 0x6f, 0x6e, 0x3b, 0x66, 0x73, 0x72, 0x63, 0x6e, 0x6e, 0x5f, 0x64, 0x73, 0x5f, 0x31,
  0x2f, 0x65, 0x78, 0x70, 0x61, 0x6e, 0x64, 0x69, 0x6e, 0x67, 0x5f, 0x31, 0x2f, 0x53, 0x71, 0x75,
  0x65, 0x65, 0x7a, 0x65, 0x31, 0x00, 0x00, 0x00, 0x04, 0x00, 0x00, 0x00, 0x01, 0x00, 0x00, 0x00,
  0x18, 0x00, 0x00, 0x00, 0x20, 0x00, 0x00, 0x00, 0x38, 0x00, 0x00, 0x00, 0x02, 0xe0, 0xff, 0xff,
  0x00, 0x00, 0x00, 0x01, 0x18, 0x00, 0x00, 0x00, 0x28, 0x00, 0x00, 0x00, 0x44, 0x00, 0x00, 0x00,
  0x17, 0x00, 0x00, 0x00, 0x00, 0x00, 0x00, 0x09, 0xc0, 0x00, 0x00, 0x00, 0x04, 0x00, 0x00, 0x00,
  0xff, 0xff, 0xff, 0xff, 0x18, 0x00, 0x00, 0x00, 0x20, 0x00, 0x00, 0x00, 0x0c, 0x00, 0x00, 0x00,
  0xec, 0xdf, 0xff, 0xff, 0x08, 0x00, 0x00, 0x00, 0x10, 0x00, 0x00, 0x00, 0x01, 0x00, 0x00, 0x00,
  0x80, 0xff, 0xff, 0xff, 0xff, 0xff, 0xff, 0xff, 0x01, 0x00, 0x00, 0x00, 0x36, 0xe7, 0xae, 0x3b,
  0x81, 0x00, 0x00, 0x00, 0x66, 0x73, 0x72, 0x63, 0x6e, 0x6e, 0x5f, 0x64, 0x73, 0x5f, 0x31, 0x2f,
  0x6d, 0x61, 0x70, 0x70, 0x69, 0x6e, 0x67, 0x5f, 0x33, 0x5f, 0x31, 0x2f, 0x52, 0x65, 0x6c, 0x75,
  0x3b, 0x66, 0x73, 0x72, 0x63, 0x6e, 0x6e, 0x5f, 0x64, 0x73, 0x5f, 0x31, 0x2f, 0x6d, 0x61, 0x70,
  0x70, 0x69, 0x6e, 0x67, 0x5f, 0x33, 0x5f, 0x31, 0x2f, 0x42, 0x69, 0x61, 0x73, 0x41, 0x64, 0x64,
  0x3b, 0x66, 0x73, 0x72, 0x63, 0x6e, 0x6e, 0x5f, 0x64, 0x73, 0x5f, 0x31, 0x2f, 0x6d, 0x61, 0x70,
  0x70, 0x69, 0x6e, 0x67, 0x5f, 0x33, 0x5f, 0x31, 0x2f, 0x63, 0x6f, 0x6e, 0x76, 0x6f, 0x6c, 0x75,
  0x74, 0x69, 0x6f, 0x6e, 0x3b, 0x66, 0x73, 0x72, 0x63, 0x6e, 0x6e, 0x5f, 0x64, 0x73, 0x5f, 0x31,
  0x2f, 0x6d, 0x61, 0x70, 0x70, 0x69, 0x6e, 0x67, 0x5f, 0x33, 0x5f, 0x31, 0x2f, 0x53, 0x71, 0x75,
  0x65, 0x65, 0x7a, 0x65, 0x31, 0x00, 0x00, 0x00, 0x04, 0x00, 0x00, 0x00, 0x01, 0x00, 0x00, 0x00,
  0x18, 0x00, 0x00, 0x00, 0x20, 0x00, 0x00, 0x00, 0x0c, 0x00, 0x00, 0x00, 0xf2, 0xe0, 0xff, 0xff,
  0x00, 0x00, 0x00, 0x01, 0x18, 0x00, 0x00, 0x00, 0x28, 0x00, 0x00, 0x00, 0x44, 0x00, 0x00, 0x00,
  0x16, 0x00, 0x00, 0x00, 0x00, 0x00, 0x00, 0x09, 0xc0, 0x00, 0x00, 0x00, 0x04, 0x00, 0x00, 0x00,
  0xff, 0xff, 0xff, 0xff, 0x18, 0x00, 0x00, 0x00, 0x20, 0x00, 0x00, 0x00, 0x0c, 0x00, 0x00, 0x00,
  0xdc, 0xe0, 0xff, 0xff, 0x08, 0x00, 0x00, 0x00, 0x10, 0x00, 0x00, 0x00, 0x01, 0x00, 0x00, 0x00,
  0x80, 0xff, 0xff, 0xff, 0xff, 0xff, 0xff, 0xff, 0x01, 0x00, 0x00, 0x00, 0xa5, 0xbe, 0x90, 0x3b,
  0x81, 0x00, 0x00, 0x00, 0x66, 0x73, 0x72, 0x63, 0x6e, 0x6e, 0x5f, 0x64, 0x73, 0x5f, 0x31, 0x2f,
  0x6d, 0x61, 0x70, 0x70, 0x69, 0x6e, 0x67, 0x5f, 0x32, 0x5f, 0x31, 0x2f, 0x52, 0x65, 0x6c, 0x75,
  0x3b, 0x66, 0x73, 0x72, 0x63, 0x6e, 0x6e, 0x5f, 0x64, 0x73, 0x5f, 0x31, 0x2f, 0x6d, 0x61, 0x70,
  0x70, 0x69, 0x6e, 0x67, 0x5f, 0x32, 0x5f, 0x31, 0x2f, 0x42, 0x69, 0x61, 0x73, 0x41, 0x64, 0x64,
  0x3b, 0x66, 0x73, 0x72, 0x63, 0x6e, 0x6e, 0x5f, 0x64, 0x73, 0x5f, 0x31, 0x2f, 0x6d, 0x61, 0x70,
  0x70, 0x69, 0x6e, 0x67, 0x5f, 0x32, 0x5f, 0x31, 0x2f, 0x63, 0x6f, 0x6e, 0x76, 0x6f, 0x6c, 0x75,
  0x74, 0x69, 0x6f, 0x6e, 0x3b, 0x66, 0x73, 0x72, 0x63, 0x6e, 0x6e, 0x5f, 0x64, 0x73, 0x5f, 0x31,
  0x2f, 0x6d, 0x61, 0x70, 0x70, 0x69, 0x6e, 0x67, 0x5f, 0x32, 0x5f, 0x31, 0x2f, 0x53, 0x71, 0x75,
  0x65, 0x65, 0x7a, 0x65, 0x31, 0x00, 0x00, 0x00, 0x04, 0x00, 0x00, 0x00, 0x01, 0x00, 0x00, 0x00,
  0x18, 0x00, 0x00, 0x00, 0x20, 0x00, 0x00, 0x00, 0x0c, 0x00, 0x00, 0x00, 0xe2, 0xe1, 0xff, 0xff,
  0x00, 0x00, 0x00, 0x01, 0x18, 0x00, 0x00, 0x00, 0x28, 0x00, 0x00, 0x00, 0x44, 0x00, 0x00, 0x00,
  0x15, 0x00, 0x00, 0x00, 0x00, 0x00, 0x00, 0x09, 0xc0, 0x00, 0x00, 0x00, 0x04, 0x00, 0x00, 0x00,
  0xff, 0xff, 0xff, 0xff, 0x18, 0x00, 0x00, 0x00, 0x20, 0x00, 0x00, 0x00, 0x0c, 0x00, 0x00, 0x00,
  0xcc, 0xe1, 0xff, 0xff, 0x08, 0x00, 0x00, 0x00, 0x10, 0x00, 0x00, 0x00, 0x01, 0x00, 0x00, 0x00,
  0x80, 0xff, 0xff, 0xff, 0xff, 0xff, 0xff, 0xff, 0x01, 0x00, 0x00, 0x00, 0xdd, 0x5e, 0x89, 0x3b,
  0x81, 0x00, 0x00, 0x00, 0x66, 0x73, 0x72, 0x63, 0x6e, 0x6e, 0x5f, 0x64, 0x73, 0x5f, 0x31, 0x2f,
  0x6d, 0x61, 0x70, 0x70, 0x69, 0x6e, 0x67, 0x5f, 0x31, 0x5f, 0x31, 0x2f, 0x52, 0x65, 0x6c, 0x75,
  0x3b, 0x66, 0x73, 0x72, 0x63, 0x6e, 0x6e, 0x5f, 0x64, 0x73, 0x5f, 0x31, 0x2f, 0x6d, 0x61, 0x70,
  0x70, 0x69, 0x6e, 0x67, 0x5f, 0x31, 0x5f, 0x31, 0x2f, 0x42, 0x69, 0x61, 0x73, 0x41, 0x64, 0x64,
  0x3b, 0x66, 0x73, 0x72, 0x63, 0x6e, 0x6e, 0x5f, 0x64, 0x73, 0x5f, 0x31, 0x2f, 0x6d, 0x61, 0x70,
  0x70, 0x69, 0x6e, 0x67, 0x5f, 0x31, 0x5f, 0x31, 0x2f, 0x63, 0x6f, 0x6e, 0x76, 0x6f, 0x6c, 0x75,
  0x74, 0x69, 0x6f, 0x6e, 0x3b, 0x66, 0x73, 0x72, 0x63, 0x6e, 0x6e, 0x5f, 0x64, 0x73, 0x5f, 0x31,
  0x2f, 0x6d, 0x61, 0x70, 0x70, 0x69, 0x6e, 0x67, 0x5f, 0x31, 0x5f, 0x31, 0x2f, 0x53, 0x71, 0x75,
  0x65, 0x65, 0x7a, 0x65, 0x31, 0x00, 0x00, 0x00, 0x04, 0x00, 0x00, 0x00, 0x01, 0x00, 0x00, 0x00,
  0x18, 0x00, 0x00, 0x00, 0x20, 0x00, 0x00, 0x00, 0x0c, 0x00, 0x00, 0x00, 0xd2, 0xe2, 0xff, 0xff,
  0x00, 0x00, 0x00, 0x01, 0x18, 0x00, 0x00, 0x00, 0x28, 0x00, 0x00, 0x00, 0x44, 0x00, 0x00, 0x00,
  0x14, 0x00, 0x00, 0x00, 0x00, 0x00, 0x00, 0x09, 0xc0, 0x00, 0x00, 0x00, 0x04, 0x00, 0x00, 0x00,
  0xff, 0xff, 0xff, 0xff, 0x18, 0x00, 0x00, 0x00, 0x20, 0x00, 0x00, 0x00, 0x0c, 0x00, 0x00, 0x00,
  0xbc, 0xe2, 0xff, 0xff, 0x08, 0x00, 0x00, 0x00, 0x10, 0x00, 0x00, 0x00, 0x01, 0x00, 0x00, 0x00,
  0x80, 0xff, 0xff, 0xff, 0xff, 0xff, 0xff, 0xff, 0x01, 0x00, 0x00, 0x00, 0x14, 0xaa, 0xac, 0x3b,
  0x81, 0x00, 0x00, 0x00, 0x66, 0x73, 0x72, 0x63, 0x6e, 0x6e, 0x5f, 0x64, 0x73, 0x5f, 0x31, 0x2f,
  0x6d, 0x61, 0x70, 0x70, 0x69, 0x6e, 0x67, 0x5f, 0x30, 0x5f, 0x31, 0x2f, 0x52, 0x65, 0x6c, 0x75,
  0x3b, 0x66, 0x73, 0x72, 0x63, 0x6e, 0x6e, 0x5f, 0x64, 0x73, 0x5f, 0x31, 0x2f, 0x6d, 0x61, 0x70,
  0x70, 0x69, 0x6e, 0x67, 0x5f, 0x30, 0x5f, 0x31, 0x2f, 0x42, 0x69, 0x61, 0x73, 0x41, 0x64, 0x64,
  0x3b, 0x66, 0x73, 0x72, 0x63, 0x6e, 0x6e, 0x5f, 0x64, 0x73, 0x5f, 0x31, 0x2f, 0x6d, 0x61, 0x70,
  0x70, 0x69, 0x6e, 0x67, 0x5f, 0x30, 0x5f, 0x31, 0x2f, 0x63, 0x6f, 0x6e, 0x76, 0x6f, 0x6c, 0x75,
  0x74, 0x69, 0x6f, 0x6e, 0x3b, 0x66, 0x73, 0x72, 0x63, 0x6e, 0x6e, 0x5f, 0x64, 0x73, 0x5f, 0x31,
  0x2f, 0x6d, 0x61, 0x70, 0x70, 0x69, 0x6e, 0x67, 0x5f, 0x30, 0x5f, 0x31, 0x2f, 0x53, 0x71, 0x75,
  0x65, 0x65, 0x7a, 0x65, 0x31, 0x00, 0x00, 0x00, 0x04, 0x00, 0x00, 0x00, 0x01, 0x00, 0x00, 0x00,
  0x18, 0x00, 0x00, 0x00, 0x20, 0x00, 0x00, 0x00, 0x0c, 0x00, 0x00, 0x00, 0xc2, 0xe3, 0xff, 0xff,
  0x00, 0x00, 0x00, 0x01, 0x18, 0x00, 0x00, 0x00, 0x28, 0x00, 0x00, 0x00, 0x44, 0x00, 0x00, 0x00,
  0x13, 0x00, 0x00, 0x00, 0x00, 0x00, 0x00, 0x09, 0xc0, 0x00, 0x00, 0x00, 0x04, 0x00, 0x00, 0x00,
  0xff, 0xff, 0xff, 0xff, 0x18, 0x00, 0x00, 0x00, 0x20, 0x00, 0x00, 0x00, 0x0c, 0x00, 0x00, 0x00,
  0xac, 0xe3, 0xff, 0xff, 0x08, 0x00, 0x00, 0x00, 0x10, 0x00, 0x00, 0x00, 0x01, 0x00, 0x00, 0x00,
  0x80, 0xff, 0xff, 0xff, 0xff, 0xff, 0xff, 0xff, 0x01, 0x00, 0x00, 0x00, 0x81, 0xb5, 0xa0, 0x3b,
  0x81, 0x00, 0x00, 0x00, 0x66, 0x73, 0x72, 0x63, 0x6e, 0x6e, 0x5f, 0x64, 0x73, 0x5f, 0x31, 0x2f,
  0x73, 0x68, 0x72, 0x69, 0x6e, 0x6b, 0x69, 0x6e, 0x67, 0x5f, 0x31, 0x2f, 0x52, 0x65, 0x6c, 0x75,
  0x3b, 0x66, 0x73, 0x72, 0x63, 0x6e, 0x6e, 0x5f, 0x64, 0x73, 0x5f, 0x31, 0x2f, 0x73, 0x68, 0x72,
  0x69, 0x6e, 0x6b, 0x69, 0x6e, 0x67, 0x5f, 0x31, 0x2f, 0x42, 0x69, 0x61, 0x73, 0x41, 0x64, 0x64,
  0x3b, 0x66, 0x73, 0x72, 0x63, 0x6e, 0x6e, 0x5f, 0x64, 0x73, 0x5f, 0x31, 0x2f, 0x73, 0x68, 0x72,
  0x69, 0x6e, 0x6b, 0x69, 0x6e, 0x67, 0x5f, 0x31, 0x2f, 0x63, 0x6f, 0x6e, 0x76, 0x6f, 0x6c, 0x75,
  0x74, 0x69, 0x6f, 0x6e, 0x3b, 0x66, 0x73, 0x72, 0x63, 0x6e, 0x6e, 0x5f, 0x64, 0x73, 0x5f, 0x31,
  0x2f, 0x73, 0x68, 0x72, 0x69, 0x6e, 0x6b, 0x69, 0x6e, 0x67, 0x5f, 0x31, 0x2f, 0x53, 0x71, 0x75,
  0x65, 0x65, 0x7a, 0x65, 0x31, 0x00, 0x00, 0x00, 0x04, 0x00, 0x00, 0x00, 0x01, 0x00, 0x00, 0x00,
  0x18, 0x00, 0x00, 0x00, 0x20, 0x00, 0x00, 0x00, 0x0c, 0x00, 0x00, 0x00, 0xb2, 0xe4, 0xff, 0xff,
  0x00, 0x00, 0x00, 0x01, 0x18, 0x00, 0x00, 0x00, 0x28, 0x00, 0x00, 0x00, 0x48, 0x00, 0x00, 0x00,
  0x12, 0x00, 0x00, 0x00, 0x00, 0x00, 0x00, 0x09, 0xe8, 0x00, 0x00, 0x00, 0x04, 0x00, 0x00, 0x00,
  0xff, 0xff, 0xff, 0xff, 0x18, 0x00, 0x00, 0x00, 0x20, 0x00, 0x00, 0x00, 0x38, 0x00, 0x00, 0x00,
  0x9c, 0xe4, 0xff, 0xff, 0x08, 0x00, 0x00, 0x00, 0x14, 0x00, 0x00, 0x00, 0x01, 0x00, 0x00, 0x00,
  0x80, 0xff, 0xff, 0xff, 0xff, 0xff, 0xff, 0xff, 0x00, 0x00, 0x00, 0x00, 0x01, 0x00, 0x00, 0x00,
  0x86, 0x6f, 0x43, 0x3b, 0xa5, 0x00, 0x00, 0x00, 0x66, 0x73, 0x72, 0x63, 0x6e, 0x6e, 0x5f, 0x64,
  0x73, 0x5f, 0x31, 0x2f, 0x66, 0x65, 0x61, 0x74, 0x75, 0x72, 0x65, 0x5f, 0x65, 0x78, 0x74, 0x72,
  0x61, 0x63, 0x74, 0x69, 0x6f, 0x6e, 0x5f, 0x31, 0x2f, 0x52, 0x65, 0x6c, 0x75, 0x3b, 0x66, 0x73,
  0x72, 0x63, 0x6e, 0x6e, 0x5f, 0x64, 0x73, 0x5f, 0x31, 0x2f, 0x66, 0x65, 0x61, 0x74, 0x75, 0x72,
  0x65, 0x5f, 0x65, 0x78, 0x74, 0x72, 0x61, 0x63, 0x74, 0x69, 0x6f, 0x6e, 0x5f, 0x31, 0x2f, 0x42,
  0x69, 0x61, 0x73, 0x41, 0x64, 0x64, 0x3b, 0x66, 0x73, 0x72, 0x63, 0x6e, 0x6e, 0x5f, 0x64, 0x73,
  0x5f, 0x31, 0x2f, 0x66, 0x65, 0x61, 0x74, 0x75, 0x72, 0x65, 0x5f, 0x65, 0x78, 0x74, 0x72, 0x61,
  0x63, 0x74, 0x69, 0x6f, 0x6e, 0x5f, 0x31, 0x2f, 0x63, 0x6f, 0x6e, 0x76, 0x6f, 0x6c, 0x75, 0x74,
  0x69, 0x6f, 0x6e, 0x3b, 0x66, 0x73, 0x72, 0x63, 0x6e, 0x6e, 0x5f, 0x64, 0x73, 0x5f, 0x31, 0x2f,
  0x66, 0x65, 0x61, 0x74, 0x75, 0x72, 0x65, 0x5f, 0x65, 0x78, 0x74, 0x72, 0x61, 0x63, 0x74, 0x69,
  0x6f, 0x6e, 0x5f, 0x31, 0x2f, 0x53, 0x71, 0x75, 0x65, 0x65, 0x7a, 0x65, 0x31, 0x00, 0x00, 0x00,
  0x04, 0x00, 0x00, 0x00, 0x01, 0x00, 0x00, 0x00, 0x18, 0x00, 0x00, 0x00, 0x20, 0x00, 0x00, 0x00,
  0x38, 0x00, 0x00, 0x00, 0xbe, 0xe6, 0xff, 0xff, 0x00, 0x00, 0x00, 0x01, 0x14, 0x00, 0x00, 0x00,
  0xc4, 0x02, 0x00, 0x00, 0x11, 0x00, 0x00, 0x00, 0x00, 0x00, 0x00, 0x09, 0xec, 0x02, 0x00, 0x00,
  0x9c, 0xe5, 0xff, 0xff, 0x08, 0x00, 0x00, 0x00, 0xc8, 0x01, 0x00, 0x00, 0x38, 0x00, 0x00, 0x00,
  0x00, 0x00, 0x00, 0x00, 0x00, 0x00, 0x00, 0x00, 0x00, 0x00, 0x00, 0x00, 0x00, 0x00, 0x00, 0x00,
  0x00, 0x00, 0x00, 0x00, 0x00, 0x00, 0x00, 0x00, 0x00, 0x00, 0x00, 0x00, 0x00, 0x00, 0x00, 0x00,
  0x00, 0x00, 0x00, 0x00, 0x00, 0x00, 0x00, 0x00, 0x00, 0x00, 0x00, 0x00, 0x00, 0x00, 0x00, 0x00,
  0x00, 0x00, 0x00, 0x00, 0x00, 0x00, 0x00, 0x00, 0x00, 0x00, 0x00, 0x00, 0x00, 0x00, 0x00, 0x00,
  0x00, 0x00, 0x00, 0x00, 0x00, 0x00, 0x00, 0x00, 0x00, 0x00, 0x00, 0x00, 0x00, 0x00, 0x00, 0x00,
  0x00, 0x00, 0x00, 0x00, 0x00, 0x00, 0x00, 0x00, 0x00, 0x00, 0x00, 0x00, 0x00, 0x00, 0x00, 0x00,
  0x00, 0x00, 0x00, 0x00, 0x00, 0x00, 0x00, 0x00, 0x00, 0x00, 0x00, 0x00, 0x00, 0x00, 0x00, 0x00,
  0x00, 0x00, 0x00, 0x00, 0x00, 0x00, 0x00, 0x00, 0x00, 0x00, 0x00, 0x00, 0x00, 0x00, 0x00, 0x00,
  0x00, 0x00, 0x00, 0x00, 0x00, 0x00, 0x00, 0x00, 0x00, 0x00, 0x00, 0x00, 0x00, 0x00, 0x00, 0x00,
  0x00, 0x00, 0x00, 0x00, 0x00, 0x00, 0x00, 0x00, 0x00, 0x00, 0x00, 0x00, 0x00, 0x00, 0x00, 0x00,
  0x00, 0x00, 0x00, 0x00, 0x00, 0x00, 0x00, 0x00, 0x00, 0x00, 0x00, 0x00, 0x00, 0x00, 0x00, 0x00,
  0x00, 0x00, 0x00, 0x00, 0x00, 0x00, 0x00, 0x00, 0x00, 0x00, 0x00, 0x00, 0x00, 0x00, 0x00, 0x00,
  0x00, 0x00, 0x00, 0x00, 0x00, 0x00, 0x00, 0x00, 0x00, 0x00, 0x00, 0x00, 0x00, 0x00, 0x00, 0x00,
  0x00, 0x00, 0x00, 0x00, 0x00, 0x00, 0x00, 0x00, 0x00, 0x00, 0x00, 0x00, 0x00, 0x00, 0x00, 0x00,
  0x00, 0x00, 0x00, 0x00, 0x00, 0x00, 0x00, 0x00, 0x00, 0x00, 0x00, 0x00, 0x00, 0x00, 0x00, 0x00,
  0x00, 0x00, 0x00, 0x00, 0x00, 0x00, 0x00, 0x00, 0x00, 0x00, 0x00, 0x00, 0x00, 0x00, 0x00, 0x00,
  0x00, 0x00, 0x00, 0x00, 0x00, 0x00, 0x00, 0x00, 0x00, 0x00, 0x00, 0x00, 0x00, 0x00, 0x00, 0x00,
  0x00, 0x00, 0x00, 0x00, 0x00, 0x00, 0x00, 0x00, 0x00, 0x00, 0x00, 0x00, 0x00, 0x00, 0x00, 0x00,
  0x00, 0x00, 0x00, 0x00, 0x00, 0x00, 0x00, 0x00, 0x00, 0x00, 0x00, 0x00, 0x00, 0x00, 0x00, 0x00,
  0x00, 0x00, 0x00, 0x00, 0x00, 0x00, 0x00, 0x00, 0x00, 0x00, 0x00, 0x00, 0x00, 0x00, 0x00, 0x00,
  0x00, 0x00, 0x00, 0x00, 0x00, 0x00, 0x00, 0x00, 0x00, 0x00, 0x00, 0x00, 0x00, 0x00, 0x00, 0x00,
  0x00, 0x00, 0x00, 0x00, 0x00, 0x00, 0x00, 0x00, 0x00, 0x00, 0x00, 0x00, 0x00, 0x00, 0x00, 0x00,
  0x00, 0x00, 0x00, 0x00, 0x00, 0x00, 0x00, 0x00, 0x00, 0x00, 0x00, 0x00, 0x00, 0x00, 0x00, 0x00,
  0x00, 0x00, 0x00, 0x00, 0x00, 0x00, 0x00, 0x00, 0x00, 0x00, 0x00, 0x00, 0x00, 0x00, 0x00, 0x00,
  0x00, 0x00, 0x00, 0x00, 0x00, 0x00, 0x00, 0x00, 0x00, 0x00, 0x00, 0x00, 0x00, 0x00, 0x00, 0x00,
  0x00, 0x00, 0x00, 0x00, 0x00, 0x00, 0x00, 0x00, 0x00, 0x00, 0x00, 0x00, 0x00, 0x00, 0x00, 0x00,
  0x00, 0x00, 0x00, 0x00, 0x00, 0x00, 0x00, 0x00, 0x00, 0x00, 0x00, 0x00, 0x00, 0x00, 0x00, 0x00,
  0x00, 0x00, 0x00, 0x00, 0x00, 0x00, 0x00, 0x00, 0x00, 0x00, 0x00, 0x00, 0x00, 0x00, 0x00, 0x00,
  0x38, 0x00, 0x00, 0x00, 0x8e, 0x25, 0x42, 0x3a, 0x16, 0xa0, 0x0f, 0x3a, 0x95, 0xbd, 0x61, 0x3a,
  0xd0, 0xff, 0xb6, 0x3a, 0x5e, 0xd4, 0x16, 0x3a, 0x25, 0x4e, 0x4e, 0x3a, 0x57, 0x1e, 0x4d, 0x3a,
  0x99, 0x70, 0x34, 0x3a, 0x36, 0xb7, 0x9b, 0x3a, 0xee, 0x23, 0x18, 0x3a, 0xd9, 0x91, 0x41, 0x3a,
  0x11, 0x4a, 0x4f, 0x3a, 0xdf, 0x5a, 0x67, 0x3a, 0xea, 0x0f, 0x0b, 0x3a, 0xaf, 0x40, 0x81, 0x3a,
  0xd8, 0xa4, 0x92, 0x3a, 0x09, 0x7c, 0x68, 0x3a, 0xf9, 0xdb, 0x84, 0x3a, 0x1f, 0xc1, 0xee, 0x3a,
  0x1a, 0xf2, 0x07, 0x3a, 0x62, 0x0f, 0x48, 0x3a, 0x6f, 0xea, 0x21, 0x3a, 0x33, 0xb2, 0x64, 0x3a,
  0xc8, 0xae, 0x42, 0x3a, 0x68, 0xeb, 0x66, 0x3a, 0x4c, 0xa7, 0x1d, 0x3a, 0xb4, 0x88, 0xb3, 0x3a,
  0x0b, 0x6d, 0x3e, 0x3a, 0x65, 0xf6, 0x4d, 0x3a, 0xe4, 0x4c, 0xaa, 0x3b, 0x68, 0x0f, 0x32, 0x3a,
  0x18, 0x84, 0xbf, 0x3a, 0x19, 0x86, 0x1e, 0x3a, 0xad, 0x4c, 0xbb, 0x3b, 0xd3, 0xa1, 0x63, 0x3a,
  0x55, 0xb5, 0x81, 0x3a, 0x58, 0xac, 0x58, 0x3a, 0x1e, 0x46, 0x65, 0x3a, 0x1e, 0x61, 0xb6, 0x3b,
  0xd0, 0xcb, 0x40, 0x3a, 0x37, 0xa8, 0xa0, 0x3a, 0x5f, 0xed, 0x41, 0x3a, 0x22, 0xe3, 0x59, 0x3a,
  0xb7, 0x4d, 0x36, 0x3a, 0xc3, 0x61, 0x39, 0x3a, 0xc4, 0x8c, 0xba, 0x3a, 0x64, 0x2a, 0xeb, 0x3a,
  0x9a, 0x0a, 0x4b, 0x3a, 0x17, 0x29, 0x27, 0x3a, 0x92, 0x58, 0x24, 0x3b, 0xc8, 0xb8, 0x3d, 0x3a,
  0xcb, 0xe1, 0xe3, 0x3a, 0xe2, 0x89, 0xa1, 0x3b, 0x07, 0xd2, 0x6c, 0x3a, 0x09, 0x94, 0xf5, 0x39,
  0xd9, 0x97, 0x05, 0x3a, 0x2c, 0x00, 0x00, 0x00, 0x66, 0x73, 0x72, 0x63, 0x6e, 0x6e, 0x5f, 0x64,
  0x73, 0x5f, 0x31, 0x2f, 0x66, 0x65, 0x61, 0x74, 0x75, 0x72, 0x65, 0x5f, 0x65, 0x78, 0x74, 0x72,
  0x61, 0x63, 0x74, 0x69, 0x6f, 0x6e, 0x5f, 0x31, 0x2f, 0x63, 0x6f, 0x6e, 0x76, 0x6f, 0x6c, 0x75,
  0x74, 0x69, 0x6f, 0x6e, 0x00, 0x00, 0x00, 0x00, 0x04, 0x00, 0x00, 0x00, 0x38, 0x00, 0x00, 0x00,
  0x05, 0x00, 0x00, 0x00, 0x05, 0x00, 0x00, 0x00, 0x01, 0x00, 0x00, 0x00, 0xd6, 0xe9, 0xff, 0xff,
  0x00, 0x00, 0x00, 0x01, 0x14, 0x00, 0x00, 0x00, 0xc8, 0x02, 0x00, 0x00, 0x10, 0x00, 0x00, 0x00,
  0x00, 0x00, 0x00, 0x02, 0x68, 0x03, 0x00, 0x00, 0xb4, 0xe8, 0xff, 0xff, 0x08, 0x00, 0x00, 0x00,
  0xcc, 0x01, 0x00, 0x00, 0x38, 0x00, 0x00, 0x00, 0x00, 0x00, 0x00, 0x00, 0x00, 0x00, 0x00, 0x00,
  0x00, 0x00, 0x00, 0x00, 0x00, 0x00, 0x00, 0x00, 0x00, 0x00, 0x00, 0x00, 0x00, 0x00, 0x00, 0x00,
  0x00, 0x00, 0x00, 0x00, 0x00, 0x00, 0x00, 0x00, 0x00, 0x00, 0x00, 0x00, 0x00, 0x00, 0x00, 0x00,
  0x00, 0x00, 0x00, 0x00, 0x00, 0x00, 0x00, 0x00, 0x00, 0x00, 0x00, 0x00, 0x00, 0x00, 0x00, 0x00,
  0x00, 0x00, 0x00, 0x00, 0x00, 0x00, 0x00, 0x00, 0x00, 0x00, 0x00, 0x00, 0x00, 0x00, 0x00, 0x00,
  0x00, 0x00, 0x00, 0x00, 0x00, 0x00, 0x00, 0x00, 0x00, 0x00, 0x00, 0x00, 0x00, 0x00, 0x00, 0x00,
  0x00, 0x00, 0x00, 0x00, 0x00, 0x00, 0x00, 0x00, 0x00, 0x00, 0x00, 0x00, 0x00, 0x00, 0x00, 0x00,
  0x00, 0x00, 0x00, 0x00, 0x00, 0x00, 0x00, 0x00, 0x00, 0x00, 0x00, 0x00, 0x00, 0x00, 0x00, 0x00,
  0x00, 0x00, 0x00, 0x00, 0x00, 0x00, 0x00, 0x00, 0x00, 0x00, 0x00, 0x00, 0x00, 0x00, 0x00, 0x00,
  0x00, 0x00, 0x00, 0x00, 0x00, 0x00, 0x00, 0x00, 0x00, 0x00, 0x00, 0x00, 0x00, 0x00, 0x00, 0x00,
  0x00, 0x00, 0x00, 0x00, 0x00, 0x00, 0x00, 0x00, 0x00, 0x00, 0x00, 0x00, 0x00, 0x00, 0x00, 0x00,
  0x00, 0x00, 0x00, 0x00, 0x00, 0x00, 0x00, 0x00, 0x00, 0x00, 0x00, 0x00, 0x00, 0x00, 0x00, 0x00,
  0x00, 0x00, 0x00, 0x00, 0x00, 0x00, 0x00, 0x00, 0x00, 0x00, 0x00, 0x00, 0x00, 0x00, 0x00, 0x00,
  0x00, 0x00, 0x00, 0x00, 0x00, 0x00, 0x00, 0x00, 0x00, 0x00, 0x00, 0x00, 0x00, 0x00, 0x00, 0x00,
  0x00, 0x00, 0x00, 0x00, 0x00, 0x00, 0x00, 0x00, 0x00, 0x00, 0x00, 0x00, 0x00, 0x00, 0x00, 0x00,
  0x00, 0x00, 0x00, 0x00, 0x00, 0x00, 0x00, 0x00, 0x00, 0x00, 0x00, 0x00, 0x00, 0x00, 0x00, 0x00,
  0x00, 0x00, 0x00, 0x00, 0x00, 0x00, 0x00, 0x00, 0x00, 0x00, 0x00, 0x00, 0x00, 0x00, 0x00, 0x00,
  0x00, 0x00, 0x00, 0x00, 0x00, 0x00, 0x00, 0x00, 0x00, 0x00, 0x00, 0x00, 0x00, 0x00, 0x00, 0x00,
  0x00, 0x00, 0x00, 0x00, 0x00, 0x00, 0x00, 0x00, 0x00, 0x00, 0x00, 0x00, 0x00, 0x00, 0x00, 0x00,
  0x00, 0x00, 0x00, 0x00, 0x00, 0x00, 0x00, 0x00, 0x00, 0x00, 0x00, 0x00, 0x00, 0x00, 0x00, 0x00,
  0x00, 0x00, 0x00, 0x00, 0x00, 0x00, 0x00, 0x00, 0x00, 0x00, 0x00, 0x00, 0x00, 0x00, 0x00, 0x00,
  0x00, 0x00, 0x00, 0x00, 0x00, 0x00, 0x00, 0x00, 0x00, 0x00, 0x00, 0x00, 0x00, 0x00, 0x00, 0x00,
  0x00, 0x00, 0x00, 0x00, 0x00, 0x00, 0x00, 0x00, 0x00, 0x00, 0x00, 0x00, 0x00, 0x00, 0x00, 0x00,
  0x00, 0x00, 0x00, 0x00, 0x00, 0x00, 0x00, 0x00, 0x00, 0x00, 0x00, 0x00, 0x00, 0x00, 0x00, 0x00,
  0x00, 0x00, 0x00, 0x00, 0x00, 0x00, 0x00, 0x00, 0x00, 0x00, 0x00, 0x00, 0x00, 0x00, 0x00, 0x00,
  0x00, 0x00, 0x00, 0x00, 0x00, 0x00, 0x00, 0x00, 0x00, 0x00, 0x00, 0x00, 0x00, 0x00, 0x00, 0x00,
  0x00, 0x00, 0x00, 0x00, 0x00, 0x00, 0x00, 0x00, 0x00, 0x00, 0x00, 0x00, 0x00, 0x00, 0x00, 0x00,
  0x00, 0x00, 0x00, 0x00, 0x00, 0x00, 0x00, 0x00, 0x00, 0x00, 0x00, 0x00, 0x00, 0x00, 0x00, 0x00,
  0x00, 0x00, 0x00, 0x00, 0x00, 0x00, 0x00, 0x00, 0x00, 0x00, 0x00, 0x00, 0x38, 0x00, 0x00, 0x00,
  0xb9, 0xf8, 0x38, 0x36, 0x79, 0xd6, 0x08, 0x36, 0x85, 0x12, 0x57, 0x36, 0xd8, 0x59, 0xae, 0x36,
  0x98, 0xb3, 0x0f, 0x36, 0x37, 0x8e, 0x44, 0x36, 0xc5, 0x6c, 0x43, 0x36, 0x98, 0xe9, 0x2b, 0x36,
  0x53, 0x5b, 0x94, 0x36, 0x4d, 0xf3, 0x10, 0x36, 0xff, 0x6b, 0x38, 0x36, 0x3b, 0x7e, 0x45, 0x36,
  0xe2, 0x6b, 0x5c, 0x36, 0x82, 0x7d, 0x04, 0x36, 0xe9, 0x49, 0x76, 0x36, 0xb6, 0xb6, 0x8b, 0x36,
  0x62, 0x7f, 0x5d, 0x36, 0x38, 0x29, 0x7d, 0x36, 0x9d, 0x78, 0xe3, 0x36, 0x66, 0x85, 0x01, 0x36,
  0x02, 0x9b, 0x3e, 0x36, 0x8a, 0x43, 0x1a, 0x36, 0x61, 0xe3, 0x59, 0x36, 0x77, 0x7b, 0x39, 0x36,
  0xb0, 0x01, 0x5c, 0x36, 0xf8, 0x33, 0x16, 0x36, 0xa9, 0x0c, 0xab, 0x36, 0x3a, 0x6d, 0x35, 0x36,
  0x9d, 0x3a, 0x44, 0x36, 0x8f, 0x40, 0xa2, 0x37, 0x31, 0xa5, 0x29, 0x36, 0x17, 0x77, 0xb6, 0x36,
  0x3d, 0x08, 0x17, 0x36, 0xaf, 0x72, 0xb2, 0x37, 0xe1, 0xdf, 0x58, 0x36, 0x2e, 0x28, 0x77, 0x36,
  0xfb, 0x6e, 0x4e, 0x36, 0x4f, 0x70, 0x5a, 0x36, 0xa6, 0xc2, 0xad, 0x37, 0x52, 0xaf, 0x37, 0x36,
  0x8c, 0x10, 0x99, 0x36, 0x32, 0xc3, 0x38, 0x36, 0x15, 0x97, 0x4f, 0x36, 0x2a, 0xb0, 0x2d, 0x36,
  0xf8, 0x9e, 0x30, 0x36, 0xd7, 0xbb, 0xb1, 0x36, 0x4d, 0x0d, 0xe0, 0x36, 0x29, 0x72, 0x41, 0x36,
  0xbe, 0x42, 0x1f, 0x36, 0x46, 0x94, 0x1c, 0x37, 0x7b, 0xc1, 0x34, 0x36, 0xd3, 0x1c, 0xd9, 0x36,
  0x8d, 0xe7, 0x99, 0x37, 0xeb, 0xa0, 0x61, 0x36, 0xf9, 0xf8, 0xe9, 0x35, 0x36, 0x8f, 0xfe, 0x35,
  0xa4, 0x00, 0x00, 0x00, 0x66, 0x73, 0x72, 0x63, 0x6e, 0x6e, 0x5f, 0x64, 0x73, 0x5f, 0x31, 0x2f,
  0x66, 0x65, 0x61, 0x74, 0x75, 0x72, 0x65, 0x5f, 0x65, 0x78, 0x74, 0x72, 0x61, 0x63, 0x74, 0x69,
  0x6f, 0x6e, 0x5f, 0x31, 0x2f, 0x52, 0x65, 0x6c, 0x75, 0x3b, 0x66, 0x73, 0x72, 0x63, 0x6e, 0x6e,
  0x5f, 0x64, 0x73, 0x5f, 0x31, 0x2f, 0x66, 0x65, 0x61, 0x74, 0x75, 0x72, 0x65, 0x5f, 0x65, 0x78,
  0x74, 0x72, 0x61, 0x63, 0x74, 0x69, 0x6f, 0x6e, 0x5f, 0x31, 0x2f, 0x42, 0x69, 0x61, 0x73, 0x41,
  0x64, 0x64, 0x3b, 0x66, 0x73, 0x72, 0x63, 0x6e, 0x6e, 0x5f, 0x64, 0x73, 0x5f, 0x31, 0x2f, 0x66,
  0x65, 0x61, 0x74, 0x75, 0x72, 0x65, 0x5f, 0x65, 0x78, 0x74, 0x72, 0x61, 0x63, 0x74, 0x69, 0x6f,
  0x6e, 0x5f, 0x31, 0x2f, 0x63, 0x6f, 0x6e, 0x76, 0x6f, 0x6c, 0x75, 0x74, 0x69, 0x6f, 0x6e, 0x3b,
  0x66, 0x73, 0x72, 0x63, 0x6e, 0x6e, 0x5f, 0x64, 0x73, 0x5f, 0x31, 0x2f, 0x66, 0x65, 0x61, 0x74,
  0x75, 0x72, 0x65, 0x5f, 0x65, 0x78, 0x74, 0x72, 0x61, 0x63, 0x74, 0x69, 0x6f, 0x6e, 0x5f, 0x31,
  0x2f, 0x53, 0x71, 0x75, 0x65, 0x65, 0x7a, 0x65, 0x00, 0x00, 0x00, 0x00, 0x01, 0x00, 0x00, 0x00,
  0x38, 0x00, 0x00, 0x00, 0x5e, 0xed, 0xff, 0xff, 0x00, 0x00, 0x00, 0x01, 0x14, 0x00, 0x00, 0x00,
  0xb8, 0x00, 0x00, 0x00, 0x0f, 0x00, 0x00, 0x00, 0x00, 0x00, 0x00, 0x09, 0xd4, 0x00, 0x00, 0x00,
  0x3c, 0xec, 0xff, 0xff, 0x08, 0x00, 0x00, 0x00, 0x6c, 0x00, 0x00, 0x00, 0x0c, 0x00, 0x00, 0x00,
  0x00, 0x00, 0x00, 0x00, 0x00, 0x00, 0x00, 0x00, 0x00, 0x00, 0x00, 0x00, 0x00, 0x00, 0x00, 0x00,
  0x00, 0x00, 0x00, 0x00, 0x00, 0x00, 0x00, 0x00, 0x00, 0x00, 0x00, 0x00, 0x00, 0x00, 0x00, 0x00,
  0x00, 0x00, 0x00, 0x00, 0x00, 0x00, 0x00, 0x00, 0x00, 0x00, 0x00, 0x00, 0x00, 0x00, 0x00, 0x00,
  0x00, 0x00, 0x00, 0x00, 0x00, 0x00, 0x00, 0x00, 0x00, 0x00, 0x00, 0x00, 0x00, 0x00, 0x00, 0x00,
  0x00, 0x00, 0x00, 0x00, 0x00, 0x00, 0x00, 0x00, 0x00, 0x00, 0x00, 0x00, 0x00, 0x00, 0x00, 0x00,
  0x00, 0x00, 0x00, 0x00, 0x00, 0x00, 0x00, 0x00, 0x00, 0x00, 0x00, 0x00, 0x00, 0x00, 0x00, 0x00,
  0x00, 0x00, 0x00, 0x00, 0x0c, 0x00, 0x00, 0x00, 0x68, 0xf0, 0x3f, 0x3b, 0x82, 0xbb, 0x52, 0x3b,
  0xa4, 0x81, 0x81, 0x3b, 0xdf, 0x29, 0xed, 0x3b, 0x60, 0xb1, 0x1a, 0x3b, 0xb2, 0xe4, 0x19, 0x3b,
  0xe4, 0xec, 0x82, 0x3b, 0x42, 0xbd, 0x38, 0x3b, 0x82, 0x88, 0x8d, 0x3b, 0x9c, 0x62, 0x15, 0x3b,
  0x7b, 0xf2, 0x75, 0x3b, 0x36, 0x98, 0x88, 0x3b, 0x23, 0x00, 0x00, 0x00, 0x66, 0x73, 0x72, 0x63,
  0x6e, 0x6e, 0x5f, 0x64, 0x73, 0x5f, 0x31, 0x2f, 0x73, 0x68, 0x72, 0x69, 0x6e, 0x6b, 0x69, 0x6e,
  0x67, 0x5f, 0x31, 0x2f, 0x63, 0x6f, 0x6e, 0x76, 0x6f, 0x6c, 0x75, 0x74, 0x69, 0x6f, 0x6e, 0x00,
  0x04, 0x00, 0x00, 0x00, 0x0c, 0x00, 0x00, 0x00, 0x01, 0x00, 0x00, 0x00, 0x01, 0x00, 0x00, 0x00,
  0x38, 0x00, 0x00, 0x00, 0x5e, 0xee, 0xff, 0xff, 0x00, 0x00, 0x00, 0x01, 0x14, 0x00, 0x00, 0x00,
